<unk>	0
<s>	0
</s>	0
<sep>	0
<cls>	0
র	-3.7725
ের	-3.94335
▁হয়	-4.32099
▁তিনি	-4.40014
▁এই	-4.55815
▁ও	-4.67216
▁করেন	-4.81842
▁করে	-4.95128
ও	-4.98809
▁সালে	-4.98844
▁	-5.02926
▁এর	-5.07444
▁এবং	-5.18266
▁থেকে	-5.19147
▁করা	-5.21124
▁একটি	-5.23457
ই	-5.25762
▁তার	-5.28055
▁এ	-5.34558
▁ছিল	-5.34982
ে	-5.38071
▁এটি	-5.42858
কে	-5.51957
▁ছিলেন	-5.52079
▁তাঁর	-5.56302
▁যায়	-5.73974
▁নাম	-5.84848
▁রয়েছে	-5.87537
▁প্রথম	-5.93944
য়	-5.94378
▁হন	-5.9742
▁মধ্যে	-6.0102
▁জন্য	-6.01051
▁এক	-6.01734
▁হিসেবে	-6.02267
তে	-6.04521
▁হয়ে	-6.06696
▁থাকে	-6.08432
▁না	-6.12902
▁বা	-6.18343
▁বছর	-6.21296
▁সাথে	-6.24584
▁হয়েছে	-6.28098
▁সময়	-6.28817
দের	-6.30204
।	-6.30524
▁শুরু	-6.32322
▁সালের	-6.32813
▁আছে	-6.35254
ী	-6.37183
▁হল	-6.37245
▁পর	-6.37564
▁অবস্থিত	-6.3967
▁এছাড়া	-6.40724
টি	-6.4274
▁কিন্তু	-6.44697
▁প্রায়	-6.46208
ি	-6.4771
▁একজন	-6.50637
▁নামে	-6.5432
▁করতে	-6.56843
▁জন	-6.56905
▁পর্যন্ত	-6.58862
▁করেছেন	-6.59021
ন	-6.59911
▁তবে	-6.6057
▁নিয়ে	-6.60596
▁প্রধান	-6.63047
▁তাদের	-6.63873
▁লাভ	-6.65072
▁তারা	-6.65105
▁অংশ	-6.66848
▁কিছু	-6.67216
▁অনেক	-6.69962
▁১	-6.70542
▁এখানে	-6.7108
া	-6.71903
▁কাজ	-6.72151
▁বলে	-6.74734
▁দলের	-6.76912
▁হতে	-6.77669
▁এরপর	-6.78643
রা	-6.78809
▁আর	-6.79468
▁সে	-6.79492
▁বিভিন্ন	-6.81207
▁দেখা	-6.81694
▁দিয়ে	-6.82495
▁দুই	-6.83009
▁পরিচিত	-6.8446
▁এদের	-6.84696
▁অন্যতম	-6.85677
▁কোন	-6.87385
▁তাকে	-6.87552
▁পরে	-6.87809
▁বর্তমানে	-6.88516
▁টি	-6.89061
▁সদস্য	-6.91525
▁দেন	-6.93376
▁দিন	-6.93723
▁১৯	-6.93844
▁পারে	-6.94026
▁শেষ	-6.94614
▁যান	-6.95651
ভাবে	-6.95733
িত	-6.96097
▁জীবন	-6.96629
▁২	-6.96712
▁ব্যবহার	-6.97042
▁বলা	-6.97283
▁ফলে	-6.98752
▁হয়েছিল	-6.99235
▁বড়	-7.00007
▁জাতীয়	-7.00829
▁বেশি	-7.01881
▁মোট	-7.02226
▁যে	-7.03783
▁দল	-7.03798
▁পাওয়া	-7.04713
▁১৮	-7.05919
▁নদী	-7.06598
▁৩	-7.07507
▁ক্রিকেট	-7.07537
▁দিকে	-7.08414
▁জেলার	-7.08486
▁সাল	-7.08956
▁সংখ্যা	-7.09271
▁হচ্ছে	-7.09747
▁মূলত	-7.10634
▁জন্ম	-7.10989
▁যা	-7.11188
▁করেছিলেন	-7.11377
▁তা	-7.14299
▁৫	-7.14548
▁এরা	-7.14819
▁অ	-7.16153
▁তখন	-7.16517
▁আয়তন	-7.17392
▁খুব	-7.17526
▁ছোট	-7.18585
▁তৈরি	-7.19233
▁অভিনয়	-7.19516
▁অবস্থান	-7.19648
▁আমি	-7.20305
▁সেই	-7.2035
ীয়	-7.20785
▁পিতা	-7.21454
▁পায়	-7.2161
▁দক্ষিণ	-7.2264
▁দ্বিতীয়	-7.23423
ঃ	-7.24
▁উপর	-7.2428
▁বেশ	-7.24965
▁এতে	-7.25103
▁দলে	-7.25345
▁সঙ্গে	-7.26546
▁কাছে	-7.27182
▁মৃত্যু	-7.27493
▁ইতিহাস	-7.27645
▁পান	-7.2828
▁রান	-7.28422
▁বাংলা	-7.28835
▁চলে	-7.28929
▁খেলায়	-7.2905
▁৪	-7.29185
▁ভারতের	-7.29289
▁শহর	-7.29376
▁ঘটে	-7.29607
▁কথা	-7.2977
▁পুরস্কার	-7.29807
▁৬	-7.30524
▁বাংলাদেশের	-7.32102
▁কিলোমিটার	-7.33446
▁চলচ্চিত্র	-7.33934
▁সেখানে	-7.35032
▁নেন	-7.35316
▁প্রতি	-7.35463
▁উত্তর	-7.35628
▁দুটি	-7.36966
▁র	-7.38117
স	-7.38339
▁অর্থ	-7.38556
▁যোগ	-7.39035
▁একই	-7.3956
▁হার	-7.39783
▁করতেন	-7.39807
▁পুরুষ	-7.39989
▁ঐ	-7.40512
▁শিক্ষা	-7.4064
▁দেয়	-7.41047
▁ভাষা	-7.41084
▁তাঁকে	-7.41375
▁মাধ্যমে	-7.42132
▁১০	-7.42151
▁তিন	-7.42323
▁আবার	-7.42329
▁সব	-7.4289
▁মূল	-7.43697
▁নয়	-7.4385
▁কারণে	-7.44595
▁হবে	-7.45426
▁এটা	-7.46185
▁সবচেয়	-7.46435
▁বাংলাদেশ	-7.4654
▁মা	-7.4662
▁দ্বারা	-7.46771
▁কোনো	-7.48408
▁সাধারণত	-7.48881
▁নতুন	-7.49554
▁তাই	-7.49912
▁নির্মাণ	-7.5023
▁হলে	-7.51733
▁মত	-7.51842
▁ইউনিয়নের	-7.52553
▁ভারত	-7.52687
▁ঢাকা	-7.53142
▁প্রকাশিত	-7.53227
▁গঠিত	-7.53687
▁পালন	-7.53874
▁৭	-7.55001
▁কম	-7.55871
▁পড়ে	-7.56021
▁খান	-7.56305
▁মাত্র	-7.56337
▁পূর্ব	-7.5637
▁গড়ে	-7.57293
?	-7.58055
ল	-7.58535
▁গান	-7.59095
▁মিটার	-7.59185
▁১৫	-7.59453
▁করার	-7.59517
▁১২	-7.59724
▁যুদ্ধ	-7.61044
▁উইকেট	-7.61348
▁বিশেষ	-7.61555
▁মনে	-7.61772
▁পরবর্তীতে	-7.61972
▁নেই	-7.62123
▁আসে	-7.62342
▁শহরের	-7.62917
▁৮	-7.6295
▁থাকেন	-7.63138
▁বাবা	-7.63646
▁দায়িত্ব	-7.63647
▁তাঁদের	-7.63881
▁মুক্তি	-7.6401
▁এলাকা	-7.64197
▁স	-7.65219
▁স্থান	-7.65283
▁অন্যান্য	-7.65587
▁হলো	-7.65612
▁কি	-7.65813
▁জয়	-7.66302
▁সময়ে	-7.66439
▁আগে	-7.66655
▁জেলা	-7.66698
▁কেন্দ্র	-7.66886
▁প্রতিষ্ঠিত	-7.67221
▁পরিচালনা	-7.68364
▁কারণ	-7.68548
▁দেয়া	-7.69297
▁নদীর	-7.69548
▁ব্যবহৃত	-7.69827
▁জন্মগ্রহণ	-7.70057
▁আসেন	-7.71095
▁থেকেই	-7.71114
▁ধরে	-7.71189
ম	-7.71697
ক	-7.71738
▁হিসাবে	-7.71808
▁মন্দির	-7.72027
▁ভাষায়	-7.72246
▁হত	-7.72262
▁সদর	-7.72358
ো	-7.72551
▁গ্রহণ	-7.72695
▁বর্তমান	-7.7306
ত	-7.73403
▁তিনটি	-7.73537
▁১৭	-7.74515
▁বিশ্ববিদ্যালয়	-7.74761
▁ভারতীয়	-7.74918
▁পাকিস্তান	-7.75641
▁করেছে	-7.75726
▁সরকার	-7.75855
▁বয়সে	-7.75944
▁যার	-7.76496
▁বিশ্ব	-7.7767
▁৯	-7.77823
▁কে	-7.77903
▁ধরনের	-7.78168
▁১৬	-7.78368
▁মারা	-7.78399
▁মহিলা	-7.78787
▁আরও	-7.7912
▁দেওয়া	-7.7936
▁কলেজ	-7.80017
▁সাদা	-7.81
▁রাজধানী	-7.81162
▁অন্য	-7.81264
▁কলকাতা	-7.81347
▁চার	-7.81425
▁ভাই	-7.81516
▁অর্জন	-7.81663
▁বর্গ	-7.81753
▁পুত্র	-7.81977
▁১১	-7.82007
▁তাঁরা	-7.82052
▁২০	-7.82167
▁বিয়ে	-7.82582
▁বিখ্যাত	-7.82624
▁নেয়	-7.82747
▁ফিরে	-7.82908
▁অঞ্চলে	-7.83079
▁টেস্ট	-7.83388
▁প্রাচীন	-7.8353
▁প্রশাসনিক	-7.83725
▁জনপ্রিয়	-7.83811
িক	-7.83958
▁খেলা	-7.84681
মাত্র	-7.85053
▁মানুষ	-7.85187
▁অব	-7.85272
▁দেশের	-7.85558
▁বছরের	-7.85903
▁ইউনিয়ন	-7.85921
▁অনুষ্ঠিত	-7.86096
▁মে	-7.86366
▁বিপক্ষে	-7.86398
▁নির্মিত	-7.86543
▁ক্রিকেটে	-7.86643
▁মতো	-7.86663
▁প্রকাশ	-7.8667
▁১৩	-7.87002
▁শহরে	-7.87392
▁আল	-7.87542
▁যুক্ত	-7.87748
▁দেশ	-7.87852
▁যুদ্ধে	-7.88297
▁রচনা	-7.89342
▁টম	-7.89456
▁পক্ষে	-7.89669
▁জনসংখ্যা	-7.90329
▁বাস	-7.90507
▁নামকরণ	-7.9058
▁স্ত্রী	-7.90731
▁কালো	-7.90744
▁আমার	-7.91531
▁১৪	-7.91877
▁বিভক্ত	-7.91926
ার	-7.92466
▁যদি	-7.92822
▁মৌসুমে	-7.93286
▁পূর্বে	-7.94181
▁গাছ	-7.94481
▁দেখতে	-7.95138
▁বহু	-7.95493
▁০০০	-7.95503
▁ছিলো	-7.95528
▁পাশাপাশি	-7.95889
▁সন্তান	-7.95898
▁স্কুল	-7.95902
▁রাজা	-7.96239
▁মসজিদ	-7.96784
▁অংশগ্রহণ	-7.9681
গুলো	-7.96855
▁উপজেলা	-7.97121
▁ফুল	-7.97187
▁অনুসারে	-7.97621
▁বি	-7.9764
▁ভাগ	-7.97962
▁সকল	-7.98577
▁পশ্চিম	-7.98802
▁গেছে	-7.98927
▁একে	-7.99022
▁চালু	-7.99829
▁গুরুত্বপূর্ণ	-8.00029
▁লম্বা	-8.00112
▁টেস্টে	-8.00196
▁অধিকাংশ	-8.0068
▁ফুট	-8.0082
▁সঙ্গীত	-8.0106
▁৩০	-8.01163
▁প্রাথমিক	-8.01172
▁এখন	-8.01784
▁দু	-8.02244
▁নির্বাচন	-8.02395
▁প্রতিষ্ঠা	-8.02577
▁মাঝে	-8.02593
▁মধ্য	-8.02832
▁খেলোয়াড়	-8.03466
টা	-8.03559
▁তৃতীয়	-8.03596
▁আন্তর্জাতিক	-8.04199
তম	-8.0448
▁হয়নি	-8.04558
▁ক্ষেত্রে	-8.04858
▁রাখা	-8.04876
▁যেতে	-8.0588
▁হাতে	-8.06019
▁আক্রমণ	-8.06255
▁ভারতে	-8.06343
▁নি	-8.06586
▁আরো	-8.0662
▁হলেন	-8.06672
▁২০০৮	-8.07097
▁অভিষেক	-8.07143
▁কয়েকটি	-8.07227
▁প্রদান	-8.07314
▁গ্রাম	-8.07512
▁শহরটি	-8.07946
▁ব্যবস্থা	-8.08121
▁ছাড়া	-8.08281
▁পরিবার	-8.08562
▁ইংল্যান্ড	-8.0857
▁ফল	-8.08589
▁আ	-8.0862
▁সাধারণ	-8.08897
▁পাঁচ	-8.09203
▁অঞ্চল	-8.09282
▁হাজার	-8.09439
সহ	-8.10006
▁সর্বোচ্চ	-8.10103
▁লেখা	-8.10209
▁থানা	-8.10287
▁২০১১	-8.10467
▁একটা	-8.10524
▁তারপর	-8.11009
▁ছেলে	-8.11093
▁স্থানে	-8.11096
▁স্কুলে	-8.11249
তা	-8.11327
▁ভূমিকা	-8.11487
▁চলচ্চিত্রে	-8.11554
▁সৃষ্টি	-8.12156
▁রেল	-8.12167
▁মাসে	-8.12232
▁লোক	-8.12557
▁দৈর্ঘ্য	-8.12642
▁২০১৪	-8.12838
▁২৫	-8.13064
▁পাকিস্তানি	-8.13251
▁পরাজিত	-8.13391
▁বসবাস	-8.13925
▁পৃথিবী	-8.13945
▁শব্দ	-8.1427
▁রঙের	-8.14301
▁খেলার	-8.14302
▁মার্চ	-8.14636
▁জুন	-8.14739
▁মতে	-8.14892
▁নির্বাচিত	-8.15081
▁অঞ্চলের	-8.15538
▁তৈরী	-8.1572
▁অন্তর্গত	-8.15835
▁দেশে	-8.15931
▁ব্রিটিশ	-8.15996
▁ব	-8.16007
▁এসময়	-8.16121
▁নামক	-8.1647
িং	-8.16896
▁উল্লেখ	-8.16977
▁পাখি	-8.17085
▁গঠন	-8.17309
▁এলাকায়	-8.17427
▁আইন	-8.17598
▁মায়ের	-8.17637
▁অস্ট্রেলিয়া	-8.17895
▁হিন্দু	-8.17974
▁ছবি	-8.18235
▁দিক	-8.18256
▁ক	-8.18354
▁দ্য	-8.18371
▁বৃহত্তম	-8.18928
▁দুইটি	-8.19249
▁মেয়ে	-8.19355
▁পরিবারের	-8.20205
▁অন্তর্ভুক্ত	-8.20311
▁মাছ	-8.20823
▁মাস	-8.20897
▁জেলায়	-8.21155
▁জানা	-8.2128
▁লাল	-8.21605
▁তে	-8.21695
▁মানুষের	-8.22191
▁বয়স	-8.22193
▁বই	-8.22241
▁পা	-8.2278
▁০	-8.22841
▁স্থানীয়	-8.23345
▁উচ্চ	-8.23543
▁উভয়	-8.23604
▁ইংরেজি	-8.23722
▁অবস্থায়	-8.23883
▁ছাত্র	-8.2419
▁পরিবর্তন	-8.24267
▁বাবার	-8.2444
▁বিভাগ	-8.24649
▁ফুটবল	-8.24736
▁চলচ্চিত্রটি	-8.24883
▁ঘটনা	-8.24951
▁নারী	-8.25164
▁যোগাযোগ	-8.25219
▁চট্টগ্রাম	-8.25266
▁কেউ	-8.25462
▁বর্ণনা	-8.26152
▁যেমন	-8.26208
▁মার্কিন	-8.26418
▁ই	-8.26795
▁২০১২	-8.26897
▁বাংলাদেশে	-8.27207
▁পাতা	-8.27441
নি	-8.2759
▁২০০৬	-8.27749
▁ভর্তি	-8.27965
▁করেছিল	-8.28185
▁আলী	-8.28231
▁কলেজে	-8.28387
▁ওপর	-8.28615
▁তারিখে	-8.28657
ং	-8.28672
▁উপজেলার	-8.28782
▁রাজনৈতিক	-8.28824
▁পাশে	-8.28871
না	-8.28876
▁জুলাই	-8.29147
▁বলতে	-8.29531
▁ছবিটি	-8.29543
▁দখল	-8.29817
▁করছেন	-8.30019
▁পরিণত	-8.30183
▁হতো	-8.3022
▁২০১০	-8.30354
▁ব্যাপক	-8.30624
▁বিষয়ে	-8.30736
▁ইসলাম	-8.31228
▁প্রচলিত	-8.31244
▁জানুয়ারি	-8.31444
▁মি	-8.3154
▁রাজ্য	-8.31608
▁ভবন	-8.32093
▁সারা	-8.32198
▁ডিম	-8.32289
▁ধরা	-8.32371
▁কর্মজীবন	-8.32409
▁সরকারি	-8.32494
▁৫০	-8.32495
▁এম	-8.32506
▁বিবাহ	-8.32551
▁বের	-8.32686
▁অর্থনীতি	-8.32706
▁অধিক	-8.32792
▁নিজের	-8.32863
▁ভাবে	-8.32978
▁রাস্তাটি	-8.33069
▁উচ্চতা	-8.33426
▁সাহিত্য	-8.3345
▁দীর্ঘ	-8.33523
▁কয়েক	-8.33534
▁রাজ্যের	-8.33541
▁ক্ষমতা	-8.337
▁এশিয়া	-8.33856
▁সেরা	-8.33903
▁গড়	-8.33976
▁শাহ	-8.34146
▁বোলিং	-8.34176
▁তথ্য	-8.34228
▁ঘোষণা	-8.34394
▁এপ্রিল	-8.34614
মধ্যে	-8.3462
▁উল্লেখযোগ্য	-8.34624
▁চারটি	-8.34789
্	-8.35168
▁সি	-8.35406
▁কর্তৃক	-8.35544
▁সম্পর্কে	-8.35583
▁কার্যক্রম	-8.35615
▁এসে	-8.35821
▁ডিসেম্বর	-8.36037
▁বিদ্যালয়	-8.36052
▁মুসলিম	-8.36152
▁জনসংখ্যার	-8.3621
▁বাজার	-8.36219
▁পরিচালিত	-8.36241
▁২০১৩	-8.36482
▁মাথা	-8.36595
▁পড়েন	-8.36662
▁ব্যাটসম্যান	-8.36829
▁প্রবেশ	-8.37057
▁দেবী	-8.37162
▁রেকর্ড	-8.37568
▁অফ	-8.3767
▁শব্দটি	-8.37724
▁বন্ধ	-8.37952
▁অবশিষ্ট	-8.38362
▁২০০৯	-8.38365
▁ধারণা	-8.38574
▁দিতে	-8.38619
▁এসেছে	-8.38712
▁রচিত	-8.38844
▁কাহিনী	-8.38882
▁বাইরে	-8.39204
▁পরবর্তী	-8.39343
▁চেয়ে	-8.39801
▁২৪	-8.39998
▁অক্টোবর	-8.4016
▁জীবনে	-8.40246
▁গোল	-8.40415
▁আরব	-8.40497
▁আধুনিক	-8.40615
▁হওয়ার	-8.40817
▁শেষে	-8.40837
▁পরিচালক	-8.41598
▁ধর্ম	-8.4176
▁কাজে	-8.41944
▁মৃত্যুবরণ	-8.42009
▁২০০৭	-8.42011
িয়ে	-8.42043
▁স্বাধীনতা	-8.4208
▁নভেম্বর	-8.42238
▁গুলি	-8.42339
▁কবিতা	-8.42378
▁শাসন	-8.42447
▁তালিকা	-8.42598
▁২২	-8.42615
▁শ্রেণীর	-8.42808
▁সংগ্রহ	-8.43215
▁কবি	-8.4324
▁সুযোগ	-8.43251
▁ধরণের	-8.43591
▁শিক্ষক	-8.43991
▁ইত্যাদি	-8.44002
▁প্রথমে	-8.44111
▁২১	-8.44412
▁অনুযায়ী	-8.4451
▁পথ	-8.44773
▁স্থাপন	-8.44773
▁খ্রিস্টাব্দে	-8.452
▁প্রতিটি	-8.45278
▁তন্	-8.45464
▁প্রভাব	-8.45787
▁বিরুদ্ধে	-8.45791
▁বৃদ্ধি	-8.46052
▁নানা	-8.46121
▁বন্দর	-8.4615
▁২০১৫	-8.46301
▁অবশ্য	-8.46305
▁২৩	-8.46686
ত্যন্ত	-8.46788
▁সম্পূর্ণ	-8.46881
▁পদে	-8.46973
▁প্রধানত	-8.47215
▁শাখা	-8.47324
▁কন্যা	-8.47829
▁অপর	-8.48265
▁আসন	-8.48286
▁বিশিষ্ট	-8.48291
▁বিষয়	-8.48419
▁শিল্প	-8.4851
▁পদ্ধতি	-8.48575
▁পড়াশোনা	-8.4865
▁খাবার	-8.48719
▁আগস্ট	-8.48831
▁অবসর	-8.48986
▁পরিমাণ	-8.49032
▁খেলেন	-8.4913
গুলি	-8.49174
▁গ্রামে	-8.49333
▁রূপ	-8.49595
▁রহমান	-8.49839
▁সর্ব	-8.49899
▁বলেন	-8.49969
▁খাদ্য	-8.50237
▁টাকা	-8.50581
▁অর্থাৎ	-8.50787
▁সামনে	-8.50807
▁মুহাম্মদ	-8.51058
▁উৎস	-8.51142
ুল	-8.51156
বার	-8.51234
▁প্রজাতির	-8.51574
▁পথে	-8.5158
▁নিযুক্ত	-8.5169
▁সফল	-8.51768
▁২০০৫	-8.51871
▁এরফলে	-8.52151
▁দূরত্ব	-8.52171
▁সহ	-8.52188
▁পানি	-8.52276
▁ব্যক্তি	-8.52946
▁করছে	-8.53114
▁একর	-8.53242
▁উপন্যাস	-8.53465
▁নিয়মিত	-8.5356
েও	-8.53663
▁বিশ্বাস	-8.5367
▁ব্যক্তিগত	-8.53679
নং	-8.5381
পুর	-8.54152
▁এসব	-8.54636
▁সংসদের	-8.54713
▁বাড়ি	-8.5481
▁২০০১	-8.54933
▁দলটি	-8.55033
▁বল	-8.55062
▁এগুলো	-8.55067
▁পদক	-8.5508
▁দশকে	-8.55329
অথবা	-8.55511
▁সফরে	-8.55599
▁ধারণ	-8.55605
▁বোলার	-8.55651
▁অধীনে	-8.55909
▁হত্যা	-8.55993
▁ছয়	-8.56202
▁১৯৭১	-8.56337
▁নিহত	-8.56339
▁দ্রুত	-8.56486
▁প্রচুর	-8.56623
▁সেপ্টেম্বর	-8.56638
▁ভিন্ন	-8.56759
▁কেবল	-8.56769
▁মনোনীত	-8.56906
▁এমন	-8.56954
▁গানের	-8.56956
▁ওঠে	-8.57015
▁কখনো	-8.57266
▁বিশ্বে	-8.57368
▁প্রতিষ্ঠান	-8.57462
▁নিচে	-8.57496
টির	-8.57541
▁সবুজ	-8.577
▁সম্পর্ক	-8.57716
ীন	-8.57838
▁বিমান	-8.57857
▁পুরো	-8.57975
▁আলাদা	-8.58061
▁ফলাফল	-8.58287
▁একক	-8.58604
▁ইবন	-8.58792
▁করত	-8.58974
▁শিক্ষার	-8.59043
▁বিভাগের	-8.59119
▁জমি	-8.59183
▁নামের	-8.59227
▁জীবনের	-8.59343
শ	-8.59498
▁উৎসব	-8.5968
▁সা	-8.59688
▁গ্রন্থ	-8.59725
▁মিলিয়ন	-8.59755
▁বিবরণ	-8.59804
▁পদ	-8.59839
▁সাক্ষরতা	-8.59852
▁হয়েছিলেন	-8.59945
▁বিশ্ববিদ্যালয়ে	-8.60093
▁অধিবর্ষে	-8.60132
▁চৌধুরী	-8.60153
▁দেহ	-8.60344
▁আই	-8.60347
▁যুদ্ধের	-8.60374
▁ভাষার	-8.60393
▁আজ	-8.6101
▁পরবর্তীকালে	-8.61026
▁ইনিংসে	-8.61246
▁ম	-8.61289
▁বাংলার	-8.62
কার	-8.62184
▁শিকার	-8.6228
▁রঙ	-8.62416
▁থাকা	-8.62446
▁লক্ষ	-8.62551
▁ঠিক	-8.62603
▁২৮	-8.62786
▁বোন	-8.62815
▁নোবেল	-8.62816
েই	-8.62895
▁বিভাগে	-8.62909
রূপে	-8.63321
▁অংশে	-8.63463
▁ধীরে	-8.63597
▁তুলে	-8.63872
▁প্রজাতি	-8.64136
▁এগুলি	-8.64171
▁নিউ	-8.64182
▁সক্ষম	-8.64303
▁সামরিক	-8.6435
▁দেখে	-8.65116
▁২৬	-8.65447
▁শুধু	-8.65555
▁চেষ্টা	-8.65601
▁গবেষণা	-8.65872
▁২০০৪	-8.65923
▁ভালো	-8.6595
▁হলুদ	-8.66131
▁তুলনায়	-8.66268
িয়া	-8.66358
▁শব্দের	-8.66485
▁সম্পাদক	-8.66516
▁সরকারের	-8.66774
▁নিজ	-8.66803
▁রায়	-8.66829
▁জীবনী	-8.6683
▁পরিচিতি	-8.66988
▁সম্ভব	-8.67057
▁চলচ্চিত্রের	-8.67076
▁লেখক	-8.67328
▁সাহায্য	-8.67678
▁নীল	-8.67683
▁স্থাপিত	-8.68132
▁গল্প	-8.68169
▁পরীক্ষা	-8.68258
▁গিয়ে	-8.68458
▁যাত্রা	-8.68528
▁ছবিতে	-8.68534
▁মান	-8.68614
▁উঠে	-8.68736
▁অসম	-8.68777
▁এস	-8.69055
▁চরিত্রে	-8.691
▁আবদুল	-8.69104
▁স্টেশন	-8.6926
▁আমরা	-8.69452
▁নামটি	-8.69613
▁শক্তি	-8.69674
▁২০০৩	-8.6976
জ	-8.69941
▁২৯	-8.70059
▁১০০	-8.70061
▁করলে	-8.70158
▁চতুর্থ	-8.70317
▁উৎপত্তি	-8.70443
▁চাষ	-8.70543
▁তীরে	-8.70614
▁শহীদ	-8.70652
▁পাশ	-8.70682
▁ডিগ্রি	-8.70732
▁বিদ্যমান	-8.70732
▁২০১৬	-8.70747
▁ধর্মীয়	-8.70836
▁বিজয়ী	-8.70993
▁পরিচয়	-8.71099
▁বৈশিষ্ট্য	-8.71165
▁সবাই	-8.71321
▁পারেন	-8.71376
▁উৎপাদন	-8.71385
▁মৌজা	-8.71399
▁আহত	-8.71408
▁আকার	-8.71501
▁প্রতিযোগিতায়	-8.71868
▁একাধিক	-8.72238
▁প্রতিনিধিত্ব	-8.72394
▁২৭	-8.72477
▁হাত	-8.72482
▁ক্লাব	-8.72508
▁২০০০	-8.72607
▁আকারে	-8.7262
▁দূরে	-8.72626
▁হ	-8.72649
▁পুলিশ	-8.72669
▁আদি	-8.72808
▁বাসা	-8.72813
▁৪০	-8.73005
▁নিজস্ব	-8.73065
▁সেন	-8.73065
▁সমগ্র	-8.73073
▁এখানকার	-8.731
▁সম্পন্ন	-8.73159
▁ইতিহাসে	-8.73176
▁পূজা	-8.73503
▁বিশাল	-8.73891
▁রোগ	-8.74086
▁সাত	-8.74135
▁বিজ্ঞান	-8.7448
▁বৌদ্ধ	-8.74531
▁পছন্দ	-8.74654
▁এখনও	-8.74788
▁মন্দিরে	-8.74789
▁থাকতে	-8.74817
▁খ্রিষ্টাব্দে	-8.75214
▁ঐতিহাসিক	-8.75302
▁ডি	-8.75452
▁তোলেন	-8.75504
▁সড়ক	-8.75546
▁কিছুটা	-8.75709
▁জল	-8.75814
▁৬০	-8.75893
▁মসজিদটি	-8.76342
▁পৌরসভা	-8.76377
▁বেশী	-8.76724
▁ছেড়ে	-8.77198
▁রাখেন	-8.77338
▁অল্প	-8.77493
▁কলকাতায়	-8.77518
▁যোগদান	-8.77967
▁এভাবে	-8.78051
▁যখন	-8.78612
▁বার	-8.7865
▁৩১	-8.78751
▁ডানহাতে	-8.7885
▁ভাল	-8.78964
▁কোটি	-8.7904
▁মাইল	-8.79075
গুলোর	-8.79081
▁এটিকে	-8.79126
▁পাখির	-8.79146
াল	-8.79171
▁সমুদ্র	-8.79307
ট	-8.79401
▁হক	-8.79417
▁পুনরা	-8.79478
▁মুখ	-8.79541
▁নকশা	-8.7958
▁ডানহাত	-8.7961
▁ফরাসি	-8.80058
▁অধ্যয়ন	-8.80428
▁কৃষি	-8.81028
▁রাস্তা	-8.81035
▁আন্দোলন	-8.81128
▁আপনি	-8.81174
কালীন	-8.81324
▁সম্ভবত	-8.81603
▁ফেব্রুয়ারি	-8.81637
১	-8.81661
▁ব্যবধানে	-8.81938
▁মর্যাদা	-8.82594
কৃত	-8.82606
▁২০০২	-8.82622
▁ঠোঁট	-8.82741
▁ডানার	-8.82934
▁জনপ্রিয়তা	-8.83138
▁ঘর	-8.833
▁সিদ্ধান্ত	-8.83449
▁পর্যায়ে	-8.83523
▁সেখান	-8.83569
▁চরিত্র	-8.83596
▁বইটি	-8.83805
▁দেশটি	-8.83908
▁অনেকটা	-8.83977
▁চুক্তি	-8.84013
▁কিমি	-8.84162
▁প্রতিষ্ঠাতা	-8.84197
▁সম্রাট	-8.84226
▁পরের	-8.84227
▁চাকরি	-8.84329
▁ম্যাচ	-8.84501
▁ওজন	-8.84655
▁তেমন	-8.848
▁মাতার	-8.84901
▁অবদান	-8.84916
▁দ্বীপ	-8.8499
▁গ্রামের	-8.85004
▁আমেরিকা	-8.85052
▁বছরে	-8.85061
▁বেড়ে	-8.8527
▁খাল	-8.85345
▁শতক	-8.85496
▁নাটক	-8.85664
▁সর্বশেষ	-8.86017
▁নিতে	-8.86077
▁ভিত্তি	-8.86083
▁ওয়েস্ট	-8.86251
▁নেতৃত্ব	-8.86252
▁সভাপতি	-8.86336
▁বেগম	-8.86346
▁শুরুতে	-8.8637
▁নদীতে	-8.86747
▁প্রারম্ভিক	-8.86781
▁আছেন	-8.86789
▁বাদামি	-8.86809
▁প্রাণী	-8.86819
▁রং	-8.86874
▁বাহিনী	-8.86882
▁লক্ষ্য	-8.86907
▁বাড়িতে	-8.8694
▁আয়োজন	-8.86964
▁সেমি	-8.87364
▁আবিষ্কার	-8.8753
▁সংস্কৃত	-8.87566
▁সাম্রাজ্য	-8.87646
▁উঁচু	-8.87689
▁হাট	-8.87789
▁সু	-8.87926
▁খেলেছেন	-8.87954
▁সংগীত	-8.8801
▁নিজেকে	-8.88183
▁কলেজটি	-8.88216
▁তথ্যসূত্র	-8.88346
ণ	-8.88435
▁আহমেদ	-8.88469
▁ধ্বংস	-8.88723
▁সংরক্ষিত	-8.88737
▁প্রকার	-8.89115
▁অলিম্পিক	-8.89202
▁দিনে	-8.89218
▁উদ্ভিদ	-8.8936
▁একদিন	-8.89471
▁প্রতীক	-8.89519
▁অধ্যাপক	-8.89525
▁অনুবাদ	-8.89668
▁ফেলে	-8.89702
▁রাখে	-8.89773
▁১৯৯০	-8.8994
▁অতি	-8.89959
▁ত্যাগ	-8.90052
▁সনে	-8.90061
▁ইউনিয়নে	-8.90134
▁জুড়ে	-8.90449
▁বিপ্লবী	-8.90473
▁ধান	-8.90514
▁অভিনেতা	-8.90523
▁খেলে	-8.90526
কারী	-8.90645
▁উপরে	-8.90672
▁হোসেন	-8.90736
▁বিস্তৃত	-8.90928
▁এলাকার	-8.90975
▁অ্যালবাম	-8.9114
▁সিটি	-8.91197
▁নদীটি	-8.91419
▁ছবির	-8.91538
▁আসা	-8.91626
▁পাহাড়	-8.91638
▁অবস্থা	-8.91702
▁গভীর	-8.91814
▁পাঁচটি	-8.9184
▁ব্যর্থ	-8.91858
▁গাছে	-8.91897
▁প্র	-8.91931
▁সাফল্য	-8.91932
▁সেনা	-8.92249
▁স্ত্রীর	-8.9268
▁পাস	-8.92681
▁যথেষ্ট	-8.92758
▁হাই	-8.92865
▁মো	-8.93052
▁অভিনেত্রী	-8.93463
▁স্নাতক	-8.93624
▁পরিকল্পনা	-8.93917
▁উপাদান	-8.9403
▁বসে	-8.94116
▁নির্দিষ্ট	-8.94414
▁মূর্তি	-8.94579
▁গ	-8.94582
▁সমান	-8.94715
▁নেয়া	-8.94789
▁সংস্করণ	-8.9481
▁গুরুত্ব	-8.94848
▁যেখানে	-8.94877
▁রানে	-8.94886
▁বাকি	-8.949
▁রাতে	-8.95001
সমূহ	-8.95031
টিকে	-8.95035
▁ব্যাটিং	-8.95235
▁বিশ্বকাপ	-8.95319
▁জড়িত	-8.95696
▁১৯৯৬	-8.95702
▁মাতা	-8.95713
▁মিডিয়া	-8.95721
▁সুলতান	-8.95807
▁ওই	-8.95812
▁মডেল	-8.95951
▁লিখেছেন	-8.96101
▁১৯৮০	-8.96109
▁যুক্তরাষ্ট্রে	-8.96173
শে	-8.96226
▁ঘরোয়া	-8.96525
▁মাসের	-8.96531
▁বর্ণ	-8.96902
▁তুমি	-8.96958
▁বীজ	-8.97103
▁কখনও	-8.97174
▁রাষ্ট্র	-8.97208
▁৭০	-8.97234
▁মাধ্যম	-8.97245
▁এখনো	-8.97494
▁সমস্যা	-8.97863
▁চোখ	-8.97868
▁মন্দিরটি	-8.98115
▁সহায়তা	-8.98418
▁পণ্য	-8.98454
লা	-8.98541
▁সিরিজের	-8.98671
▁দক্ষিণে	-8.98721
▁ড	-8.98837
▁বিদ্যালয়টি	-8.98907
▁সাহিত্যে	-8.9906
▁আক্রান্ত	-8.99116
▁১৯৯৯	-8.99144
▁অন্যদিকে	-8.99148
▁রাজ	-8.99148
▁আরেকটি	-8.99238
▁সেনারা	-8.99279
▁ডাক	-8.99392
মোট	-8.99496
▁আয়	-8.99531
▁চলাচল	-8.99569
▁বিদ্যালয়ে	-8.99587
▁অধিনায়ক	-8.99653
▁আউট	-8.99666
▁ঘন	-8.99774
▁স্থায়ী	-8.99803
▁কলেজের	-8.99851
▁প্রয়োজন	-8.99878
▁নেতা	-8.99892
▁বহিঃসংযোগ	-8.99995
▁আন্দোলনের	-9.00011
▁অধিকার	-9.00154
▁সংস্থা	-9.00315
▁সময়ের	-9.00443
গণ	-9.0059
▁বর্ণের	-9.00602
▁ঢাকায়	-9.00677
▁সাগর	-9.00813
▁পরিবহন	-9.00833
গত	-9.01097
▁প্রজনন	-9.01141
▁পৃথক	-9.01224
▁এমনকি	-9.01273
▁শিশু	-9.01464
▁সফলতা	-9.01512
▁রাষ্ট্রপতি	-9.01648
▁দেব	-9.01742
▁৩৫	-9.01756
▁পালিয়ে	-9.01795
▁১৯৬০	-9.01811
▁সক্রিয়	-9.01927
▁কাউন্টি	-9.0193
▁জাপান	-9.01984
▁পি	-9.02024
▁নিরসন	-9.02228
▁ছড়িয়ে	-9.0223
▁পুরুষদের	-9.02248
▁পারেননি	-9.02266
▁হওয়া	-9.02385
▁সেতু	-9.02426
▁কাল	-9.02446
▁আসছে	-9.02543
▁মাঠে	-9.02546
▁শতকের	-9.0255
▁উদ্বোধন	-9.02662
ব	-9.02899
▁আমাদের	-9.03144
▁কাছ	-9.03242
▁৯০	-9.0334
▁পূর্ণ	-9.03347
গুলির	-9.03443
▁আট	-9.03624
▁প	-9.03759
▁দশ	-9.03938
▁সিরিজ	-9.04328
▁৮০	-9.04368
▁এগিয়ে	-9.04441
▁আফ্রিকা	-9.0448
▁সূর্য	-9.04501
▁বন্দরটি	-9.04613
িন	-9.04662
▁বাহিনীর	-9.04776
▁ব্যান্ড	-9.04826
▁চা	-9.04941
▁উক্ত	-9.05102
▁মাঠ	-9.05103
▁পশ্চিমবঙ্গ	-9.05119
▁দলকে	-9.05774
▁দ্ব্যর্থতা	-9.05906
▁সর্বাধিক	-9.05913
▁দিয়েছেন	-9.0598
▁হ্রদ	-9.0602
▁পদার্থ	-9.06278
▁পশ্চিমে	-9.0635
▁পেয়ে	-9.06357
▁ডাকা	-9.0642
▁কোম্পানি	-9.06438
▁বিহার	-9.06441
▁গাড়ি	-9.06581
▁আন্দোলনে	-9.0668
▁নগর	-9.06805
▁পতাকা	-9.06807
▁শিরোপা	-9.06844
▁কর্মরত	-9.06856
▁৩২	-9.06941
▁মুক্তিযুদ্ধ	-9.06985
▁সিরিজে	-9.06986
▁প্রত্যেক	-9.0703
▁রকম	-9.0705
▁চীন	-9.07067
▁৪৫	-9.07087
▁সম্পাদনা	-9.07097
▁জাহাজ	-9.07153
▁সেনাবাহিনীর	-9.0737
▁শুধুমাত্র	-9.0738
▁রাজনীতি	-9.07388
▁জন্যে	-9.07412
▁আরবি	-9.07548
▁নেতৃত্বে	-9.07654
▁নিকট	-9.07776
▁১৯৭০	-9.07805
▁এটির	-9.07808
▁সমস্ত	-9.07817
▁প্রকৃত	-9.07888
▁সুবিধা	-9.07982
▁নম্বর	-9.08142
▁উত্তরে	-9.08155
▁দান	-9.08274
▁প্রচলন	-9.08276
▁মুক্তিযোদ্ধাদের	-9.08395
▁কৃষ্ণ	-9.08556
▁আলি	-9.08622
মূলক	-9.08634
▁চিকিৎসা	-9.08864
▁বিশ্বকাপে	-9.08905
▁মোহাম্মদ	-9.08944
▁হয়েছেন	-9.09115
▁উপস্থিত	-9.09123
▁কমে	-9.09146
▁শতকে	-9.09208
▁চলতে	-9.09238
▁সর্বপ্রথম	-9.0924
▁অল	-9.09266
▁মুক্তিযোদ্ধারা	-9.09329
▁ভূমিকায়	-9.09452
২	-9.09469
▁দেবতা	-9.09509
▁যাবে	-9.09715
▁সম	-9.09822
▁বাদ	-9.10055
▁বহন	-9.10062
▁রেখে	-9.10076
▁উঠেছে	-9.10083
▁ধূসর	-9.10215
▁ডিগ্রী	-9.10225
▁ঘরে	-9.10289
▁টেলিভিশন	-9.103
▁কমলা	-9.10475
▁আওতাধীন	-9.10703
▁১৯৩০	-9.10731
▁বাংলায়	-9.10818
▁শতাংশ	-9.10821
▁লেজ	-9.10876
▁সংযুক্ত	-9.10931
▁উপ	-9.10932
▁ইংরেজ	-9.10995
▁বন্ধু	-9.11077
▁চীনের	-9.11125
▁ফসল	-9.11208
▁আকৃতির	-9.11326
▁অনেকে	-9.11496
টিতে	-9.11581
▁সূচনা	-9.11688
▁নিয়ন্ত্রণ	-9.11694
▁কিছুদিন	-9.11858
▁পালক	-9.11912
▁কোচ	-9.12079
▁৭৫	-9.12279
▁পত্রিকা	-9.12333
▁ইংল্যান্ডে	-9.12487
▁পানির	-9.12587
▁হালকা	-9.1269
্য	-9.12726
▁পেয়েছেন	-9.12805
▁অনুষ্ঠান	-9.1289
▁শিল্পী	-9.12935
▁খাওয়া	-9.13022
▁বন	-9.13068
▁শিব	-9.1313
▁স্বাধীন	-9.13184
▁পঞ্জিকা	-9.13191
▁১৯৪৭	-9.13205
ান	-9.13345
▁অতিক্রম	-9.13609
▁সঠিক	-9.13696
▁রয়েছেন	-9.13696
▁অভিহিত	-9.13697
▁শতাব্দীতে	-9.13842
ড	-9.13961
▁বস্তু	-9.14122
▁জি	-9.14196
▁খ্রিস্টাব্দ	-9.1447
▁আপনার	-9.14593
▁যিনি	-9.14714
▁১৯৯৭	-9.14738
▁করলেন	-9.14931
▁যুগে	-9.15087
▁নির্ভর	-9.15119
▁আলোচনা	-9.15228
▁বৃহৎ	-9.1525
▁১৯৯৮	-9.15253
▁কর	-9.15568
▁সিনেমা	-9.15679
▁রাজশাহী	-9.1585
▁ইন্ডিজ	-9.16124
▁আবু	-9.16229
৬৫	-9.16233
▁পাড়ে	-9.16264
▁কাঠ	-9.16285
▁শতাব্দীর	-9.1643
▁খানের	-9.16572
▁ব্যবসা	-9.16651
▁রাম	-9.16862
▁মুক্ত	-9.17001
▁সেঞ্চুরি	-9.17019
▁ডলার	-9.17096
▁প্রতিযোগিতার	-9.17204
▁মৌসুম	-9.17213
তীর্ণ	-9.17217
▁ভূগোল	-9.17252
▁১৯৭৫	-9.17321
▁অঞ্চলটি	-9.1735
▁উন্নয়ন	-9.17371
▁বাঙালি	-9.17384
▁প্রবাহিত	-9.17394
▁স্থানান্তর	-9.17701
▁বেশিরভাগ	-9.17734
▁মালিক	-9.17756
▁খ	-9.17828
▁১৯৯৫	-9.17859
▁ভূমি	-9.18274
▁অর্ধ	-9.1834
▁অস্ত্র	-9.18363
▁ভাগে	-9.18379
▁সংস্কৃতি	-9.18564
▁চীনা	-9.18626
▁শৈশব	-9.18629
▁ব্যাটিংয়ে	-9.18681
▁সংসদ	-9.18725
▁ধর্মের	-9.18752
▁আমাকে	-9.18912
▁একটু	-9.18939
▁সংঘট	-9.18943
▁প্রশিক্ষণ	-9.19085
▁পার	-9.19088
▁যাওয়া	-9.19144
▁ইঞ্চি	-9.19152
▁উপাধি	-9.19174
▁নির্বাচনে	-9.19219
▁ভেতরে	-9.19258
মাধ্যমিক	-9.19387
▁গেল	-9.19416
▁বন্দী	-9.19418
▁সরাসরি	-9.19426
▁উপাত্ত	-9.19427
▁বিল	-9.19428
▁গ্রুপ	-9.19497
▁সৈয়দ	-9.19942
▁ভূষিত	-9.19964
▁হবার	-9.2
▁বিন	-9.20134
মা	-9.20168
▁গণ	-9.20374
▁কর্ম	-9.20388
▁১৯৯১	-9.20529
▁ঘোষ	-9.20851
▁নিচের	-9.20862
▁উদ্দেশ্যে	-9.20912
▁করবে	-9.2093
▁প্রস্তুত	-9.20984
দা	-9.21018
▁সিলেট	-9.21024
▁খাতুন	-9.21049
▁১৯৯২	-9.21057
▁ফাস্ট	-9.21072
▁২টি	-9.211
▁নির্দেশ	-9.21117
▁শ্রীলঙ্কা	-9.21165
▁বিদ্যালয়ের	-9.21202
▁যাওয়ার	-9.21265
▁নিউজিল্যান্ড	-9.21313
▁পক্ষ	-9.21329
▁রানের	-9.21409
▁এল	-9.21427
▁আসলে	-9.21449
▁রাত	-9.21471
▁চিহ্নিত	-9.21632
▁এটিই	-9.21748
ু	-9.21751
▁দি	-9.2177
▁পঞ্চম	-9.21781
▁অধিকারী	-9.21782
▁সিংহ	-9.21931
▁ছয়টি	-9.22066
▁দাবি	-9.22128
▁জাতি	-9.22138
▁নিয়োগ	-9.22154
হ	-9.22178
▁বিক্রি	-9.22225
▁মুখে	-9.22415
▁কয়েকজন	-9.22529
▁পর্বত	-9.22684
▁দৈনিক	-9.22698
▁অবশেষে	-9.22718
▁ক্লাবের	-9.22927
▁সংস্কার	-9.23016
▁শাসক	-9.23034
▁৩৩	-9.23042
য়ের	-9.23063
▁থাকার	-9.23066
▁লা	-9.23169
▁গলা	-9.23177
▁চূড়ান্ত	-9.23254
▁দূর	-9.23261
▁তেল	-9.23296
▁ভবনের	-9.23338
তেই	-9.23341
▁৩৬	-9.23472
▁জায়গায়	-9.23498
▁অসংখ্য	-9.23579
▁প্রদেশ	-9.23615
৩	-9.23698
–	-9.23699
▁ম্যাচে	-9.23713
▁প্রবাহ	-9.23977
▁ব্যাপারে	-9.24106
▁সীমানা	-9.2412
▁উপজেলায়	-9.24167
▁দাগ	-9.24221
▁প্রাকৃতিক	-9.24233
▁রক্ত	-9.24253
▁সামাজিক	-9.24273
▁লন্ডনে	-9.24611
▁দপ্তর	-9.24716
▁লাগে	-9.24768
▁জাপানে	-9.2491
▁রোড	-9.24916
▁ল	-9.2493
▁পতন	-9.24987
▁এন	-9.24993
▁জগতে	-9.2501
▁গানটি	-9.25187
সংখ্যক	-9.25212
▁৫৫	-9.25386
▁রোমান	-9.25435
▁বর্গকিলোমিটার	-9.2551
▁ফিফা	-9.25527
▁সভ্যতা	-9.25552
▁কম্পিউটার	-9.25586
াস	-9.25703
▁বিস্তার	-9.25758
▁২০০	-9.26017
▁১৯৭৯	-9.26094
▁তাপমাত্রা	-9.2611
▁স্বীকৃতি	-9.26185
▁খ্যাতি	-9.262
▁কেন	-9.26349
লি	-9.26369
▁আনা	-9.26472
▁আনুষ্ঠানিক	-9.26599
▁অগ্রসর	-9.26654
▁ভৌগোলিক	-9.26658
▁উদ্দেশ্য	-9.26796
▁রে	-9.27119
▁তত্ত্ব	-9.27159
▁নেওয়া	-9.27175
▁উন্নীত	-9.27225
▁আইসিসি	-9.27234
▁কাপ	-9.27241
▁১৯৪৮	-9.27248
▁মৌলিক	-9.27253
▁কোড	-9.27505
▁গুরু	-9.27542
▁মিল	-9.27543
▁বাণিজ্য	-9.27733
▁লীগ	-9.27797
▁জার্মান	-9.27828
▁চিত্র	-9.28062
▁ওয়ার্ড	-9.28185
▁বর	-9.28281
জন	-9.28294
▁প্রমাণ	-9.28305
▁জায়গা	-9.28315
▁আসতে	-9.28359
▁গেলে	-9.28379
▁এখান	-9.28574
▁জ্ঞান	-9.28611
▁বিস্তৃতি	-9.28706
▁অর্থনৈতিক	-9.28889
▁পরিবারে	-9.28897
▁কঠিন	-9.28934
▁স্বামী	-9.28951
▁বোলিংয়ে	-9.28955
▁কী	-9.29022
▁অস্তিত্ব	-9.2906
▁তোমার	-9.29067
▁প্রক্রিয়া	-9.29125
▁শেখ	-9.2922
▁একাডেমি	-9.29345
▁পেয়েছে	-9.29447
▁সমর্থন	-9.29448
▁শব্দটির	-9.29588
▁দর্শন	-9.2961
▁দায়িত্বে	-9.29798
▁উন্নত	-9.29808
▁মহকুমা	-9.29931
▁নিম্ন	-9.29953
্ব	-9.29997
▁কক্ষ	-9.30047
▁ক্ষুদ্র	-9.30128
▁পুরনো	-9.30175
▁বিবেচনা	-9.30178
▁১৯৮৯	-9.30183
▁১৯৫০	-9.3019
▁প্রস্তাব	-9.30229
▁রক্ষা	-9.30255
▁সুর	-9.30388
▁ত	-9.30389
▁পর্ব	-9.3043
▁জয়ী	-9.30514
▁সবার	-9.30592
▁মানে	-9.30602
▁বিজয়	-9.30725
▁গ্রন্থের	-9.30753
▁প্রদেশের	-9.30781
▁চাই	-9.30809
▁আবাস	-9.30817
▁প্রধানমন্ত্রী	-9.30833
▁মেনে	-9.30877
▁হারিয়ে	-9.30956
▁ভর	-9.3101
▁৫২	-9.31011
াম	-9.31018
▁1	-9.31096
▁সুন্দর	-9.31137
▁ভুল	-9.31219
▁প্রতিষ্ঠানটি	-9.31241
▁পার্ক	-9.31294
▁কিংবা	-9.31376
▁প্রযোজনা	-9.31377
▁বুঝতে	-9.31377
▁১৯৯৩	-9.31391
▁রুশ	-9.3141
▁আদর্শ	-9.31456
▁দিয়েছিলেন	-9.3146
▁৪৭	-9.31509
▁লাইন	-9.31578
▁টিভি	-9.31818
▁পেছনে	-9.31819
▁শক্তিশালী	-9.31983
▁নেমে	-9.31985
▁২য়	-9.32262
▁বাঘ	-9.32294
▁তাতে	-9.32313
▁খায়	-9.3232
▁দ্বীপের	-9.32353
▁৪৯	-9.326
▁১৯৬২	-9.32604
▁ম্যান	-9.32733
▁সাম্রাজ্যে	-9.32776
নের	-9.32824
▁যায়নি	-9.32908
▁ফাইনালে	-9.32955
▁৪টি	-9.32969
▁প্রতিযোগিতা	-9.33008
▁পিছনে	-9.3309
▁বাধ্য	-9.3317
▁পার্থক্য	-9.33202
▁সমতল	-9.33212
▁মিলে	-9.33215
▁জয়লাভ	-9.33215
▁একবার	-9.33228
▁সামান্য	-9.33279
যুক্ত	-9.33308
▁ডানা	-9.33361
▁চায়	-9.33622
▁সম্মান	-9.33809
▁১৯৯৪	-9.33832
▁১৯৮৪	-9.33843
▁গভীরতা	-9.3391
▁ন	-9.33954
কালে	-9.34058
▁পুরাণ	-9.34166
ির	-9.34166
্স	-9.34405
▁ক্রীড়া	-9.3443
▁অনেকগুলো	-9.34434
▁তাছাড়া	-9.34452
▁সত্য	-9.34453
▁সেখানেই	-9.34482
▁আফ্রিকার	-9.34491
▁সমাজ	-9.345
▁খরচ	-9.34566
▁সমৃদ্ধ	-9.34857
▁শিক্ষার্থী	-9.34869
▁বুদ্ধ	-9.3496
▁নারীদের	-9.35011
▁নিষিদ্ধ	-9.35072
▁১৯৮৭	-9.35076
▁আবদ্ধ	-9.35093
▁–	-9.35191
প	-9.35233
▁সৌদি	-9.35247
▁প্রদর্শন	-9.35333
▁দেহে	-9.35465
▁কাজের	-9.35538
▁অলিম্পিকে	-9.35605
▁ড্র	-9.35613
▁কাছাকাছি	-9.35694
▁পেয়েছিলেন	-9.35709
▁বিরাট	-9.35711
ায়	-9.35734
▁অপরাজিত	-9.36016
▁মাটিতে	-9.3609
▁শক্ত	-9.36153
াই	-9.36172
▁সচ	-9.36232
▁জমিদার	-9.363
▁আনুমানিক	-9.36328
▁কালচে	-9.3633
▁সেন্ট	-9.36361
▁জে	-9.36421
▁সন্তানের	-9.3653
▁সফর	-9.36545
▁ভ্রমণ	-9.36596
▁তৎকাল	-9.36615
▁একসময়	-9.36679
▁খোলা	-9.36679
▁গুলো	-9.36803
▁চ্যাম্পিয়ন	-9.3683
▁উনি	-9.36857
▁অবকাঠামো	-9.36964
▁আলো	-9.36993
▁১৯৮৫	-9.36996
▁দশকের	-9.37005
▁জেলে	-9.3702
▁মাটি	-9.37089
▁গভর্নর	-9.37105
▁৪৬	-9.37273
▁ক্রিকেটার	-9.37289
▁আকারের	-9.37313
▁সরকারী	-9.374
▁প্রজাতিটি	-9.3742
▁পবিত্র	-9.3752
▁প্রভাবিত	-9.37841
▁পর্যটন	-9.37903
▁৫০০	-9.37968
▁ইউরোপ	-9.37968
▁প্রচার	-9.3818
▁১৯৮২	-9.38263
▁সেবা	-9.38268
▁জ	-9.38308
▁নদীটির	-9.38365
১৯	-9.38399
▁ইন	-9.38438
▁অভিযান	-9.3844
▁উজ্জ্বল	-9.38545
▁ষষ্ঠ	-9.3866
▁উসমানীয়	-9.38723
▁ধারা	-9.38728
▁যুগ	-9.38884
▁১৯৬৯	-9.38905
▁সাংস্কৃতিক	-9.38907
▁গণ্য	-9.38913
▁১৯৭৪	-9.38922
▁১৯৮৮	-9.38932
▁বয়সী	-9.38975
▁সাহায্যে	-9.38998
▁পাল	-9.39262
▁আমলে	-9.39284
▁নিজেদের	-9.39302
▁পাথর	-9.39378
▁গায়ে	-9.39379
▁নিয়ম	-9.3945
▁নাটকে	-9.3946
▁বিপরীতে	-9.39497
▁১৯৭৩	-9.39567
▁এজন্য	-9.39571
▁গাঢ়	-9.39573
▁বেশির	-9.39575
▁শিক্ষাজীবন	-9.39578
▁১৯৬৩	-9.396
▁দরজা	-9.39624
▁উদাহরণ	-9.3967
▁বিমানবন্দর	-9.39879
▁ভবনটি	-9.3988
ৎ	-9.39889
লে	-9.39999
▁পৌরসভার	-9.40028
▁যুক্তরাষ্ট্র	-9.40122
▁করেননি	-9.40135
▁শ্রেষ্ঠ	-9.40178
বি	-9.40217
▁ঘটনার	-9.40365
▁মিষ্টি	-9.4046
▁সীমান্ত	-9.4048
▁মন	-9.40482
▁৫৬	-9.40505
▁ঠাকুর	-9.4054
▁খেলতে	-9.40787
▁ভেঙে	-9.40873
▁১৯৮৩	-9.4088
প্রাপ্ত	-9.40974
▁সারি	-9.40997
▁চন্দ্র	-9.41059
▁সরু	-9.41075
▁সেটা	-9.41193
▁দাস	-9.41341
▁গ্যাস	-9.41346
▁নেপাল	-9.41428
▁খেতে	-9.41504
▁বোঝানো	-9.41544
▁আইনে	-9.41555
▁১৯৫৬	-9.41567
▁পাঠানো	-9.41574
▁লি	-9.41576
▁১৯৭৬	-9.41582
▁পদ্ধতিতে	-9.41592
▁সূত্র	-9.41684
▁হিন্দি	-9.41817
৩৮	-9.41823
রাচর	-9.41845
▁দশক	-9.41916
▁শ	-9.41946
▁গ্রিক	-9.42043
▁ব্লকে	-9.42152
▁সাবেক	-9.42215
▁স্থাপত্য	-9.42245
▁আগ্রহ	-9.42272
▁তম	-9.42333
▁পানিতে	-9.4235
▁দুজন	-9.42506
▁কুমার	-9.42577
▁বাজারে	-9.42599
▁নামেই	-9.4262
▁দিল্লি	-9.42632
▁চলছে	-9.42723
▁আঘাত	-9.42738
সাথে	-9.42799
▁নীতি	-9.42827
▁ইউরোপীয়	-9.42829
▁আচরণ	-9.42918
▁বৃষ্টি	-9.42945
▁রাজবংশের	-9.42949
▁ইট	-9.42966
▁বিদ্রোহ	-9.43122
▁হাসান	-9.43137
▁দুইবার	-9.43166
▁শীর্ষ	-9.43169
▁যৌন	-9.43315
▁পারিবারিক	-9.43319
▁মানব	-9.4354
▁জেনারেল	-9.43567
▁গ্রেপ্তার	-9.4357
▁ঘিরে	-9.43574
▁১৯৭৮	-9.43585
▁আগের	-9.43658
▁সেন্টিমিটার	-9.43734
▁লন্ডন	-9.43967
চন্দ্র	-9.43992
▁বৈজ্ঞানিক	-9.44021
▁আম	-9.44118
▁বাচ্চা	-9.44158
▁১৯৮৬	-9.44269
▁১৯৫৮	-9.44273
▁গ্রন্থটি	-9.44402
▁ব্যয়	-9.44418
▁বিরোধী	-9.44442
▁লড়াই	-9.44726
▁নিজে	-9.44842
▁খবর	-9.44919
▁১৯২০	-9.44968
▁দিনের	-9.44981
▁এক্ষেত্রে	-9.45022
▁প্রথমবার	-9.45061
▁বাংলাদেশী	-9.45075
▁ডান	-9.4515
▁সংস্থার	-9.45156
▁আমেরিকান	-9.45253
▁৯টি	-9.45257
▁গোত্রের	-9.45474
▁৫১	-9.45568
▁পারেনি	-9.45577
▁সমিতি	-9.45694
▁দেখানো	-9.45798
▁পাতার	-9.45957
▁রবীন্দ্রনাথ	-9.45986
▁লিপি	-9.46002
▁গতি	-9.4623
▁দুটো	-9.46354
▁খলিফা	-9.46417
▁মিনার	-9.46504
▁ইউরোপে	-9.46512
▁প্রাপ্ত	-9.46544
▁৫৪	-9.46699
▁পৃথিবীতে	-9.46704
▁মধ্যেই	-9.46893
▁জোয়ার	-9.46983
▁পারদর্শী	-9.4701
▁রোগে	-9.47028
তার	-9.47034
▁জেমস	-9.47056
▁১৯৪৬	-9.47057
▁৪২	-9.47067
▁তথা	-9.47447
▁নং	-9.47458
▁দুর্গ	-9.47576
▁সংযোগ	-9.47596
কা	-9.47678
▁সোভিয়েত	-9.47752
▁১৯৬৬	-9.47782
▁অবধি	-9.47786
▁বরাবর	-9.47787
▁মাঘ	-9.47792
▁১ম	-9.4789
▁দত্ত	-9.47902
▁চোখের	-9.48031
▁৬৫	-9.48036
▁চাঁদ	-9.48036
▁কর্মকর্তা	-9.48038
▁মিনিট	-9.48122
▁অভিনীত	-9.48463
▁১৯৬৮	-9.48481
▁ছাত্রী	-9.48546
▁ট্রেন	-9.48598
▁আকৃতি	-9.48655
▁বিলুপ্ত	-9.48796
▁পত্রিকায়	-9.48836
তি	-9.48957
▁শিক্ষকতা	-9.49074
▁দেখুন	-9.49183
▁বার্সেলোনা	-9.49185
▁নির্ধারিত	-9.49188
▁তালিকায়	-9.49255
▁বৃদ্ধির	-9.49275
নাথ	-9.49607
▁রেলওয়ে	-9.4971
য়ে	-9.49827
▁মাটির	-9.49855
▁বে	-9.49872
▁জানতে	-9.49888
▁নৌকা	-9.499
▁উদ্ধার	-9.4991
▁১৯৫৪	-9.49913
▁১৯৮১	-9.49925
▁প্রকৃতির	-9.49934
▁মাথায়	-9.49985
▁নিয়েছেন	-9.49991
▁পরিষদ	-9.50042
▁রেখা	-9.50139
▁পাকিস্তানে	-9.50253
▁দম্পতির	-9.50261
দিন	-9.5039
▁পত্রিকার	-9.50425
সংখ্যা	-9.50522
▁বোনের	-9.50536
▁শ্রেণী	-9.50554
কাল	-9.50594
▁সম্প্রচার	-9.5079
▁৫টি	-9.50931
▁যেটি	-9.50938
▁আশ্রয়	-9.50978
▁মুক্তিযোদ্ধা	-9.51057
▁সহকারী	-9.51275
▁শীত	-9.51347
▁সহজ	-9.5141
ুর	-9.51565
▁৪৮	-9.51695
▁যুগের	-9.5171
▁কাব্য	-9.51723
মান	-9.51743
▁অপেক্ষা	-9.51836
▁মিশর	-9.51852
▁৩৪	-9.51904
▁ব্লক	-9.5191
▁বাণিজ্যিক	-9.52066
▁ভেঙ্গে	-9.52106
▁বেঁচে	-9.52115
▁১৯৫২	-9.52121
▁খেলছেন	-9.52122
▁খুঁজে	-9.52137
▁৪৪	-9.52143
▁১৯৬৪	-9.52147
▁নামানুসারে	-9.52167
▁প্রতিদিন	-9.52196
▁রস	-9.52215
▁বিপ্লব	-9.52228
▁নিয়েছিলেন	-9.52245
▁নবাব	-9.5239
▁ব্যাখ্যা	-9.52429
▁ভোট	-9.52452
▁অফিস	-9.52613
▁মাছের	-9.52709
▁যথা	-9.52713
▁তীব্র	-9.52714
▁রাখতে	-9.52804
▁পুকুর	-9.52814
▁ডাক্তার	-9.52859
▁বিবেচিত	-9.5286
▁কোথাও	-9.52969
▁আনন্দ	-9.5301
▁সংগঠন	-9.53331
▁সংক্ষেপ	-9.53583
▁সেনাবাহিনী	-9.53609
▁১৯৬৭	-9.53622
▁উপত্যকা	-9.53685
▁সাধারনত	-9.53695
▁ইসলামের	-9.53702
▁পেতে	-9.53707
▁চোখে	-9.53754
▁মহিলাদের	-9.53967
৭	-9.54099
▁অঙ্গ	-9.54151
▁বদলে	-9.54226
▁কার্যকর	-9.54242
৪৩	-9.54286
▁মিত্র	-9.54315
▁বীর	-9.54318
▁মক্কা	-9.54349
▁চওড়া	-9.54369
▁সম্মিলিত	-9.54369
তো	-9.54389
▁করতো	-9.54456
▁উ	-9.54547
▁জাতির	-9.5465
▁জনগণ	-9.54662
▁গম্বুজ	-9.54682
▁কর্মী	-9.54718
▁শ্রী	-9.54807
েল	-9.54927
▁যারা	-9.54972
▁মেট্রো	-9.54989
▁সদরদপ্তর	-9.55133
▁অনুসরণ	-9.55134
▁১৯৩২	-9.55177
▁পায়ের	-9.55282
▁৩টি	-9.55328
▁নিদর্শন	-9.55341
▁ঘুরে	-9.5535
▁দর্শক	-9.55507
▁প্রকৃতি	-9.5573
▁তারিখ	-9.5576
৯৭২	-9.55765
▁৪৩	-9.55772
▁ছবিটির	-9.55789
▁গোপন	-9.55829
▁পড়তে	-9.55831
▁প্রতিরক্ষা	-9.5593
▁ব্রাজিল	-9.55953
▁কিশোর	-9.55976
▁মহা	-9.55988
▁মিলিত	-9.5604
▁প্রকল্প	-9.56045
▁৩৭	-9.56156
▁চ্যানেল	-9.5629
▁কোষ	-9.5637
▁কোম্পানির	-9.56666
▁অতিরিক্ত	-9.56679
▁ফলশ্রুতিতে	-9.56682
▁রাউন্ডার	-9.567
▁সংকেত	-9.56748
▁পুণরা	-9.56777
▁কত	-9.56976
▁ভিতরে	-9.57036
▁মাদ্রাসা	-9.57138
▁ডাল	-9.57249
▁জুটি	-9.5738
▁হামলা	-9.57382
▁গোত্র	-9.57436
▁সম্মাননা	-9.57503
▁সম্বন্ধে	-9.57503
▁ঘণ্টা	-9.57535
গুলোতে	-9.57622
▁পালিত	-9.57635
ছিলেন	-9.57677
▁আরেক	-9.57709
▁বার্ষিক	-9.57744
▁৭২	-9.57778
▁পাঠ	-9.57943
▁বাসিন্দা	-9.58102
▁প্রশস্ত	-9.58103
▁জন্মের	-9.58177
▁০০	-9.58207
▁প্রশংসা	-9.58241
▁হাসপাতালে	-9.58245
▁পরিসংখ্যান	-9.58376
▁গানে	-9.58419
▁পরিবেশন	-9.58422
▁জর্জ	-9.58449
য়া	-9.58511
কি	-9.58524
▁আক্রমণের	-9.58672
▁৩৮	-9.58758
▁যাত্রী	-9.58795
▁পত্রিকাটি	-9.58828
▁পার্টি	-9.58884
৬	-9.58995
▁যেত	-9.59043
▁১৯৫৫	-9.59057
▁আকর্ষণ	-9.59263
▁পাকা	-9.59367
▁বক্স	-9.59377
▁জনক	-9.59387
▁ইরান	-9.59466
▁রা	-9.59497
▁উন্নতি	-9.59539
▁কুমিল্লা	-9.59575
▁কলা	-9.59582
▁মেলা	-9.59605
▁মুঘল	-9.59615
▁খ্যাত	-9.59697
▁প্রস্থ	-9.59763
▁যন্ত্র	-9.59812
▁প্রিয়	-9.59828
▁উপযোগী	-9.59848
▁১৯৫৩	-9.59868
▁ন্যায়	-9.59872
▁মন্ত্রী	-9.59959
▁বিদ্যুৎ	-9.60022
▁জার্মানির	-9.60067
দ	-9.60132
▁ধারাবাহিক	-9.60147
▁সংবিধান	-9.60159
▁বর্ষ	-9.60274
▁রাজনীতিতে	-9.60294
▁নাগরিক	-9.60329
▁সবগুলো	-9.6034
▁রাজ্যে	-9.60406
গঞ্জ	-9.60425
▁কমিউনিস্ট	-9.60645
▁আক্রমণে	-9.60703
▁শৈশবে	-9.60726
▁সাহিত্যিক	-9.60781
▁তো	-9.60828
▁চালিত	-9.60836
▁নিবাস	-9.60926
▁পড়ার	-9.60952
▁করি	-9.60957
▁সেগুলো	-9.60991
▁বিশ্বযুদ্ধ	-9.61119
▁ক্লাবে	-9.6121
▁লীগের	-9.613
▁কার	-9.61304
▁সপ্তাহ	-9.61364
▁পিএইচডি	-9.61459
▁আঞ্চলিক	-9.61459
▁গোলে	-9.61468
▁১৯৩	-9.6147
▁উল্লেখ্য	-9.61501
▁উচ্চতায়	-9.61582
ম্যান	-9.61678
▁মহাসড়ক	-9.617
রত	-9.61879
▁স্ব	-9.61883
▁ছোটো	-9.61966
▁৩০০	-9.62089
▁প্রেসিডেন্ট	-9.62278
▁লেখাপড়া	-9.62279
▁পরিবর্তে	-9.62314
▁ভয়	-9.62356
▁মূল্য	-9.62397
▁উপস্থিতি	-9.62481
▁গীত	-9.62498
নো	-9.62569
▁ব্লকটি	-9.62598
▁সেসময়	-9.62748
▁হওয়ায়	-9.62749
▁প্রভৃতি	-9.62764
হীন	-9.62897
▁বহুল	-9.62921
▁কমিটি	-9.62967
▁৬টি	-9.62996
▁আরম্ভ	-9.63115
▁প্রসিদ্ধ	-9.63145
▁খেলাটি	-9.63156
▁শত	-9.63167
▁ঐতিহ্যবাহ	-9.6323
▁এরকম	-9.63304
▁কোরিয়া	-9.63313
▁খুলনা	-9.634
▁শূন্য	-9.63401
▁মেরি	-9.63439
▁আগেই	-9.63439
▁প্রথা	-9.63441
৩৬	-9.6346
▁সাতটি	-9.63494
▁বসু	-9.63539
▁মুক্তিযুদ্ধে	-9.63699
▁দিবস	-9.63733
▁হয়েছিলো	-9.63745
▁আন্তর্জাতিকে	-9.6381
▁ওডিআই	-9.63833
▁সূরা	-9.63855
▁সেটি	-9.63888
▁৬৮	-9.63905
▁৫৮	-9.63935
▁সপ্তম	-9.63943
▁সমালোচনা	-9.63944
পরিবর্তিত	-9.63982
▁ভাষাতে	-9.64002
▁আকাশ	-9.64026
▁রূপে	-9.64026
▁গরম	-9.64097
▁পাথরের	-9.64237
থ	-9.64359
▁সহযোগী	-9.64443
▁হাউস	-9.64534
▁দে	-9.64592
▁উইকেটে	-9.64707
▁জিম্বাবুয়ে	-9.64778
▁অধীনস্থ	-9.6478
ula	-9.64781
১৬	-9.64812
▁বিধানসভা	-9.64813
▁বিকাশ	-9.64826
▁জানান	-9.64881
▁পিছু	-9.64931
▁স্টেডিয়াম	-9.64962
▁স্বাস্থ্য	-9.65062
▁৬৯	-9.65077
▁পিঠ	-9.6518
▁সমন্বয়ে	-9.65339
▁জটিল	-9.65343
▁ঘনত্ব	-9.65451
▁আসল	-9.65567
▁বইয়ের	-9.6557
▁চিন্তা	-9.65612
▁গোলাকার	-9.65648
▁তোলা	-9.65693
ঁ	-9.65726
▁প্রাচীনতম	-9.65823
▁সংরক্ষণ	-9.65843
▁জাত	-9.6586
▁করবেন	-9.66045
▁নিশ্চিত	-9.66217
▁বৃক্ষ	-9.66218
▁দক্ষ	-9.66227
▁রাজার	-9.66292
▁অভিনয়ের	-9.66385
▁তাদেরকে	-9.66471
▁কক্সবাজার	-9.66481
▁লালচে	-9.66489
▁১৯৪৫	-9.66492
▁স্থির	-9.66497
▁ধাতু	-9.66497
ফ	-9.6652
▁স্থাপনা	-9.66633
▁উপপ্রজাতি	-9.66666
▁ইতালি	-9.66692
▁খাঁ	-9.66697
▁চাল	-9.66737
▁চর্চা	-9.66743
▁এখানেই	-9.66787
▁আটটি	-9.66867
▁৬৬	-9.66901
▁দ্বীপে	-9.66912
▁টমের	-9.66975
▁উর্দু	-9.67016
▁বয়ে	-9.67022
▁কার্যালয়	-9.67146
▁সৈন্য	-9.67147
▁৬৩	-9.67181
▁লাখ	-9.67194
▁রাষ্ট্রের	-9.6732
▁উৎপন্ন	-9.67343
তঃপর	-9.67344
▁১৯৬১	-9.67346
▁বন্যপ্রাণী	-9.67353
▁বেল	-9.67386
▁মুখ্য	-9.67391
▁সেট	-9.67533
▁দাদা	-9.67614
▁অতিবাহ	-9.67756
৯	-9.67795
▁চালিয়ে	-9.67839
▁A	-9.67866
▁শিবের	-9.6794
▁মানসিক	-9.67998
▁স্টেশনটি	-9.68062
▁বাগান	-9.68082
▁পরি	-9.68093
▁বোর্ড	-9.68158
▁পার্টির	-9.68162
▁আহমদ	-9.6819
▁মতবাদ	-9.68195
▁উদ্ভব	-9.68213
▁গৃহীত	-9.68243
▁১টি	-9.68288
▁ইসলামী	-9.68337
ীয়া	-9.6835
▁প্রতিরোধ	-9.68362
▁নির্ধারণ	-9.68409
▁দেবীর	-9.68432
▁রংপুর	-9.68457
▁স্পেন	-9.68489
▁ওঠেন	-9.68514
▁জনগোষ্ঠী	-9.68563
▁সহজেই	-9.686
▁উপরের	-9.68602
▁আল্লাহ	-9.68885
▁এদেরকে	-9.69029
▁মাঝারি	-9.69039
▁গ্রন্থে	-9.69077
▁ইরাক	-9.69087
▁কঠোর	-9.69089
▁শীতকালে	-9.69104
▁ঈশ্বর	-9.69105
▁১৯৫৯	-9.69116
▁আদায়	-9.69179
▁প্রচারিত	-9.69218
▁কারনে	-9.69279
▁ময়মনসিংহ	-9.69351
▁প্রাণ	-9.6937
▁রুট	-9.69412
▁প্রয়োগ	-9.69433
▁হাতি	-9.69487
▁ট্রফি	-9.69608
▁চর	-9.69714
▁নিজেই	-9.69813
▁বিতর্ক	-9.69837
▁মাংস	-9.69867
▁সংক্ষিপ্ত	-9.69918
▁বিপুল	-9.69975
▁নাগাদ	-9.69979
▁নজরুল	-9.69985
▁খেয়ে	-9.6999
▁যোগ্যতা	-9.70006
▁form	-9.70007
▁কেটে	-9.70019
▁ফ্রান্স	-9.7002
▁বসতি	-9.70052
▁সম্প্রদায়	-9.70079
▁সেকেন্ড	-9.70097
▁স্বর্ণ	-9.70121
▁৮৫	-9.70177
▁আমির	-9.70322
▁রাজবংশ	-9.7034
▁ব্যাংক	-9.70384
▁বৈ	-9.70399
▁আশা	-9.70579
▁পশ্চিমবঙ্গে	-9.70586
েন	-9.70603
▁প্রেম	-9.70634
২২	-9.7075
▁গিয়েছে	-9.7075
▁পর্বে	-9.70783
▁বঙ্গ	-9.70851
▁বৃষ্টিপাত	-9.70872
▁স্বপ্ন	-9.70877
▁সমূহ	-9.70932
▁আপ	-9.71017
▁লীগে	-9.71089
▁রবার্ট	-9.71135
▁৩৯	-9.71168
▁ইন্দোনেশিয়া	-9.71235
▁আগমন	-9.71301
▁চিহ্ন	-9.71307
বজায়	-9.71313
▁এফ	-9.71472
▁কালে	-9.71558
▁আগ	-9.7161
▁কাজী	-9.71618
এ	-9.71631
▁শান্তি	-9.71761
▁জড়িয়ে	-9.71775
▁১৯৫১	-9.71793
▁১৯৭৭	-9.71802
▁১৯৪০	-9.71804
▁চালায়	-9.71805
▁বাদামী	-9.71825
▁১৯৪২	-9.71867
▁ফেলা	-9.71868
▁লিখিত	-9.72046
▁সংবাদ	-9.7205
▁পরেই	-9.72096
▁পরিবেশ	-9.72099
▁বাধা	-9.72191
▁তরুণ	-9.72212
▁অনেকেই	-9.7231
▁নব	-9.7234
▁বাসস্থান	-9.72386
▁এবার	-9.72453
▁নামাজ	-9.72455
▁স্বীকৃত	-9.72521
▁টিকে	-9.72524
▁দ	-9.72631
▁৭৬	-9.72638
▁পৌষ	-9.72681
▁দাঁড়ায়	-9.72696
▁পাট	-9.72701
▁পরবর্তি	-9.72704
▁সবসময়	-9.72713
▁শাখায়	-9.72736
▁অংশের	-9.72787
▁দাম	-9.72896
▁গুণ	-9.72906
ডি	-9.72928
▁উৎপাদ	-9.72975
▁পোশাক	-9.73055
▁বছরই	-9.73057
▁সোসাইটি	-9.73068
▁প্রকাশনা	-9.7307
▁রাজত্ব	-9.73096
▁ভাত	-9.73101
▁পারি	-9.73146
▁গুপ্ত	-9.73382
▁গেমসে	-9.73435
▁অনুষ্ঠানে	-9.73458
▁বংশোদ্ভূত	-9.73594
▁তুর্কি	-9.73606
▁৬৪	-9.73734
▁৫৯	-9.73825
▁সমাজে	-9.73828
▁স্তম্ভ	-9.74001
▁সকাল	-9.74028
▁সেনাদের	-9.74037
▁চান	-9.74058
▁মুসলমান	-9.74206
সি	-9.7425
▁ফুটে	-9.74267
▁নেপালে	-9.74407
▁জাপানি	-9.74409
▁ওভার	-9.74427
▁বেঙ্গল	-9.74524
▁সান	-9.74569
▁জিন	-9.74585
▁স্বল্প	-9.74612
▁ভিডিও	-9.7462
▁অসুস্থ	-9.74669
▁মাহমুদ	-9.74676
▁বামহাত	-9.74683
▁মেলে	-9.74698
▁বাড়ির	-9.74853
▁সেনাবাহিনীতে	-9.74854
▁দ্বীপটি	-9.74859
▁ধরন	-9.74897
▁বাড়িটি	-9.74953
▁সরল	-9.7504
▁সিং	-9.75072
▁৭৩	-9.7509
▁ইহুদি	-9.75106
▁নৌ	-9.75174
▁সমাপ্ত	-9.7522
দিকে	-9.7524
▁সাংবাদিক	-9.7528
▁পাল্টা	-9.7533
▁সময়কালে	-9.75414
▁চেয়ারম্যান	-9.75443
▁হ্রাস	-9.75455
▁সুপরিচিত	-9.75456
▁৬২	-9.75483
▁২০১৭	-9.75489
▁১৯৫৭	-9.75497
▁লেজের	-9.75521
▁কেন্দ্রে	-9.75542
▁তিনিই	-9.75694
▁ফোন	-9.75811
▁ভূ	-9.75839
ছে	-9.75848
▁ডাকে	-9.75871
▁কেজি	-9.75908
▁এন্ড	-9.75918
▁দুধ	-9.75954
▁সেক্টরে	-9.75958
েস	-9.76024
▁রান্না	-9.7612
▁প্রজাতন্ত্র	-9.76225
▁প্রোগ্রাম	-9.76272
▁থাকবে	-9.76287
▁জোড়া	-9.76397
▁একত্রে	-9.76456
▁মুক্তিবাহিনী	-9.76467
▁প্রযুক্তি	-9.76506
▁বন্যা	-9.76717
▁বিষয়টি	-9.76927
▁জৈন	-9.76979
▁ইউনিভার্সিটি	-9.77001
▁শিষ্য	-9.77033
▁ভিত্তিতে	-9.77128
▁ফ্রান্সের	-9.77154
▁ক্ষমতায়	-9.77292
▁সমাধি	-9.77364
▁৫৩	-9.77374
▁১৯২৪	-9.77402
▁পেশা	-9.77433
▁অংশটি	-9.77479
েরা	-9.77503
▁প্রান্ত	-9.77521
▁শ্রমিক	-9.77599
▁ভেতর	-9.77601
▁কৌশল	-9.7761
▁ওভারে	-9.7766
▁পাননি	-9.77665
▁ক্যারিয়ার	-9.77707
▁আবদুল্লাহ	-9.77863
▁প্রান্তে	-9.7791
▁দক্ষতা	-9.77922
▁ইউ	-9.78017
▁দেয়াল	-9.78113
▁নিয়োজিত	-9.78316
▁১৯৪৯	-9.78335
▁ছাদ	-9.78347
▁রাজি	-9.78374
▁বিপরীত	-9.78387
বিশিষ্ট	-9.7841
▁৭১	-9.78503
▁৪১	-9.78565
▁সম্পর্কিত	-9.78664
▁উইকিপিডিয়ান	-9.78674
▁নির্মাণে	-9.7874
লাল	-9.78749
▁কারো	-9.79001
▁আন্তঃ	-9.79172
▁উদ্যান	-9.79199
▁আফগানিস্তান	-9.79206
▁ইস্ট	-9.79234
▁ফোটে	-9.79284
▁৭৮	-9.79322
ময়	-9.79345
▁ঘটেছে	-9.79354
▁এলাকাটি	-9.79362
▁প্রবন্ধ	-9.79378
▁পেয়েছিল	-9.79384
▁১০০০	-9.79406
▁উইকিপিডিয়ায়	-9.79506
গুলোকে	-9.79559
▁সাড়	-9.79563
▁ব্যবস্থার	-9.79577
২৭	-9.79599
▁হোটেল	-9.7981
▁বৈশাখ	-9.79854
▁আলম	-9.79865
▁ভি	-9.79882
▁সন্ধান	-9.79964
▁পয়েন্ট	-9.79981
▁মসজিদে	-9.79994
▁টমকে	-9.80052
▁বাকী	-9.80059
▁কমিশন	-9.80076
▁কাঠামো	-9.8012
▁যাচ্ছে	-9.80134
▁ইয়র্ক	-9.80158
▁গড়েন	-9.80191
▁গিয়েছিল	-9.80206
▁সাউথ	-9.80261
▁পৈতৃক	-9.80263
▁বেগ	-9.80281
▁অনুরূপ	-9.80289
▁নির্বাহী	-9.80308
▁মাজার	-9.80337
▁যাদের	-9.80416
▁ব্যক্তিত্ব	-9.80427
▁স্থানটি	-9.80454
▁মৃত	-9.80492
▁পড়া	-9.80498
▁জানায়	-9.8056
▁খালি	-9.80592
▁তলা	-9.80595
▁শ্রেণীতে	-9.80602
▁পরিমাপ	-9.80684
▁থাকলেও	-9.80714
▁অববাহিকা	-9.80783
▁স্থপতি	-9.80804
▁১৫০	-9.80896
▁পাই	-9.80905
▁যত	-9.80949
▁রেলপথ	-9.80962
িকা	-9.81098
▁স্কুলটি	-9.81194
▁ফ	-9.81209
▁সংক্রান্ত	-9.81235
▁ডেভিড	-9.81249
▁কৃতিত্ব	-9.8125
▁ভৌগলিক	-9.81254
▁চিৎকার	-9.81254
▁সর্ববৃহৎ	-9.81255
▁আত্মহত্যা	-9.81256
এর	-9.81259
▁আর্থিক	-9.81262
▁প্রতিনিধি	-9.81266
▁১৯২১	-9.81297
▁১৯৩৯	-9.81314
▁অর্থে	-9.8133
▁আবুল	-9.81369
▁আদেশ	-9.81376
▁মার	-9.81402
▁যশোর	-9.81408
▁নায়ক	-9.81452
▁তিনবার	-9.81495
▁৭টি	-9.815
▁অভিজ্ঞতা	-9.81518
▁পেশায়	-9.81527
▁তিনজন	-9.81535
▁টন	-9.81598
▁দোকান	-9.81633
▁ছুটি	-9.81647
▁দশম	-9.81721
৭২	-9.81727
▁ঘাস	-9.81736
▁কা	-9.81737
▁৮৪	-9.81748
▁ফের	-9.81836
▁পাবনা	-9.81972
▁লেখালেখি	-9.81988
▁কোচের	-9.81991
▁মিশ্র	-9.81997
▁তোলে	-9.82129
কেই	-9.82146
▁অধ্যক্ষ	-9.82254
▁পানিপ্রবাহ	-9.82255
▁নবম	-9.82314
▁কর্তৃপক্ষ	-9.82392
▁নাচ	-9.82445
▁শতাব্দী	-9.82569
▁স্বাভাবিক	-9.82688
▁৪০০	-9.82723
▁ক্যাম্পাস	-9.82823
▁মঞ্চ	-9.82916
▁উপন্যাসটি	-9.82957
▁শরীর	-9.82959
▁উপসাগর	-9.83021
৩৭	-9.83048
▁গায়ক	-9.83071
▁অব্যাহত	-9.83074
▁প্রেরণ	-9.83181
▁শাখার	-9.83232
▁যথাক্রমে	-9.83269
▁সৈনিক	-9.83307
▁শতাধিক	-9.83336
▁আজাদ	-9.83342
▁বর্ণিত	-9.83488
তেও	-9.83552
▁জেলাটি	-9.836
▁কল	-9.83617
▁খনন	-9.83625
▁সাব	-9.83719
▁কান	-9.83828
▁স্তর	-9.83893
▁কোনও	-9.83952
▁ব্যবসায়ী	-9.83953
▁নদ	-9.83998
ক্ষিত	-9.83998
▁জাদুঘর	-9.84098
▁উপন্যাসের	-9.84124
▁পর্যায়	-9.84175
▁দার্শনিক	-9.84284
▁স্থলাভিষিক্ত	-9.84284
▁চাহিদা	-9.84284
▁সিএনজি	-9.84284
▁খনিজ	-9.84297
▁বিশ্বব্যাপী	-9.84312
▁পিঠে	-9.84344
▁শিখ	-9.84391
▁গণেশ	-9.84449
▁জলের	-9.84452
▁বোঝায়	-9.84481
▁ব্রেক	-9.84506
▁সেদিন	-9.84534
▁মাত্রা	-9.84555
▁অবস্থানে	-9.84678
▁লেগ	-9.84689
▁ফাইনাল	-9.84699
▁ব্রাহ্মণ	-9.84709
▁ক্ষেত্র	-9.84759
▁অষ্টম	-9.84845
▁চাপ	-9.84852
▁অবরোধ	-9.84903
▁ধারার	-9.84938
▁ব্যাস	-9.84984
▁বুক	-9.85092
▁হেরে	-9.8517
▁মিয়া	-9.853
▁৫৭	-9.85309
▁হঠাৎ	-9.85315
▁হুগলি	-9.85315
▁অসাধারণ	-9.85315
▁ঝাঁপ	-9.85351
▁হয	-9.85357
▁কোথায়	-9.85373
▁ঘাড়	-9.85376
▁অফিসার	-9.85402
▁মাইকেল	-9.8546
▁জীব	-9.85517
▁স্বাক্ষরতা	-9.85525
▁খেলতেন	-9.85528
▁গেম	-9.85551
▁মুদ্রা	-9.85593
▁জমা	-9.856
▁থাকতেন	-9.85732
▁বিশ্বযুদ্ধে	-9.85752
▁অনেকগুলি	-9.8579
▁মিশরে	-9.85798
টার	-9.85806
▁বিষয়বস্তু	-9.85874
▁কংগ্রেস	-9.85884
▁সমর্থক	-9.85906
▁ধনী	-9.86089
▁দৃশ্য	-9.86089
▁আবিষ্	-9.86296
▁চালান	-9.86318
▁ইমাম	-9.86342
▁সমসাময়িক	-9.86357
▁কার্বন	-9.86391
▁রেডিও	-9.86394
▁দীর্ঘদিন	-9.86422
▁লে	-9.86432
▁ব্যবহারের	-9.86448
▁শিলা	-9.86522
▁ছায়াছবিটি	-9.86547
▁ইনি	-9.86561
▁ডোরা	-9.86584
▁ক্লাস	-9.86625
▁কবির	-9.86646
▁চ	-9.86693
▁অধিবাসী	-9.86715
▁হচ্ছেন	-9.86965
▁দুইজন	-9.86971
▁ভাব	-9.86979
▁কাটে	-9.86991
▁শাসনামলে	-9.87001
▁জন্মগ্রহ	-9.87014
▁সম্প্রদায়ের	-9.8702
▁জলবায়ু	-9.87067
▁স্তরের	-9.87072
▁মঠ	-9.87136
▁দাবা	-9.87183
▁পারস্য	-9.87258
▁বেলা	-9.87368
▁জগন্নাথ	-9.87388
▁শুষ্ক	-9.87408
▁খারাপ	-9.87409
▁ঘনিষ্ঠ	-9.8741
▁প্রণয়ন	-9.8741
▁বৈষ্ণব	-9.87412
▁ঘোড়া	-9.87419
গ	-9.87423
▁তামিল	-9.87429
▁করছিলেন	-9.87432
▁লোকের	-9.87502
▁অধিনায়কত্ব	-9.87574
▁মহান	-9.87635
▁দেয়ালে	-9.87652
▁অধিনায়কের	-9.87654
▁সমাপ্তি	-9.8768
১৭	-9.87691
▁এইচ	-9.87733
▁শিল্পের	-9.87809
▁বনে	-9.87884
২৫	-9.87893
▁পড়াশুনা	-9.88178
▁নন	-9.88186
▁সরবরাহ	-9.88214
▁স্পষ্ট	-9.88287
৮	-9.88402
▁ধর্মে	-9.88402
▁ক্যাপ্টেন	-9.88473
▁তড়িৎ	-9.88473
▁তরঙ্গ	-9.88563
▁তারকা	-9.88593
▁৬১	-9.88593
▁যুক্তরাজ্যে	-9.88609
কো	-9.88626
▁৭৭	-9.88686
▁কণ্ঠ	-9.88882
▁ব্যাপকভাবে	-9.88973
▁আফগান	-9.8899
▁যেন	-9.89027
▁লোকসভা	-9.8903
▁ইংরেজিতে	-9.89031
▁অন	-9.89147
সমূহের	-9.89162
▁কাণ্ড	-9.89198
▁চট্টগ্রামে	-9.89232
▁সহযোদ্ধা	-9.89412
▁উইলিয়াম	-9.89415
▁৭৪	-9.89418
▁লেখার	-9.89539
▁চামড়া	-9.89548
▁পুরোপুরি	-9.89549
▁দেহাবসান	-9.8955
▁রক্ষক	-9.89615
▁হিসাব	-9.89668
▁নীচের	-9.89699
▁বংশধর	-9.89771
▁B	-9.89787
৩৩	-9.89823
▁গ্রেফতার	-9.90041
▁দ্বি	-9.9015
▁কারাগারে	-9.90177
▁অণু	-9.90193
▁জো	-9.90273
▁বরিশাল	-9.90287
▁পেশাদার	-9.90306
পূর্ণ	-9.90341
▁সিরিয়া	-9.90359
▁রপ্তানি	-9.90364
▁ব্যাট	-9.90373
▁মুখোমুখ	-9.90636
▁দাফন	-9.90636
ণবিক	-9.90637
▁বিচ্ছেদ	-9.90643
▁তরল	-9.90666
▁জিতে	-9.90674
▁পত্র	-9.90688
▁করেনি	-9.90793
▁সিস্টেম	-9.90841
▁বারো	-9.90857
▁উপকূলে	-9.90922
বা	-9.90931
▁আইনসভা	-9.90953
▁পরিষদের	-9.91059
ীর	-9.91123
▁উদ্দিন	-9.91124
▁গড়া	-9.91176
তঃ	-9.91343
▁হুসাইন	-9.91364
▁সার	-9.91369
▁আলোর	-9.91403
▁দাবী	-9.91484
▁ভাটার	-9.91514
▁কমিটির	-9.91556
▁পরিষ্কার	-9.91688
▁অনূর্ধ	-9.91735
▁রাসায়নিক	-9.91744
▁কয়লা	-9.9175
▁১৯২৬	-9.91781
▁নামেন	-9.91946
▁ব্যস্ত	-9.92096
সব	-9.92107
▁অ্যা	-9.92202
▁বিচার	-9.92202
▁অভিযোগ	-9.92216
▁ম্যাগাজিন	-9.92223
৪৪	-9.92227
▁তাপ	-9.92262
▁তুলেন	-9.92295
সেরা	-9.9231
▁ওষুধ	-9.9244
▁স্পিন	-9.92543
▁গোড়া	-9.92597
▁৯৯	-9.9268
▁সৌদ	-9.92715
▁শো	-9.92771
▁বিষ্ণু	-9.92819
▁ইউনাইটেড	-9.92835
সা	-9.92838
▁দিয়েছে	-9.92843
▁প্রাপ্তবয়স্ক	-9.92846
▁একেবারে	-9.92848
▁পুরাতন	-9.9285
▁এশীয়	-9.92851
▁শপথ	-9.92852
▁করুন	-9.92855
▁যুব	-9.92983
▁উদ্ভিদের	-9.92999
▁পে	-9.93026
▁মুসলিমদের	-9.93045
▁C	-9.93196
▁মক্কায়	-9.93227
▁রয়ে	-9.93257
▁সড়কটি	-9.93271
▁ইচ্ছা	-9.93494
▁কাটা	-9.93604
▁এদিকে	-9.93612
▁বিনিময়ে	-9.93676
▁চিনি	-9.93705
▁ইন্ডিয়া	-9.93765
▁শাসনের	-9.93797
▁ইনিংস	-9.93804
▁ব্রোঞ্জ	-9.93969
▁আশেপাশে	-9.93969
▁অনুমোদন	-9.93969
▁লাতিন	-9.93972
▁প্রচেষ্টা	-9.93974
▁তুলনামূলক	-9.93976
▁রকমের	-9.93993
্যাল	-9.94045
▁বলেছেন	-9.94052
▁কিঃমিঃ	-9.94052
▁পুতুল	-9.94054
▁মিলিয়ে	-9.94064
▁বিজ্ঞানী	-9.94075
▁সাড়া	-9.94136
▁ক্ষতি	-9.94139
▁গণিত	-9.94218
▁উভয়ে	-9.9426
গুলিতে	-9.94261
দার	-9.94269
▁পাঞ্জাব	-9.94281
▁সকলেই	-9.94299
▁শ্রীলঙ্কার	-9.94314
▁রসায়নে	-9.94369
▁যেকোন	-9.94371
▁উইকিপিডিয়া	-9.94419
▁সোনা	-9.9442
▁কবর	-9.9448
▁দিনাজপুর	-9.94565
s	-9.94593
▁পেলে	-9.94663
নাম	-9.9467
▁চিলি	-9.94694
▁প্রভাবে	-9.9472
▁ভ	-9.94754
জনিত	-9.94875
১২	-9.94909
িস	-9.94974
▁চক্রবর্তী	-9.95
▁শারীরিক	-9.95011
▁সংসারে	-9.9504
ন্ত	-9.95058
▁আরোহণ	-9.95086
▁৮৬	-9.95088
▁ন্যাশনাল	-9.95101
▁মজুমদার	-9.95105
▁রামকৃষ্ণ	-9.95107
▁বানানো	-9.95145
▁জৈব	-9.95172
▁১০টি	-9.9522
সন	-9.95238
▁কৃষক	-9.95263
▁ব্রিটিশরা	-9.95338
সমাহিত	-9.95342
কুমার	-9.95369
▁মাঝখানে	-9.95516
▁রেড	-9.95538
▁আজিজ	-9.9556
▁রশিদ	-9.95618
▁পেস	-9.95645
▁ঐতিহ্য	-9.95744
▁এনে	-9.95765
▁ভার	-9.95864
▁আর্জেন্টিনা	-9.96042
▁নৃত্য	-9.96081
▁ফর	-9.96129
▁স্বীকার	-9.96237
▁পুলিশের	-9.96241
▁অস্বীকার	-9.96241
▁অটোরিক্সা	-9.96255
▁মোটামুটি	-9.96255
▁শ্রাবণ	-9.96256
▁আব্দুল	-9.96271
▁১৯২৯	-9.963
▁১৯১৮	-9.96312
▁পর্যটক	-9.96405
▁ইংরেজী	-9.96436
▁অপারেশন	-9.9645
▁ঘোষিত	-9.96495
▁রাশিয়ার	-9.96611
▁সদস্যরা	-9.96655
▁গমন	-9.96663
▁জেল	-9.96738
▁সংস্কৃতির	-9.96782
▁পদ্মা	-9.96801
▁সুপার	-9.96833
▁বিংশ	-9.96872
▁উৎসাহ	-9.9695
▁সমাধান	-9.96989
▁সুনাম	-9.96989
▁৯৫	-9.97028
▁হাদিস	-9.97102
▁দর্শনের	-9.97108
▁স্টেডিয়ামে	-9.97189
▁যানবাহনে	-9.97192
▁বাঁধা	-9.97392
▁আষাঢ়	-9.97418
▁উন্মুক্ত	-9.97418
▁আখ্যায়িত	-9.97418
▁ফেলেন	-9.97425
▁উঠতে	-9.97555
ভ	-9.97574
▁৬০০	-9.97654
▁কুরআন	-9.97714
▁পরিল	-9.97727
▁জোড়ায়	-9.97742
▁গুটি	-9.97789
▁চিঠি	-9.97818
▁কপি	-9.97996
▁বিচারে	-9.98003
▁এটাকে	-9.98071
▁কণা	-9.98188
▁মধু	-9.98198
▁সকালে	-9.9824
▁সাহেব	-9.98268
▁বগুড়া	-9.98299
▁৮২	-9.98514
▁অনুমতি	-9.98595
▁প্রখ্যাত	-9.98595
▁উপনিষদ্	-9.98597
▁সর্বত্র	-9.98602
▁প্রিমিয়ার	-9.98628
▁বাতিল	-9.98631
▁কথিত	-9.98705
▁হননি	-9.98841
▁নয়টি	-9.98872
▁ব্যক্তির	-9.9895
▁পল	-9.98952
িয়ান	-9.98954
৪	-9.99016
ভিত্তিক	-9.99074
▁নাটকের	-9.99083
▁চারপাশে	-9.99248
▁তিব্বত	-9.99341
সে	-9.99406
▁ভিত্তিক	-9.99407
▁সাধারণভাবে	-9.99408
▁পরিমাণে	-9.99424
▁উঠেন	-9.99451
নে	-9.99469
▁বিগ	-9.99519
▁মদিনা	-9.99526
▁লিখে	-9.9953
▁তু	-9.99554
▁গ্রীষ্ম	-9.99589
▁বিশেষত	-9.99613
▁সম্ভাবনা	-9.99728
▁হিমালয়	-9.99734
▁আম্পায়ার	-9.99741
▁টুয়েন্টি২০	-9.99784
▁লেখেন	-9.99792
▁আবদুর	-9.99797
▁সহযোগিতা	-9.99798
▁মারাঠা	-9.99813
৫	-9.99842
▁শেষের	-9.99859
▁পেট	-9.99887
▁ব্যবসায়িক	-9.99894
▁ফি	-9.99902
▁মীর	-10
▁প্রত্যেকটি	-10.0004
▁গঙ্গা	-10.0008
▁আয়ারল্যান্ড	-10.0035
▁ছানা	-10.0039
▁কালী	-10.004
▁ইহা	-10.0043
▁ঘন্টা	-10.0049
▁পরই	-10.0055
▁শরীরের	-10.0056
▁বাঁধ	-10.0057
▁মাপ	-10.006
▁ভিক্টোরিয়া	-10.0064
▁ধাপ	-10.0065
▁মেক্সিকো	-10.0069
▁খ্রিস্টাব্দের	-10.0069
▁বর্ণমালা	-10.0072
▁শীতকাল	-10.0077
▁খুন	-10.0092
▁চলেছে	-10.0094
▁চার্লস	-10.0099
▁শুকনো	-10.0099
▁প্রতিপক্ষ	-10.01
▁কাপে	-10.0104
▁গাওয়া	-10.0104
▁মেয়েদের	-10.0105
▁চালানো	-10.011
▁বয়সেই	-10.0112
▁ছাত্রদের	-10.0113
▁চীনে	-10.012
▁সময়েই	-10.0128
▁শেখর	-10.0136
▁নাই	-10.0137
▁যেমনঃ	-10.0138
▁অর্ধেক	-10.0154
▁প্রশ্ন	-10.0166
▁কাঁটা	-10.0175
▁দেওয়ার	-10.0183
▁বিষয়ক	-10.0187
▁আগা	-10.0195
▁নির্ভরশীল	-10.0197
▁বিশ	-10.0202
▁গেছেন	-10.0202
▁কমপক্ষ	-10.0206
▁2	-10.0207
▁নির্মাতা	-10.0207
িতে	-10.0216
▁তোমাদের	-10.0222
▁প্রত্যক্ষ	-10.0222
▁বললেন	-10.0226
৩১	-10.0231
▁হাঁস	-10.0232
▁দুজনে	-10.0243
▁প্রথমদিকে	-10.0264
▁ইউএস	-10.0271
▁সঙ্গীতের	-10.0273
▁পাহাড়ে	-10.0285
▁আসর	-10.0287
▁প্রতিষ্ঠানে	-10.0288
▁আলু	-10.03
▁উদ্ভাবন	-10.0301
▁অ্যাশেজ	-10.0302
▁অনুমান	-10.0306
▁পশু	-10.0307
▁পৌঁছে	-10.0318
▁১২০	-10.0325
১৩	-10.0331
▁গো	-10.0332
▁জার্মানি	-10.0334
▁যাই	-10.0335
▁স্বামীর	-10.0343
▁আবৃত	-10.0344
▁তোমরা	-10.0345
▁উপলক্ষে	-10.0347
▁ডোমেইন	-10.0348
▁১৯৩৫	-10.035
▁দায়ী	-10.0354
▁কাউন্সিল	-10.0355
▁অপরাধ	-10.0367
▁ভবনে	-10.0367
জি	-10.0371
▁কাগজ	-10.038
▁প্রয়োজনে	-10.0384
▁চুল	-10.0386
▁তলায়	-10.0389
▁বিশেষজ্ঞ	-10.0392
e	-10.0393
▁এয়ার	-10.0399
▁১২টি	-10.0401
▁রানী	-10.0407
ধরনের	-10.041
▁মেজর	-10.0415
রাম	-10.0416
▁ছোটবেলা	-10.0416
▁কারখানা	-10.0429
শীল	-10.0436
▁সাঁতার	-10.0438
▁বিদেশী	-10.0439
য়ান	-10.0441
▁ওপরে	-10.0444
▁সম্পৃক্ত	-10.0449
▁বাসায়	-10.0452
▁দুর্বল	-10.0453
▁ভাইয়ের	-10.0458
▁৭৯	-10.0458
▁স্মৃতি	-10.0464
▁অতীতে	-10.0465
▁সপ্তাহে	-10.0467
▁পরস্পর	-10.0469
▁প্রাক্তন	-10.0469
▁তুমুল	-10.0469
▁ম্যানেজার	-10.047
▁গাজী	-10.047
▁শিক্ষালাভ	-10.0475
▁নিয়ন্ত্রিত	-10.0477
▁পরিবেশে	-10.0481
▁বাম	-10.0482
▁উভয়ের	-10.0484
▁৯৮	-10.0488
▁সহজে	-10.0494
▁দো	-10.0495
▁আমিরাত	-10.0498
▁আগ্রহী	-10.0501
▁নাটকটি	-10.0503
▁ক্রমে	-10.0504
▁হারান	-10.0508
▁মৌল	-10.0511
▁ফিল্ম	-10.0513
ত্ব	-10.0523
▁সিংহাসনে	-10.0524
▁ওয়ার্ডে	-10.0529
▁কাছেই	-10.0537
▁শাস্ত্র	-10.0538
▁উপনদী	-10.0551
▁পো	-10.0553
▁নরম	-10.0559
▁বাস্তব	-10.0563
০	-10.0568
▁অনুশীলন	-10.0571
▁টা	-10.0575
▁প্রতিভা	-10.0577
▁সংকলন	-10.0581
▁লেক	-10.0581
▁রি	-10.0584
▁সংখ্যার	-10.0587
▁নিরাপত্তা	-10.0592
▁পাবলিক	-10.0596
▁যাতায়াত	-10.0596
▁সাহসিকতা	-10.0597
▁ব্যবস্থাপনা	-10.0598
▁১৯২৮	-10.0599
▁সভা	-10.0606
▁উষ্ণ	-10.0607
▁লোকজন	-10.0608
▁দিলেন	-10.061
▁থিয়েটার	-10.0611
▁রাষ্ট্রীয়	-10.0621
▁গান্ধী	-10.0628
▁৮৩	-10.0629
▁হে	-10.0631
▁পদ্ম	-10.0639
▁কোর্স	-10.0643
▁জাভা	-10.0644
▁১৮৭	-10.0648
বিংশ	-10.066
ভেদে	-10.0661
৯৯	-10.0668
বিহীন	-10.067
▁P	-10.0677
▁সূত্রে	-10.0679
▁অক্ষর	-10.0683
▁ব্যবসায়	-10.0684
▁কেন্দ্রটি	-10.0686
▁পুর	-10.0687
▁বাদশাহ	-10.0696
▁জন্মে	-10.0706
▁প্রেস	-10.071
▁বলিউড	-10.0713
▁ম্যানচেস্টার	-10.0714
▁ওঠা	-10.0714
▁চারা	-10.0719
▁অফিসে	-10.0719
▁টু	-10.0719
▁চমৎকার	-10.0724
▁সাপ্তাহিক	-10.0724
▁প্রবল	-10.0726
▁সম্পত্তি	-10.0726
▁করলো	-10.0729
▁এক্স	-10.073
▁প্রত্যাখ্যা	-10.0731
▁বেড়ায়	-10.0736
▁চি	-10.0738
▁প্রকৌশলী	-10.0747
▁আর্মি	-10.0747
▁বড়ো	-10.0755
▁সম্পদ	-10.0757
▁ব্ল্যাক	-10.0761
▁১৪টি	-10.0765
▁ভক্ত	-10.0765
▁পাক	-10.0769
▁ঘুম	-10.077
▁পালা	-10.0771
▁নবী	-10.0775
▁বিলিয়ন	-10.0778
▁প্রচণ্ড	-10.0779
▁মায়ানমার	-10.078
▁কখন	-10.0784
▁খ্রিস্টপূর্ব	-10.0784
▁বিবি	-10.0785
▁ইসলামি	-10.0791
নগর	-10.0794
▁স্তরে	-10.0813
▁শরীরে	-10.0819
▁মানের	-10.084
▁অসমে	-10.0843
নিক	-10.0845
▁অবশ্যই	-10.0851
▁ভট্টাচার্য	-10.0853
▁জলে	-10.0853
▁দরিদ্র	-10.0854
▁বৈদিক	-10.0854
▁সারাবছর	-10.0855
▁হেক্টর	-10.0855
▁বাহাদুর	-10.0856
▁খ্রিঃ	-10.0857
▁প্রতিবছর	-10.0857
▁বিরল	-10.0859
▁প্রণালী	-10.0859
▁প্রবর্তন	-10.0861
▁১৯৩৪	-10.0861
▁বৎসর	-10.0862
▁ধারে	-10.0863
▁ম্যাচের	-10.0866
▁ওডিআইয়ে	-10.087
▁গুগল	-10.0879
পাড়া	-10.0886
▁ডিজাইন	-10.0887
▁লোকেরা	-10.0888
▁কাপড়	-10.0906
▁৮টি	-10.0908
▁প্রায়শ	-10.0916
▁ফুলে	-10.0916
▁সরে	-10.0933
▁রক	-10.0943
▁আস্ত	-10.0945
▁সংঘর্ষ	-10.0948
▁এসআর	-10.0952
▁মাঝামাঝি	-10.0961
▁প্রকারের	-10.0963
▁মোড়	-10.0965
▁স্বাক্ষর	-10.0967
▁গ্রুপের	-10.0972
▁শোনা	-10.0985
▁অনূদিত	-10.0986
▁ক্ষয়ক্ষতি	-10.0986
▁মন্তব্য	-10.0986
▁উত্তীর্ণ	-10.0986
▁সাজানো	-10.0987
▁যমুনা	-10.0987
▁জিনিস	-10.0988
▁ইতালীয়	-10.0988
▁সংগঠিত	-10.0992
▁S	-10.0995
শি	-10.0996
▁উড়তে	-10.0997
▁জনাব	-10.0998
▁পরিস্থিতি	-10.1
▁সিরিজটি	-10.1004
▁গোলাম	-10.1006
▁মেয়াদে	-10.1007
▁দ্যা	-10.1009
▁ঘাঁটি	-10.1014
▁শক্তির	-10.1021
▁মূর্তিটি	-10.1027
▁পূর্বদিকে	-10.1037
▁রাগ	-10.1038
▁উল	-10.1045
▁হাসপাতাল	-10.1054
▁বংশের	-10.1066
বনু	-10.1072
▁৬৭	-10.108
▁ঔষধ	-10.1084
▁মেডিকেল	-10.1086
0	-10.1095
▁তাল	-10.1102
▁পারবেন	-10.1116
▁বিবেকানন্দ	-10.1119
▁প্রদর্শিত	-10.1119
▁মুদ্রিত	-10.1119
▁ক্যাথলিক	-10.1119
▁ঢাকনি	-10.112
▁অগ্নি	-10.112
▁বেছে	-10.112
▁সচিব	-10.1121
▁ভাস্কর্য	-10.1123
▁উত্তম	-10.1123
▁রূপান্তরিত	-10.1128
▁নিকটে	-10.1129
▁সেতুটি	-10.1131
▁বিতর্কিত	-10.1135
মি	-10.1137
▁বালি	-10.1137
▁মেঘ	-10.1138
▁ওখানে	-10.1141
৭৬	-10.1142
▁প্রদর্শনী	-10.1148
▁বিষ	-10.1154
▁সাপ	-10.1156
▁পাশের	-10.1158
▁সংজ্ঞা	-10.1169
▁বিভাজন	-10.1174
▁সংখ্যায়	-10.1175
▁সংস্থাটি	-10.1176
▁৮৮	-10.1181
৯৬	-10.1198
▁বোঝা	-10.1201
▁বিন্দু	-10.1204
▁দিলে	-10.1206
▁বিদেশে	-10.1215
▁ক্লাবটি	-10.1217
▁দাঁত	-10.1219
▁কো	-10.1226
▁মোবাইল	-10.1226
▁প্রস্তুতি	-10.1236
▁চক্র	-10.1236
▁অধ্যায়	-10.124
▁চৌধুরীর	-10.1243
▁খেতাব	-10.1243
লো	-10.1245
▁জ্যাক	-10.1247
▁উচ্চারণ	-10.1254
▁ক্যালিফোর্নিয়া	-10.1254
▁আত্মপ্রকাশ	-10.1254
▁সূত্রপাত	-10.1254
▁প্রাসাদ	-10.1254
▁অ্যান্ড	-10.1255
▁লাগানো	-10.1256
▁পুরু	-10.126
▁ইরানে	-10.1264
▁বন্দি	-10.1266
▁ভারী	-10.1274
▁বিক্রিয়া	-10.1277
▁দুর্ঘটনা	-10.1278
▁গ্রীষ্মকাল	-10.1279
▁অ্যালবামটি	-10.1282
▁উৎসবে	-10.1291
▁আত্মসমর্পণ	-10.1292
▁চিত্রনাট্য	-10.1308
▁বোমা	-10.131
▁গত	-10.1311
▁করল	-10.1311
▁মালা	-10.1321
▁অধীন	-10.1322
▁পরাজয়	-10.1334
▁মতোই	-10.1335
▁পটভূমি	-10.1342
▁দেখান	-10.1343
ওয়াই	-10.1361
▁ভালোবাসা	-10.1362
▁অনুষদ	-10.1382
▁ওয়েলস	-10.1388
▁অনুমোদিত	-10.1391
▁নিরাপদ	-10.1391
▁আকৃষ্ট	-10.1391
▁দিয়েছিল	-10.1392
▁খুশি	-10.1392
▁সফটওয়্যার	-10.1394
▁গ্রহ	-10.1394
বাদী	-10.1398
▁জনের	-10.1398
▁নারায়ণ	-10.1399
▁স্বাদ	-10.1402
▁ফ্রান্সে	-10.1411
▁বাউল	-10.1414
▁পণ্ডিত	-10.1415
▁বৃহত্তর	-10.1416
▁দেখায়	-10.1418
▁১১টি	-10.1421
▁যুবক	-10.1421
▁মাসিক	-10.1428
▁কার্য	-10.1444
▁বিদ্যা	-10.1449
▁ফাঁসি	-10.145
▁পাশা	-10.145
০৯	-10.1457
▁ত্রি	-10.1458
▁পৌরসভাটি	-10.1464
নী	-10.1474
▁কথাটি	-10.1476
▁সময়কাল	-10.1479
িনা	-10.1483
▁পুরস্কারে	-10.1483
▁আমেরিকায়	-10.1486
▁কোণ	-10.1486
▁রাখার	-10.149
▁বংশ	-10.1494
▁নেটওয়ার্ক	-10.1494
▁জ্যেষ্ঠ	-10.1499
▁উপগ্রহ	-10.1499
▁কিনে	-10.15
▁আনোয়ার	-10.1502
▁আবেদন	-10.1503
▁হাওড়া	-10.151
▁শান্ত	-10.151
▁গোষ্ঠী	-10.1514
▁লর্ড	-10.152
▁স্বভাব	-10.1524
▁৯৬	-10.1529
▁জোর	-10.1529
▁ফিরিয়ে	-10.1531
▁প্রাচীর	-10.1532
▁১৯২৩	-10.1534
▁বাজেট	-10.1535
▁৯২	-10.154
▁সংলগ্ন	-10.1545
▁সীমান্তে	-10.1545
▁আবহাওয়া	-10.1546
▁গ্রন্থাগার	-10.1557
▁বিরোধিতা	-10.156
▁দমন	-10.1563
▁উদ্যোগ	-10.1563
▁রাণী	-10.1573
▁নো	-10.1581
▁মু	-10.1586
▁পূজার	-10.1592
▁রচয়িতা	-10.1593
বে	-10.1601
▁আন	-10.1611
▁লম্বায়	-10.1614
▁অভ্যন্তরে	-10.1616
▁প্রদেশে	-10.162
▁অনুসারী	-10.1622
বাদ	-10.1629
▁খ্রিস্টান	-10.1632
▁উপমহাদেশে	-10.1636
▁বেদ	-10.1637
উদ্দিন	-10.1645
▁ঈদ	-10.1645
▁নির্যাতন	-10.1649
▁চরম	-10.1654
▁পায়ে	-10.166
▁রূপান্তর	-10.1664
▁বেতার	-10.1666
▁তন্ত্র	-10.167
▁কর্নেল	-10.167
▁আবির্ভাব	-10.1671
▁সুতরাং	-10.1671
▁গৌতম	-10.1671
▁প্রকৃতপক্ষে	-10.1671
▁স্বতন্ত্র	-10.1671
▁উপহার	-10.1672
▁ক্যাচ	-10.1672
▁স্বাগতিক	-10.1672
▁গ্রীক	-10.1674
▁চুরি	-10.1675
▁গিয়েছিলেন	-10.1675
▁থ	-10.1681
৬০	-10.169
▁ওটা	-10.1695
▁অভিযানে	-10.1697
▁বিমানবন্দরটি	-10.17
শন	-10.1704
▁বইটির	-10.1725
▁পাঠদান	-10.1742
▁গীতিকার	-10.1755
▁নল	-10.1758
▁আজম	-10.1768
▁আরবের	-10.1769
▁সঙ্গী	-10.1769
▁৮৯	-10.1771
▁পাকিস্তানিরা	-10.1783
▁খুলে	-10.1784
▁ক্যামেরা	-10.1786
▁বাঁশ	-10.1802
রাজ	-10.1803
▁করছিল	-10.181
▁মুহাম্মাদ	-10.1814
▁অর্জুন	-10.1814
▁শুকিয়ে	-10.1814
▁মনোনয়ন	-10.1814
▁পাখিদের	-10.1814
▁উচিত	-10.1814
▁১৯৪১	-10.1816
▁দেখিয়েছেন	-10.1817
▁মিলিমিটার	-10.1817
▁চেয়েছিলেন	-10.1818
▁একাদশ	-10.1819
▁বিদায়	-10.182
▁উপকূলীয়	-10.182
▁পর্যায়ের	-10.1827
রি	-10.183
▁হ্যারি	-10.1835
▁শিয়া	-10.1845
▁ঘাট	-10.1847
▁গেলেন	-10.185
▁টাঙ্গাইল	-10.185
▁আকবর	-10.185
▁বরফ	-10.1852
▁বসন্ত	-10.1854
▁এত	-10.186
▁ইন্টারনেট	-10.1861
▁H	-10.1862
হিত	-10.1866
▁দুঃখ	-10.187
▁রীতি	-10.1873
▁এসিড	-10.1873
▁ঋতু	-10.1882
▁থাকত	-10.1882
সীমান্ত	-10.1894
▁পূর্ণাঙ্গ	-10.1897
▁৮১	-10.1918
▁মৌসুমের	-10.192
▁বিগ্রহ	-10.1927
▁দা	-10.1933
▁করান	-10.1943
▁লক্ষণ	-10.1944
▁বালক	-10.1951
▁জুনিয়র	-10.1956
▁ঘটেছিল	-10.1958
▁ব্যতিক্রম	-10.1958
▁কৃত্রিম	-10.1959
▁পোকামাকড়	-10.1959
▁পার্বত্য	-10.1959
▁ষাট	-10.1959
▁আলোচিত	-10.1959
▁১৯১৪	-10.1962
▁ঝুঁকি	-10.1963
▁পৌর	-10.1963
▁দরকার	-10.1965
▁মেয়র	-10.1965
▁প্রসারিত	-10.1968
▁দ্রব্য	-10.1973
▁পরম	-10.1983
▁দৃষ্টি	-10.1988
▁দিকের	-10.1988
▁ভিতর	-10.1993
▁ওনার	-10.1993
▁জীবিত	-10.1994
▁কর্পোরেশন	-10.1998
▁৮০০	-10.2003
▁ক্রিয়া	-10.2007
▁তীর	-10.2018
▁নাট্য	-10.2018
▁টেনিস	-10.202
▁মামলা	-10.2025
▁শৃঙ্গ	-10.2032
▁নগরী	-10.2042
▁আটক	-10.2042
▁চিকিৎসক	-10.2043
▁৫ম	-10.205
▁হট	-10.2051
▁মিশন	-10.2058
ড়া	-10.2061
০১	-10.2061
▁জাতিসংঘ	-10.2064
ক্রমে	-10.2076
গ্রাম	-10.2077
▁অতিথি	-10.2082
▁গবেষণার	-10.2083
▁বিচ্ছিন্ন	-10.2098
▁লামা	-10.2102
▁কাব্যের	-10.2104
▁বিক্রয়	-10.2106
▁ভিটামিন	-10.2106
▁চেহারা	-10.2106
▁সম্মুখীন	-10.2107
▁মিউজিক	-10.2107
▁দৃশ্যমান	-10.2107
▁আঁকা	-10.2109
▁এসেছিলেন	-10.2111
▁একাধার	-10.2113
▁উপজাতি	-10.2113
▁হু	-10.2113
▁তুলতে	-10.2116
▁লিখতেন	-10.2116
▁ট্র্যাক	-10.2117
▁শিশুদের	-10.2117
▁সনের	-10.2119
▁শত্রু	-10.2119
▁ডিই	-10.2129
জাত	-10.213
▁সীমা	-10.2132
৯৫	-10.2132
চ	-10.2134
▁আসরে	-10.2137
▁পাখিটি	-10.2137
▁বর্ষা	-10.2143
▁প্রকল্পের	-10.2147
▁রহস্য	-10.2148
▁নম্বরে	-10.2149
▁শী	-10.2149
পত্র	-10.2155
▁সেনাপতি	-10.2159
▁প্রতিক্রিয়া	-10.2165
▁কংগ্রেসের	-10.2167
০৪	-10.2172
▁আগুন	-10.2173
▁গর্ত	-10.2173
▁পোকা	-10.2185
▁প্রযোজক	-10.2186
▁সবজি	-10.2186
▁নূর	-10.2187
▁ফাউন্ডেশন	-10.2189
শ্রী	-10.219
▁নজর	-10.2193
▁বন্ধন	-10.2196
▁প্রজাপতি	-10.2203
াং	-10.2207
▁দখলে	-10.2209
▁বাহিনীতে	-10.2212
সের	-10.2217
▁চূড়া	-10.2219
▁প্রসার	-10.2221
▁পদত্যাগ	-10.223
▁ফেনী	-10.2232
▁ডে	-10.2235
▁ফরিদপুর	-10.2238
▁অংশগ্রহন	-10.2239
▁রচনার	-10.2241
▁অনন্য	-10.2241
িয়ার	-10.2246
▁পড়েছে	-10.2249
▁জাল	-10.2253
▁আইরিশ	-10.2255
▁প্রার্থনা	-10.2255
▁ক্রমশ	-10.2256
▁of	-10.2257
▁জঙ্গলে	-10.226
▁ক্যাম্প	-10.2265
▁কয়েকবার	-10.2269
াইল	-10.2269
▁একা	-10.2282
▁জনতা	-10.2285
▁প্রতিযোগী	-10.2288
▁বেরিয়ে	-10.229
▁গির্জা	-10.229
▁প্রোটিন	-10.2291
িনী	-10.2293
▁শুরুর	-10.2305
▁পায়নি	-10.2307
m	-10.2308
▁গম	-10.2323
▁এমএস	-10.2329
▁মুসলিমরা	-10.2332
▁ছ	-10.2337
a	-10.2344
▁চিন	-10.235
▁আকাশে	-10.2353
▁ওয়েবসাইট	-10.2355
▁ধর্মগ্রন্থ	-10.2357
▁ইরাকে	-10.236
▁থাকলে	-10.2363
▁পরামর্শ	-10.2367
ধিক	-10.2368
▁টেলিভিশনে	-10.2379
▁প্রকৌশল	-10.2387
▁নিবন্ধন	-10.2392
করণ	-10.2396
▁১৯০০	-10.24
▁আফ্রিকান	-10.2401
▁শুনে	-10.2402
▁ঘটান	-10.2404
▁ডোরেমন	-10.2406
▁ডিএনএ	-10.2407
▁অপেক্ষাকৃত	-10.2409
▁পাখনা	-10.2413
▁বালিকা	-10.2413
n	-10.2414
▁ভাজা	-10.2418
▁চারজন	-10.2419
▁১৮০	-10.2421
▁বন্ধনে	-10.2424
▁গ্রেট	-10.2425
▁প্রয়োজনীয়	-10.2425
▁মাঠের	-10.2428
▁টানা	-10.2428
▁এশিয়ায়	-10.2428
▁একাডেমী	-10.2433
দান	-10.2434
▁ফুটবলার	-10.2445
▁বন্দরের	-10.2455
▁কেনিয়া	-10.2463
ারি	-10.2491
▁মুম্বাই	-10.2494
▁প্রাদেশ	-10.2494
যোগ্য	-10.2503
▁প্রথমবারে	-10.2508
সূত্রে	-10.2511
▁পদার্থবিজ্ঞানে	-10.2512
মে	-10.2512
▁চট্টোপাধ্যায়	-10.2512
▁দলটির	-10.2516
▁বক্তব্য	-10.2519
▁স্টেডিয়ামটি	-10.252
▁৭০০	-10.2533
▁হোক	-10.2534
▁শি	-10.2549
▁গ্রহণের	-10.2558
▁গোয়েন্দা	-10.256
▁আয়োজিত	-10.256
▁পাতলা	-10.2563
▁১৯০৬	-10.2563
▁শ্রেনী	-10.2564
▁সন্দেহ	-10.2564
▁আয়াত	-10.2565
▁বিকল্প	-10.2565
▁উনিশ	-10.2565
▁সুরকার	-10.2566
▁পত্নী	-10.2568
▁মনসা	-10.2569
▁ইউনিট	-10.2569
▁চে	-10.2572
▁ভোটার	-10.2574
▁br	-10.2575
▁প্রাক	-10.2578
▁দর্শনীয়	-10.2579
▁মার্টিন	-10.2587
▁কানাডার	-10.2588
▁স্টার	-10.2588
ুন	-10.2594
▁হারায়	-10.2599
▁শুভ	-10.2599
▁সত্যি	-10.2617
▁শীর্ষে	-10.2618
▁আয়তনের	-10.2618
বর্তী	-10.2632
▁রিং	-10.2635
▁সিনেমায়	-10.2638
▁চাচা	-10.2639
▁বিদ্রোহের	-10.2647
নামা	-10.2649
মুখী	-10.2649
মন	-10.265
সঙ্গে	-10.265
▁বাবু	-10.2664
▁কোর্ট	-10.2677
▁আহোম	-10.268
▁সংগঠনের	-10.2683
▁কু	-10.2683
▁পতিত	-10.2689
▁কামাল	-10.2695
▁ব্যান্ডটি	-10.2699
▁হিসেবেই	-10.2701
▁উৎসর্গ	-10.2707
▁মার্ক	-10.2708
▁এটার	-10.2709
▁বুকে	-10.271
▁হচ্ছিল	-10.2711
ৃত	-10.2712
▁অজানা	-10.2716
▁সামুদ্রিক	-10.2717
▁আদমশুমারি	-10.2717
▁প্রকারভেদ	-10.2717
▁ফার্সি	-10.2717
▁নামাঙ্কিত	-10.2717
▁প্রেমে	-10.2718
▁সম্প্রতি	-10.2718
▁তত	-10.2721
▁১৯১১	-10.2724
▁মতই	-10.2726
▁বটে	-10.2735
▁গোপাল	-10.2737
ভুক্ত	-10.2737
▁গোটা	-10.2738
▁রোডে	-10.2745
▁গ্রহন	-10.2746
▁রেখেছেন	-10.2747
▁সমভূমি	-10.2761
▁মঞ্চে	-10.2763
▁স্টুডিও	-10.2766
▁শৈশবকাল	-10.2769
▁আরবী	-10.2773
য়ার	-10.2777
▁সংলাপ	-10.2778
▁মায়া	-10.2784
▁ব্যাটিংয়ের	-10.2789
▁নিয়ন্ত্রন	-10.2791
▁পুরাণে	-10.2794
গাঁও	-10.2801
▁স্পেনে	-10.2803
▁লেগে	-10.2806
▁দিতেন	-10.2808
▁করো	-10.2808
▁উপায়	-10.2809
▁সারে	-10.2811
▁১৮৮	-10.2812
পি	-10.2816
▁ছায়া	-10.2817
স্ট	-10.282
▁উপকূল	-10.2824
▁প্যারিসে	-10.2829
▁রোগী	-10.2832
▁ইঞ্জিন	-10.2837
▁আদিবাসী	-10.2841
▁কাহিনি	-10.2848
▁অভাব	-10.2856
▁হাউজ	-10.2858
▁৯৪	-10.286
▁অধ্যাপনা	-10.2875
▁উইজডেন	-10.2875
▁রাজস্ব	-10.2875
▁হতাহত	-10.2875
▁জলাভূমি	-10.2876
▁জীবিকা	-10.2877
▁লবণ	-10.2877
▁নিকটবর্তী	-10.2877
▁সাধনা	-10.2878
▁শেয়ার	-10.2882
▁০৬	-10.2882
▁অভিবাসী	-10.2895
▁বর্ষাকালে	-10.2895
▁ঊন	-10.2899
▁দলগুলো	-10.2908
▁বৃত্তি	-10.2913
▁আনেন	-10.2919
য়েল	-10.2923
▁পদক্ষেপ	-10.2933
▁পর্যবেক্ষণ	-10.2951
▁রসায়ন	-10.2953
▁বর্ধমান	-10.2953
▁প্রকাশক	-10.2954
▁সিদ্ধ	-10.2956
▁হিট	-10.2959
▁মুলত	-10.2959
▁অক্টোবরে	-10.2967
▁অক্ষ	-10.2967
▁চার্চ	-10.297
▁সমর্থ	-10.2976
জাতীয়	-10.2977
▁পাত্র	-10.2982
▁M	-10.2988
▁ধ্যান	-10.2989
▁সৌন্দর্য	-10.2989
▁টোকিও	-10.3013
▁ধারনা	-10.3019
▁স্পেনীয়	-10.3025
▁ফলের	-10.3027
▁পরিযায়ী	-10.3036
▁পর্তুগিজ	-10.3037
▁সর্বকনিষ্ঠ	-10.3037
▁সর্বাপেক্ষ	-10.3037
▁এঁদের	-10.3037
▁ফরাসী	-10.3037
▁অভ্যন্তরীণ	-10.3038
▁আজীবন	-10.3039
▁সিন্ধু	-10.3039
▁১৫টি	-10.3039
▁চাপা	-10.304
▁১৯১০	-10.3044
▁রায়ের	-10.3045
৯৮	-10.3052
মতে	-10.3063
▁আঁশ	-10.3069
▁সাগরে	-10.3072
▁২৫০	-10.3072
▁অনুষ্ঠানের	-10.3076
▁খণ্ড	-10.3077
▁গৌড়	-10.3091
▁নোট	-10.3098
▁তামা	-10.31
▁৯৩	-10.3102
▁থেকেও	-10.311
us	-10.3111
▁শীতল	-10.3112
▁গ্রুপে	-10.3118
বান	-10.3121
▁মস্কো	-10.3122
▁মাল	-10.3124
▁গবেষক	-10.3125
হোক	-10.3131
▁ভাটি	-10.3142
▁ফেডারেশন	-10.3153
▁পর্বের	-10.3156
▁ভয়াবহ	-10.3169
▁সিডনি	-10.3172
▁কাচা	-10.3174
▁N	-10.3181
▁অভিষিক্ত	-10.32
▁ন্যস্ত	-10.32
▁ঠান্ডা	-10.32
▁দাশগুপ্ত	-10.32
▁চকরিয়া	-10.3201
▁টিনটিন	-10.3201
▁সমুদ্রপৃষ্ঠ	-10.3201
▁পারতেন	-10.3201
▁পরিনত	-10.3202
▁প্রভাবশালী	-10.3202
▁পিটার	-10.3202
▁একত্রিত	-10.3202
▁দেয়ার	-10.3203
▁কমান্ডার	-10.3203
▁উৎপাদনে	-10.3207
▁বিজ্ঞাপন	-10.3208
▁পাহাড়ি	-10.3214
▁লস	-10.3215
রূপ	-10.3217
▁পাঠক	-10.3225
▁বাড়তে	-10.3227
▁নক্ষত্র	-10.323
▁হরি	-10.3236
▁কার্যকরী	-10.3237
▁পরদিন	-10.3239
▁দর্শকদের	-10.324
▁সেন্টার	-10.324
▁যুক্তরাজ্য	-10.3242
▁একদিনে	-10.3243
ড়ে	-10.3246
▁বাদে	-10.3249
▁স্	-10.3253
▁কার্ল	-10.3259
প্রতিদ্বন্দ্বিতা	-10.3263
▁অনুপাত	-10.3264
ধর্মী	-10.3266
▁চারদিকে	-10.327
▁সালমান	-10.3276
দেব	-10.3277
ধারী	-10.3279
▁মহাসাগর	-10.3282
▁গেমস	-10.3292
▁খণ্ডে	-10.3299
২৪	-10.3302
▁মহাকাব্য	-10.3304
▁বামহাতে	-10.3308
▁গেট	-10.3323
▁বাই	-10.3327
▁বক্তৃতা	-10.3335
▁পূর্ণিমা	-10.3342
াবাদ	-10.3347
▁সৃষ্ট	-10.3347
▁মানুষকে	-10.3358
▁ছাড়	-10.3359
িস্ট	-10.3363
▁বায়ু	-10.3364
▁পাঠান	-10.3364
▁গ্রামীণ	-10.3367
▁চাকুরী	-10.3367
▁বাঁকুড়া	-10.3367
▁সংখ্যাগরিষ্ঠ	-10.3367
▁পরিত্যক্ত	-10.3367
▁বেহালা	-10.3367
▁মাতৃভাষা	-10.3368
▁তাহলে	-10.3368
▁সীমিত	-10.3368
▁আওতায়	-10.3368
▁বিবাহিত	-10.3369
▁উপযুক্ত	-10.337
▁অনুভূতি	-10.3378
▁আসাম	-10.3385
▁খিলাফত	-10.3394
2	-10.3397
▁নই	-10.3399
ড়	-10.3401
স্থ	-10.3404
বিশেষ	-10.3408
▁জারি	-10.3415
▁লুইস	-10.3419
▁বাগদাদ	-10.3419
▁৯৭	-10.3421
▁স্থল	-10.3425
▁স্টেট	-10.3428
▁লিপির	-10.343
▁উঠেছিল	-10.3432
▁ছাপ	-10.3448
▁পোষাক	-10.3452
▁গল্পের	-10.3457
▁০২	-10.3458
▁দেখেন	-10.3462
▁অন্তর	-10.3464
▁দাঁড়িয়ে	-10.3466
▁জাদুঘরে	-10.3466
▁সত্ত্ব	-10.3478
টে	-10.3479
▁আল্লাহর	-10.3482
▁হারে	-10.3484
▁ঘটনাটি	-10.3491
▁কুকুর	-10.3492
▁নির্ণয়	-10.3495
▁অবলম্বনে	-10.3498
▁গৃহ	-10.35
▁সংক্রমণ	-10.3502
▁মধ্যযুগে	-10.3502
▁গুলিতে	-10.3509
▁চলা	-10.3512
▁ব্যাঙ	-10.3513
হত	-10.3516
▁মুখোপাধ্যায়	-10.3517
▁শস্য	-10.3518
লোকসংখ্যা	-10.352
৫৭	-10.3522
▁আড়াই	-10.3525
▁নাইট	-10.353
▁পাপ	-10.3532
▁অশোক	-10.3533
▁বিধান	-10.3535
▁বন্দ্যোপাধ্যায়	-10.3537
▁জার্সি	-10.3537
▁১৯০২	-10.3538
▁লেবু	-10.3538
▁উমাইয়া	-10.3538
▁ঘরবাড়ি	-10.354
▁১৯০৫	-10.3541
▁ফেলো	-10.3542
▁তীরবর্তী	-10.3544
▁শিং	-10.3549
▁সমালোচকদের	-10.3553
▁দেড়	-10.3554
▁শেষদিকে	-10.3554
▁সর্বদা	-10.3556
▁সৎ	-10.3562
▁পর্যটকদের	-10.3564
▁উড়ে	-10.357
▁পূর্বের	-10.3572
▁কলাম	-10.3579
▁প্রশাসন	-10.358
▁কিছুকাল	-10.3581
▁ইন্	-10.3583
▁কিংবদন্তি	-10.3584
▁সাধন	-10.3584
াদি	-10.3586
▁কিউবা	-10.3596
▁মহল্লা	-10.3602
▁ভোগ	-10.3606
▁জাহাজটি	-10.3608
▁রথ	-10.3615
▁য	-10.3618
▁মধ্যভাগে	-10.3626
▁ইউনিয়নটি	-10.3636
টন	-10.3641
▁খন্ড	-10.3657
▁পৃষ্ঠা	-10.3662
▁বোর্ডের	-10.3667
▁পন্ডিত	-10.3676
▁নিম্নে	-10.3679
▁কোম্পানী	-10.3679
▁পঞ্চ	-10.3694
▁বিশ্লেষণ	-10.3696
▁হিন্দুদের	-10.3705
বধি	-10.3705
▁উচু	-10.3709
▁আক্ষরিক	-10.3709
▁পর্য্যন্ত	-10.3709
▁হ্যাট্রিক	-10.3709
▁ভৈরব	-10.3709
▁অধিভুক্ত	-10.3709
▁বেদান্ত	-10.371
▁পারবে	-10.371
▁লিখেছিলেন	-10.371
▁ফুটবলে	-10.3711
▁আর্য	-10.3713
▁ঘটায়	-10.3715
▁ভারতবর্ষে	-10.3716
▁সোনালী	-10.3721
▁এদেশে	-10.3726
▁পরা	-10.3735
▁বলেছিলেন	-10.3735
▁৭ম	-10.3736
৯৭	-10.3738
▁ত্বক	-10.3743
▁স্কটল্যান্ড	-10.3745
▁মুসলমানদের	-10.3748
▁কর্মকাণ্ড	-10.3751
▁সেচ	-10.3752
▁বাকল	-10.3752
▁জানালা	-10.3758
▁বন্ধুত্ব	-10.3762
▁নদের	-10.3768
▁৮৭	-10.3768
▁অভি	-10.3771
▁আসামের	-10.3782
িয়াম	-10.3789
▁ছাপা	-10.38
▁মালয়েশিয়া	-10.3808
▁টাওয়ার	-10.3816
▁এরপরে	-10.3817
▁ছেলের	-10.3822
▁কার্টুন	-10.383
▁হোম	-10.3832
▁ট	-10.3835
▁কারা	-10.3849
▁অবস্থার	-10.3853
▁রওন	-10.3856
▁সেনের	-10.3856
▁করিম	-10.3864
▁উপাসনালয়	-10.3872
▁গোবিন্দ	-10.3873
▁অস্ট্রিয়া	-10.3875
▁ফকির	-10.388
▁ক্ষমা	-10.3882
▁ব্রিটিশদের	-10.3884
▁অস্ট্রেলীয়	-10.3884
▁ষোড়শ	-10.3884
▁পরিষেবা	-10.3884
▁আবির্ভূত	-10.3884
▁রাজকীয়	-10.3885
▁অনিয়মিত	-10.3885
▁সোজা	-10.3885
▁শাস্তি	-10.3885
▁৪র্থ	-10.3886
▁বিনোদন	-10.3887
▁শীর্ষস্থানীয়	-10.3888
▁খ্রিস্টীয়	-10.3889
▁ইতি	-10.3889
▁জঙ্গল	-10.389
▁মোটা	-10.3898
▁রাশি	-10.39
▁সমুহ	-10.3901
▁উমর	-10.3912
▁নিবন্ধ	-10.393
ব্যাপী	-10.393
▁ব্রহ্ম	-10.393
▁প্যারিস	-10.3936
▁লাহোর	-10.3938
▁স্যার	-10.394
▁গল্পটি	-10.3942
▁মন্ত্র	-10.3944
▁গঠনের	-10.3944
ার্স	-10.3946
▁তুলনা	-10.3953
▁ভিয়েতনাম	-10.3959
▁সন্ন্যাসী	-10.3984
▁মিনিটে	-10.399
সূচক	-10.3991
▁চির	-10.3994
▁লোহা	-10.3994
▁শিল্পে	-10.4001
▁গণে	-10.4001
▁সবকিছু	-10.4002
▁তি	-10.4005
▁প্রকল্পটি	-10.4014
▁দেবতার	-10.4014
▁পরিভাষা	-10.4031
▁রো	-10.404
▁ছোপ	-10.4043
▁সাহস	-10.4043
▁উপকরণ	-10.4045
▁পাচ্ছে	-10.4049
▁গ্রীষ্মে	-10.406
▁ম্যাট্রিক	-10.4061
▁নারীর	-10.4063
▁বিচরণ	-10.4063
▁ইউসুফ	-10.4063
▁সামগ্রিক	-10.4063
▁বিভব	-10.4063
▁সালতানাত	-10.4065
▁সজ্জিত	-10.4068
▁কাপুর	-10.4069
▁থাকাকালীন	-10.4073
▁রাশিয়া	-10.4075
▁নিজেও	-10.4076
▁ঘট	-10.4079
▁জলজ	-10.408
▁ধরতে	-10.4081
▁১১০	-10.4085
▁ব্রিটেন	-10.4086
▁স্মরণীয়	-10.4086
▁সম্মানিত	-10.4091
▁বিস্তারিত	-10.4093
▁গোলাগুলি	-10.4103
▁করানো	-10.4104
লেন	-10.4105
▁ব্যথা	-10.4107
শাসিত	-10.4117
েশ্বর	-10.412
▁কিং	-10.4124
▁মার্চে	-10.4125
▁দলীয়	-10.4125
▁সোনার	-10.4127
▁সাই	-10.4131
▁বসুর	-10.4139
▁সমস্যার	-10.4142
৬৪	-10.4149
▁৯১	-10.4152
▁জানে	-10.4152
ায়ন	-10.4161
▁বিষ্ণুর	-10.4161
ম্	-10.4163
▁সংগ্রাম	-10.4165
▁মিস	-10.4171
▁তুরস্ক	-10.4173
ভূক্ত	-10.4175
▁আলোক	-10.4179
স্বরূপ	-10.4179
▁বাক্য	-10.4182
▁আদালত	-10.4184
▁খালিদ	-10.4186
▁ফেলুদা	-10.4188
১৮	-10.4189
৯১	-10.419
▁টিন	-10.419
▁সম্পদের	-10.419
▁সূরাটি	-10.4191
▁রাস্তায়	-10.4192
▁আত্মীয়	-10.4193
▁জোট	-10.4197
▁যৌগ	-10.4201
▁কাহিনীর	-10.4203
▁হস্ত	-10.4205
▁হামিদ	-10.4207
▁আধ্যাত্মিক	-10.421
▁নিচু	-10.4219
▁ইলেকট্রন	-10.422
▁ধরেন	-10.4221
▁কলম	-10.423
▁সিনেমাটি	-10.4231
▁হতেন	-10.4232
▁দ্বীপপুঞ্জ	-10.4242
▁আশরাফ	-10.4244
▁পরমাণু	-10.4244
▁অসীম	-10.4245
▁হাইড্রোজেন	-10.4245
▁বাইজেন্টাইন	-10.4245
▁মসৃণ	-10.4245
▁ভালবাসা	-10.4245
▁তবু	-10.4245
▁রাজতন্ত্র	-10.4246
▁বেশকিছু	-10.4246
▁পিতামাতা	-10.4246
▁১৯০৮	-10.4248
▁মিশরীয়	-10.425
▁কমিশনার	-10.4254
▁উপভাষা	-10.4258
▁একুশে	-10.4262
▁জেতেন	-10.4263
▁লালন	-10.4265
▁১৩টি	-10.4265
▁পর্বতমালা	-10.4265
▁কেটেছে	-10.4266
▁মোগল	-10.4272
▁অংশবিশেষ	-10.4275
৩০	-10.4279
▁বাঘের	-10.4282
াক	-10.4297
▁১৬টি	-10.4302
▁কর্মচারী	-10.4304
▁গোষ্ঠীর	-10.4305
▁সবাইকে	-10.4305
▁শিক্ষার্থীদের	-10.4306
▁ফিকে	-10.431
▁দ্বাদশ	-10.4314
▁মহাভারত	-10.4316
▁বকর	-10.4317
ভাবেই	-10.4319
৭৭	-10.4321
▁কৃষিকাজ	-10.4321
▁ইচ্ছে	-10.4323
▁সদস্যদের	-10.4328
▁উপাধিতে	-10.4331
বল	-10.4336
্নী	-10.4336
▁মেরু	-10.4338
▁আত্মা	-10.4358
▁হাজারের	-10.436
▁লক্ষ্যে	-10.4362
▁ধাপে	-10.4365
▁ঘেরা	-10.4366
▁একদল	-10.4368
▁ভবনটির	-10.4372
চি	-10.4375
িল	-10.4375
▁ধ	-10.4376
মোহন	-10.4379
▁জাহাজে	-10.438
▁বসেন	-10.4385
▁তীর্থ	-10.4391
রিয়ে	-10.4394
▁সমালোচক	-10.4396
▁সালাম	-10.4398
▁উদ্যানের	-10.4399
▁প্রকাশের	-10.4405
▁অমর	-10.4406
▁দিল্লী	-10.4406
▁সভার	-10.441
▁মিনিটের	-10.4416
▁লিখতে	-10.442
▁প্যানেল	-10.4427
▁সুস্পষ্ট	-10.443
▁আওয়ামী	-10.443
▁দাঙ্গা	-10.4431
▁সিঁড়ি	-10.4431
▁রাজনীতিবিদ	-10.4431
▁খাড়া	-10.4431
▁মালিকানা	-10.4431
▁প্রাতিষ্ঠানিক	-10.4432
▁আচার	-10.4436
▁সাংবাদিকতা	-10.4436
▁হেনরি	-10.4439
▁জন্মস্থান	-10.4442
▁মঙ্গল	-10.4444
▁আফগানিস্তানে	-10.4445
▁বেঁধে	-10.4447
▁D	-10.4449
ুয়া	-10.445
▁দণ্ড	-10.4456
▁সমুদ্রে	-10.4458
▁জমিতে	-10.4458
গড়	-10.4459
▁আনে	-10.4461
▁গণিতে	-10.4461
▁T	-10.4462
▁সন	-10.4467
▁রাজাদের	-10.4471
▁নর্থ	-10.4484
ায়িত	-10.4485
▁ভুলে	-10.4495
▁ডা	-10.4499
৮৫	-10.4502
▁অভাবে	-10.4504
▁উদ	-10.4506
▁ইন্দ্র	-10.4506
▁পূরণ	-10.4515
▁পুরুষের	-10.4519
▁লিপিতে	-10.4519
▁সেক্টর	-10.452
▁গজ	-10.4529
▁যোগ্য	-10.4529
▁চ্যাম্পিয়নশীপে	-10.4542
▁যাব	-10.4556
ানো	-10.4564
▁দূতাবাস	-10.4568
য	-10.4568
▁ভীম	-10.457
▁মিথ্যা	-10.4572
▁পদবী	-10.4578
▁খেলোয়াড়দের	-10.4581
▁সেনানিবাসে	-10.4586
▁ইসমাইল	-10.4589
▁সংগঠনটি	-10.4589
▁জাফর	-10.4591
▁মেয়াদ	-10.4595
▁উপদেষ্টা	-10.4597
▁দূরত্বে	-10.4601
▁অরণ্য	-10.4601
▁নগ্ন	-10.4601
▁ডিসেম্বরে	-10.4602
▁ঋণ	-10.4602
▁সন্ধ্যা	-10.4603
▁জিতেছে	-10.4606
▁উঠা	-10.4608
জান	-10.461
▁পাউন্ড	-10.4612
▁আকর্ষণীয়	-10.4612
▁০৫	-10.4618
ঘ্র	-10.4618
▁ব্যঞ্জনবর্ণ	-10.4619
▁সংগৃহীত	-10.4619
▁সর্বনিম্ন	-10.4619
▁ব্রহ্মপুত্র	-10.4619
▁গেয়েছেন	-10.4619
▁জলপাই	-10.4619
▁ইউনেস্কো	-10.4619
▁প্রশংসিত	-10.4619
▁দলনেতা	-10.462
▁শিলালিপি	-10.462
▁হোয়াইট	-10.462
▁জনশ্রুতি	-10.462
▁অসম্ভব	-10.462
▁আবাসস্থল	-10.462
▁শর্মা	-10.4621
▁৬ষ্ঠ	-10.4621
▁উপনিবেশ	-10.4621
▁তালিকাভুক্ত	-10.4621
▁তিস্তা	-10.4622
▁৬৪০	-10.4625
▁পৌছায়	-10.4626
▁চরিত্রের	-10.4629
▁টাই	-10.4631
▁কাটান	-10.4638
▁ডন	-10.464
▁ব্লু	-10.4645
▁সঙ্গীতে	-10.4647
▁টাউন	-10.465
▁লাশ	-10.4651
▁ইয়াং	-10.4658
▁পরপরই	-10.466
▁নিক্ষেপ	-10.466
▁পাতায়	-10.4665
▁কোর	-10.4665
ডক্স	-10.4667
▁তখনকার	-10.467
▁বিষয়ের	-10.4673
▁সুস্থ	-10.4675
▁লং	-10.4676
▁কাচ	-10.468
▁লড়াইয়ে	-10.4681
▁শীতে	-10.4687
মানের	-10.4687
▁দ্বৈত	-10.4688
▁প্রেসিডেন্সি	-10.4692
▁বু	-10.4695
▁ফেরার	-10.4698
▁অঙ্গনে	-10.4703
খ	-10.4706
▁গুহা	-10.4708
▁ডিমে	-10.4709
▁বাড়ী	-10.471
▁তল	-10.4718
▁টুর্নামেন্টে	-10.4732
টাই	-10.4733
▁নমুনা	-10.4736
▁অন্ধকার	-10.4743
▁পথটি	-10.4745
▁রামায়ণ	-10.4746
▁সিরাজ	-10.4747
▁রাজ্যটি	-10.4749
▁আব	-10.4751
▁অন্যটি	-10.4757
▁কুল	-10.4759
▁রেখেছে	-10.4776
▁অবতার	-10.4778
▁স্টেশনের	-10.4779
▁ব্যাক	-10.4782
▁বার্মা	-10.4788
োন	-10.4789
▁কফি	-10.4791
▁দৃঢ়	-10.4796
▁কষ্ট	-10.4799
▁যৌথ	-10.4801
▁রাজত্বকালে	-10.4802
▁সম্ভাব্য	-10.4804
▁সকলের	-10.4805
▁ক্ষেত্রেও	-10.4807
▁লিপিবদ্ধ	-10.4808
▁ব্যাপার	-10.481
▁স্বর্ণপদক	-10.4811
▁পৌরাণিক	-10.4811
▁উদ্ভূত	-10.4811
▁পাইলট	-10.4811
▁জিও	-10.4812
▁নষ্ট	-10.4812
▁বিহু	-10.4812
▁মাওলানা	-10.4813
▁ফাঁদ	-10.4814
▁১৯০৭	-10.4815
▁অত্র	-10.4816
▁সংসার	-10.4818
▁বিচিত্র	-10.4818
▁বেগুনি	-10.4818
▁নিয়েছে	-10.4826
▁চিকিৎসাবিজ্ঞানে	-10.4836
▁দীর্ঘতম	-10.484
▁১৬০	-10.4851
ধরণের	-10.4857
▁মল	-10.4864
▁বাঁধে	-10.4865
৩৯	-10.4878
▁লিমিটেড	-10.4879
▁পুলিস	-10.4881
▁বিপদ	-10.4884
▁০৮	-10.4895
▁ছোট্ট	-10.4901
▁মহাসড়কটি	-10.4904
▁অভিযানের	-10.4912
▁মাঝ	-10.4913
সকল	-10.492
▁ব্যান্ডে	-10.4923
▁পুস্তক	-10.4949
৫৬	-10.4953
▁কমপ্লেক্স	-10.4954
▁ডেকে	-10.4955
▁জানি	-10.4956
▁নোবিতা	-10.4965
▁কলম্বো	-10.4967
▁সুন্দরবন	-10.4968
বিভক্ত	-10.497
▁সীমাবদ্ধ	-10.4972
▁যাবত	-10.4975
হাল	-10.4976
▁পাড়ি	-10.4978
▁পোস্ট	-10.4979
▁উসমান	-10.498
y	-10.4981
▁ছেলেবেলা	-10.4981
▁জগৎ	-10.4988
▁লেন	-10.4991
▁ধার	-10.4994
▁কালি	-10.4994
▁ধাতব	-10.4996
▁মদ	-10.4996
▁সাক্ষাৎ	-10.5005
▁সাম্প্রতিক	-10.5006
▁ভীষণ	-10.5007
▁আলেকজান্ডার	-10.5007
▁বেসরকারি	-10.5007
▁ধ্বংসাবশেষ	-10.5007
▁প্রাধান্য	-10.5007
▁ল্যাটিন	-10.5007
▁ছাত্রাবাস	-10.5007
▁ছক্কা	-10.5007
▁উত্থান	-10.5007
▁খ্রিষ্টান	-10.5008
▁আপনাকে	-10.501
▁মল্লিক	-10.5012
টিক	-10.5018
▁চেক	-10.5019
৮৪	-10.5021
▁বাহন	-10.5028
▁তারপরে	-10.5028
ীভূত	-10.5032
▁চাকা	-10.5032
▁সম্মানে	-10.5034
▁অদ্যা	-10.5038
▁সক্ষমতা	-10.504
▁ক্রয়	-10.504
▁আধিপত্য	-10.5041
▁ঝড়	-10.5045
▁হরিণ	-10.5046
ভার	-10.5051
েট	-10.5055
▁অনুষ্ঠানটি	-10.5055
▁ধরণ	-10.5061
▁গা	-10.5063
▁তত্ত্বাবধানে	-10.5066
▁শাক	-10.5078
▁s	-10.5083
▁সড়কে	-10.5083
▁দফতর	-10.5084
▁ভরা	-10.5088
ুল্লাহ	-10.5096
▁পেন	-10.5097
▁গু	-10.5101
▁শিক্ষাদান	-10.511
▁প্রতিযোগিতাটি	-10.5112
▁সংস্করণে	-10.5112
▁কানাডা	-10.5117
মিটার	-10.5118
▁ফাংশন	-10.5131
সেন	-10.5133
▁বার্তা	-10.5139
▁কিনা	-10.514
খালী	-10.5141
▁ইন্দো	-10.5155
▁বন্দরে	-10.5156
োত্তর	-10.516
▁গদ্য	-10.5162
মার	-10.5165
পা	-10.5172
▁উপস্থাপন	-10.5172
▁উপন্যাসে	-10.5173
▁দ্বিতীয়বার	-10.5175
▁হংকং	-10.5177
▁মেরে	-10.5182
▁দীক্ষা	-10.5184
▁বলেই	-10.5184
▁সাধারন	-10.5186
▁কাব্যগ্রন্থ	-10.5191
থেকে	-10.5192
▁সুরে	-10.5192
▁কিন	-10.5192
▁কাতার	-10.5194
▁দার	-10.5198
▁ধারণার	-10.5201
▁চলছিল	-10.5203
▁জাহান	-10.5206
▁গরুর	-10.5206
▁বৃটিশ	-10.5207
▁কুরাইশ	-10.5207
▁প্রশাসক	-10.5207
▁অধুনা	-10.5207
▁কারুকাজ	-10.5207
▁চলমান	-10.5208
▁মারাত্মক	-10.5208
▁পরিধান	-10.5208
▁মিলন	-10.5209
▁গণনা	-10.521
▁রেখেছিলেন	-10.521
▁মালয়	-10.5211
▁সাদাটে	-10.5212
▁শের	-10.5212
▁মরিচ	-10.5214
▁তামাক	-10.5219
▁বর্ন	-10.522
▁পাবে	-10.5222
▁গে	-10.5224
▁কামান	-10.5226
▁স্পর্শ	-10.5234
▁চারবার	-10.524
▁আর্ট	-10.524
▁আনতে	-10.5245
▁যানবাহন	-10.5249
▁১৮৯	-10.525
▁পেছন	-10.526
▁লিগ	-10.5261
▁অন্তত	-10.5262
▁বদর	-10.5276
য়েড	-10.5276
▁সারিতে	-10.5278
▁ইন্ডিয়ান	-10.5283
▁হান	-10.529
▁ডানায়	-10.5301
▁ধন	-10.5302
▁ওড়া	-10.5302
▁১০ম	-10.5304
▁পোর্ট	-10.5308
▁৮ম	-10.5311
▁বিকিরণ	-10.5319
▁এসেছেন	-10.5325
▁কীর্তি	-10.5326
▁জুতা	-10.5327
▁মহাভারতে	-10.5332
▁ইউরো	-10.5338
▁অক্সফোর্ড	-10.534
সার	-10.5341
্ট	-10.5342
▁রবীন্দ্রনাথের	-10.5344
▁মাইন	-10.5347
▁থাইল্যান্ড	-10.5349
▁পার্শ্ববর্ত	-10.5354
▁রোজ	-10.5364
▁ব্রিজ	-10.5369
▁আজকে	-10.5374
▁ব্রাজিলে	-10.5379
▁দেবদাস	-10.5381
▁তৎ	-10.5384
▁জনবসতি	-10.5385
▁সমষ্টি	-10.5387
▁জাদুঘরটি	-10.5389
▁পঞ্চাশ	-10.539
▁ড্রয়ে	-10.5391
▁গুন	-10.54
▁বেস	-10.54
▁প্রচন্ড	-10.54
▁এগারো	-10.54
▁আপেক্ষিক	-10.5401
▁সুফি	-10.5406
▁পাড়া	-10.5406
▁ছোটগল্প	-10.5409
৯০	-10.541
▁সমাবেশ	-10.5411
▁উপাসনা	-10.5411
▁গেরিলা	-10.5411
▁মোহামেডান	-10.5411
▁উয়েফা	-10.5411
▁ক্যাডেট	-10.5411
▁উইন্ডোজ	-10.5411
▁গুরুতর	-10.5412
▁রাহুল	-10.5412
▁চুক্তিবদ্ধ	-10.5412
▁লুকিয়ে	-10.5413
▁পূর্ন	-10.5414
▁আসীন	-10.5414
▁ডেপুটি	-10.5416
▁প্রবেশপথ	-10.5419
▁জনগণনা	-10.5422
▁বিদেশি	-10.5424
▁উত্তরাধিকারী	-10.5425
▁কনিষ্ঠ	-10.5428
▁চরিত্রটি	-10.543
▁০৯	-10.5435
▁ওপেন	-10.5445
▁কোপা	-10.5447
মেন্ট	-10.5451
▁স্টেশনে	-10.5455
▁বরণ	-10.5457
োর	-10.5461
▁নির্দেশে	-10.5462
▁ভূমির	-10.5463
▁বিরোধ	-10.5467
▁হাওর	-10.5472
▁শাল	-10.5479
▁রুপ	-10.5485
▁অত্যাচার	-10.5488
▁ভাষাটি	-10.5492
১০	-10.5493
▁হিল	-10.5498
▁করায়	-10.5502
োক্ত	-10.5506
▁নে	-10.5506
▁ওয়ান	-10.5507
▁ছদ্মনামে	-10.5508
▁মধ্যম	-10.5511
ার্ড	-10.5518
াধিক	-10.5522
▁নানান	-10.5525
ত্যাগ	-10.5543
▁জুডো	-10.5545
▁মধ্যবর্ত	-10.5547
▁বিচারক	-10.5549
▁যোদ্ধা	-10.5549
▁মালভূমি	-10.555
▁নাক	-10.5555
▁দুজনের	-10.5557
▁০৩	-10.5565
▁সেল	-10.5567
▁আটকে	-10.5568
▁ফারসি	-10.5577
▁আদ	-10.5578
▁জানেন	-10.5582
▁দেশগুলো	-10.5591
▁ব্রিটেনে	-10.5593
▁বিএ	-10.5598
▁মেধা	-10.56
▁পর্দা	-10.5601
▁হি	-10.5602
জা	-10.5606
▁গুল্ম	-10.5606
বাড়ী	-10.5608
▁বেইজিং	-10.5609
হার	-10.5612
াত	-10.5612
▁মানবিক	-10.5613
▁জিজ্ঞাসা	-10.5615
▁ওয়ার্ল্ড	-10.5616
▁এসেছিল	-10.5617
▁কুতুব	-10.5619
▁হুমকি	-10.5619
▁ব্যুৎপত্তি	-10.5619
▁মনোনিবেশ	-10.5619
▁মতামত	-10.562
▁থেমে	-10.562
▁দায়িত্বপালন	-10.562
▁পারদর্শিতা	-10.562
▁সশস্ত্র	-10.5621
▁বর্গকিমি	-10.5621
▁খাটো	-10.5621
▁অবসান	-10.5621
▁পটিয়া	-10.5622
▁অভ্যস্ত	-10.5623
▁বর্ধিত	-10.5625
▁দাউদ	-10.5627
▁দশমিক	-10.5628
▁প্রার্থী	-10.5629
▁নিউটন	-10.5629
▁প্রায়শঃ	-10.5631
▁যুক্তি	-10.5636
▁সফরকারী	-10.5636
▁দিনটি	-10.5638
▁ফয়সাল	-10.5641
▁আগত	-10.5645
▁কন	-10.5645
▁বললেই	-10.5646
▁শিশুর	-10.5646
▁পরও	-10.5646
▁জানানো	-10.5653
▁রিয়াল	-10.5654
▁করেছি	-10.5655
▁ছিলনা	-10.5655
▁আঘাতে	-10.5664
▁ইসলামিক	-10.5665
▁হকি	-10.5666
▁ভাগবত	-10.5666
৪০	-10.5666
▁ভোর	-10.5671
▁খৃষ্টাব্দে	-10.5676
▁অনু	-10.5677
▁মাস্টার	-10.5683
▁আপনারা	-10.5687
▁মণ্ডল	-10.5688
▁জেতে	-10.5692
▁বেন	-10.5699
েশন	-10.5699
▁রোগীর	-10.5702
▁শর্ত	-10.5704
▁প্রতিবাদ	-10.5705
▁আবাদ	-10.5706
▁মুল	-10.5712
▁সস	-10.5713
▁লিঙ্গ	-10.5729
▁২০টি	-10.5741
▁শাড়ি	-10.5741
▁বিন্যাস	-10.5745
▁I	-10.5746
▁১৩০	-10.575
▁টীকা	-10.5751
▁চ্যানেলটি	-10.5752
▁পরগনা	-10.5756
▁স্যাম	-10.5758
কর	-10.5759
▁হিন্দুধর্মের	-10.5761
▁আইয়ুব	-10.5771
▁ওয়েব	-10.5773
▁মেয়ের	-10.5775
▁কারিগর	-10.5778
▁মৎস্য	-10.578
▁বেতন	-10.5783
▁শ্রেণি	-10.5785
▁ঋষি	-10.5786
▁ক্ষতিগ্রস্	-10.5788
▁বোধ	-10.579
▁বস	-10.5796
▁বিনিয়োগ	-10.5802
▁নোয়াখালী	-10.5807
▁ইপিআর	-10.5808
▁রাউন্ড	-10.5808
▁নদীটিতে	-10.5811
▁গরু	-10.5813
▁মনোযোগ	-10.5815
▁৯ম	-10.5817
▁আংশিক	-10.5823
▁পরিপূর্ণ	-10.5824
▁গন্ধ	-10.5827
▁বিশ্বাসী	-10.5831
▁যিশু	-10.5832
▁ক্রান্তীয়	-10.5832
▁অষ্টাদশ	-10.5832
▁মোকাবেলা	-10.5832
▁রাইফেল	-10.5832
▁অনুপ্রাণিত	-10.5833
▁নৌযান	-10.5833
▁মেঝে	-10.5833
▁মার্শাল	-10.5833
▁রাসেল	-10.5833
▁সহায়ক	-10.5833
▁সুরক্ষিত	-10.5834
▁অভ্যুত্থান	-10.5835
▁ইতিমধ্যে	-10.5835
▁কর্তৃত্ব	-10.5835
▁বাজানো	-10.5836
▁শরীফ	-10.5838
▁খিলান	-10.5838
০০	-10.5839
▁রশ্মি	-10.584
▁বুঝায়	-10.584
1	-10.5842
▁জ্যামিতি	-10.5843
প্রধান	-10.5845
েশ্বরী	-10.5845
▁দুর্গা	-10.5846
▁ফিলিপাইন	-10.5847
▁শিকারী	-10.5847
▁গোলাপি	-10.5848
▁নায়িকা	-10.5849
▁দফা	-10.585
▁সং	-10.5852
▁ক্যান্সার	-10.5854
▁ফ্রি	-10.5857
▁সহযোদ্ধারা	-10.586
▁পীর	-10.5865
▁শঙ্কর	-10.5875
▁আর্দ্র	-10.5877
▁জীন	-10.5878
▁পুরষ্কার	-10.5879
▁ডাকনাম	-10.5879
▁পাঞ্জাবি	-10.5883
▁জীবের	-10.5885
▁বিড়াল	-10.5885
▁পরীক্ষার	-10.589
াকার	-10.5891
▁নির্দেশনা	-10.5892
▁উন্নয়নে	-10.5893
▁সুইডেনে	-10.5893
▁পূর্বাঞ্চলে	-10.5895
▁০৭	-10.5895
▁স্নাতকোত্ত	-10.5901
▁দিল	-10.5903
▁অস্ট্রেলিয়ায়	-10.5905
▁পড়েছিল	-10.5906
▁বোঝাতে	-10.5907
্যা	-10.5909
▁বাজে	-10.5925
কেও	-10.593
▁বিস্ফোরণ	-10.5932
▁প্রতিরোধযুদ্ধ	-10.5932
▁অনুসন্ধান	-10.5952
তেকাল	-10.5953
▁মৃতদেহ	-10.5966
▁ছড়া	-10.5968
▁গ্রহণযোগ্য	-10.5974
৫৩	-10.5976
লাভ	-10.5979
▁১০৮	-10.5985
▁আরোপ	-10.5989
াতে	-10.599
▁সহিত	-10.5996
▁ইনস্টিটিউট	-10.6005
▁অসুস্থতা	-10.6011
লিন	-10.6012
▁নিয়েছিল	-10.6013
ধর	-10.6018
▁আত্ম	-10.6018
▁পারমা	-10.602
▁বাহু	-10.602
▁গুয়াহাটি	-10.6025
▁প্রতিবেশী	-10.6027
▁জহির	-10.6031
▁হা	-10.6034
মূল	-10.6036
▁হাঁসের	-10.6042
▁টুর্নামেন্ট	-10.6044
▁এইসব	-10.6046
▁স্বয়ং	-10.605
▁সার্বিক	-10.605
▁হুতাক	-10.605
▁তারতম্য	-10.605
▁আলাউদ্দিন	-10.605
▁নাটোর	-10.605
▁আগ্নেয়গিরি	-10.605
▁গায়িকা	-10.605
▁নিম্নলিখিত	-10.6051
▁a	-10.6051
▁আইনজীবী	-10.6051
▁বৈদ্যুতিক	-10.6052
▁পড়ানো	-10.6053
▁নিয়ন্ত্রণে	-10.6054
▁১৮৭৮	-10.6057
▁একারণে	-10.6058
▁সহ্য	-10.6059
▁জনবহুল	-10.606
▁জলাশয়	-10.6067
▁হেমন্ত	-10.6068
▁তিতির	-10.6079
▁কাজল	-10.608
▁সপ্তাহের	-10.6084
▁নেওয়ার	-10.6087
▁কাকা	-10.6088
▁তৃতীয়াংশ	-10.6089
▁আনোয়ারা	-10.609
▁সম্মেলনে	-10.6093
০০০	-10.6099
▁হ্রদে	-10.6102
▁সিনিয়	-10.6103
▁ক্ষমতার	-10.6103
▁এরপূর্বে	-10.6107
কু	-10.611
▁হত্যার	-10.6113
▁জন্মায়	-10.6118
▁মিঃ	-10.6123
▁গেমটি	-10.6132
▁জ্বর	-10.6133
▁শ্বেত	-10.6147
▁ধরার	-10.6147
▁কেউই	-10.6148
▁সোহ	-10.6149
২৬	-10.615
▁গাছটি	-10.6154
মাস	-10.6163
▁চালক	-10.6164
▁b	-10.6171
▁লোম	-10.6172
▁টিকা	-10.6173
▁আফ্রিকায়	-10.6174
▁মন্দিরটির	-10.619
i	-10.619
▁দেওয়ান	-10.6192
লিখিত	-10.6196
▁নামকরা	-10.6199
▁খামার	-10.6206
▁হিন্দুরা	-10.6211
▁কালক্রম	-10.6217
▁মেদিনীপুর	-10.622
ানন্দ	-10.6223
▁দৈ	-10.6224
▁দানা	-10.6225
▁ইয়েমেন	-10.6225
▁রেটিং	-10.6232
▁ঠাকুরের	-10.6233
▁বানান	-10.6244
▁নরওয়ে	-10.6245
১১	-10.6249
▁হলদে	-10.625
লী	-10.625
▁সন্ধি	-10.625
ন্স	-10.6256
▁বাঁ	-10.626
▁সংশ্লিষ্ট	-10.6261
▁বন্যার	-10.6262
▁সাহিত্যকর্ম	-10.627
▁গানগুলো	-10.6271
▁স্তন্যপায়ী	-10.6272
▁অধিষ্ঠিত	-10.6272
▁পিতামহ	-10.6272
▁প্রযোজ্য	-10.6272
▁জনসাধারণ	-10.6272
▁হাঙ্গেরি	-10.6272
▁দুর্গাপূজা	-10.6272
▁ব্রায়ান	-10.6272
৩৪	-10.6273
▁মেডেল	-10.6273
▁উড়িষ্যা	-10.6274
▁বাদ্যযন্ত্র	-10.6275
▁পুরোনো	-10.6278
▁সদস্যপদ	-10.6279
▁গাজীপুর	-10.6279
▁ছিদ্র	-10.6282
▁রিয়াজ	-10.6284
▁কাউকে	-10.6285
বোধ	-10.6287
উ	-10.6293
▁হাড়	-10.6297
▁সমীকরণ	-10.6298
▁রোম	-10.6299
▁ফেলতে	-10.6299
৭৯	-10.6302
▁পারো	-10.6303
▁ঢে	-10.6321
▁বৌদ্ধধর্ম	-10.6322
▁অক্ষাংশ	-10.6324
▁ইহুদী	-10.6325
▁নাগ	-10.6331
▁সুপারি	-10.6334
▁চুন	-10.6339
▁বাল	-10.634
▁বদলি	-10.6343
▁০৪	-10.6347
▁দৈর্ঘ্যে	-10.6351
▁পরিচালনার	-10.6358
▁লিখেন	-10.636
▁যেটা	-10.6366
▁১২৫	-10.6367
▁দশটি	-10.6368
▁ছিট	-10.6372
▁জায়গাটি	-10.6379
▁মারি	-10.638
▁পুনঃ	-10.6381
▁বিতর্কের	-10.6381
▁ডাই	-10.6387
▁বয়	-10.6388
৬৬	-10.6401
▁সিংহাসন	-10.6401
▁গ্রহের	-10.6404
▁অপ	-10.6409
▁কাউন্টিতে	-10.6411
▁জর্ডান	-10.6413
▁বিহারে	-10.6415
▁রুম	-10.642
▁ব্রহ্মা	-10.6422
▁বৃত্ত	-10.643
▁পূর্বপুরুষ	-10.6434
▁শাহের	-10.6434
▁টো	-10.644
▁কর্মকাণ্ডে	-10.6444
ভি	-10.6452
▁তুলা	-10.6455
▁বাছাই	-10.6458
▁সাধ	-10.6459
▁কিভাবে	-10.646
▁হার্ভার্ড	-10.6463
▁নিজাম	-10.6465
২৯	-10.6469
▁দরবার	-10.647
▁কালের	-10.6475
▁ওয়া	-10.6477
▁পেরে	-10.6477
পাল	-10.648
▁অভিজাত	-10.6487
▁অদ্ভুত	-10.6488
▁হাকিম	-10.649
▁অনন্ত	-10.6491
▁ঐক্য	-10.6498
▁হটে	-10.6498
▁ভাড়া	-10.6498
৭৫	-10.6499
▁div	-10.6499
▁জনঘনত্ব	-10.6499
▁সমাদৃত	-10.6499
▁বরাদ্দ	-10.6499
▁একদম	-10.6499
▁কারারুদ্ধ	-10.6499
▁নেছা	-10.6499
▁সংখ্যালঘু	-10.6499
▁মদীনা	-10.6499
▁কণ্ঠশিল্পী	-10.6499
▁রবীন্দ্র	-10.65
▁ফ্লাইট	-10.65
▁সম্বোধন	-10.65
▁গোল্ডেন	-10.65
▁নীলচে	-10.6501
▁সেলিম	-10.6501
▁কচ্ছপ	-10.6501
▁১৯১৫	-10.6504
▁ব্যাটসম্যানের	-10.6504
▁খয়ের	-10.6506
▁রঙিন	-10.651
▁যৌথভাবে	-10.651
▁ভূমধ্যসাগর	-10.6511
▁আদম	-10.6516
▁খেলাতে	-10.6518
▁হৃদয়	-10.6521
সভায়	-10.6534
▁বিবর্তন	-10.6539
▁রিও	-10.6542
▁তৈরিতে	-10.6552
▁স্লো	-10.6558
▁জোসেফ	-10.6563
েক	-10.6568
▁দৌড়	-10.657
▁অর্থো	-10.6572
▁নক	-10.6576
▁ইন্টার	-10.6578
▁শু	-10.658
▁দিল্লিতে	-10.6586
▁উপদেশ	-10.6595
▁উপদ্বীপ	-10.6598
▁মহলে	-10.6601
▁পড়লে	-10.6604
▁উপায়ে	-10.6604
▁সার্ভিস	-10.6617
▁ব্রাউন	-10.6627
▁বাতি	-10.6628
▁কার্যত	-10.6628
▁বিজয়ীদের	-10.6629
▁সংবাদপত্র	-10.6635
▁ভাইরাস	-10.6637
▁মারিয়া	-10.6639
▁দোকানে	-10.6642
▁সংস্কৃতিতে	-10.6642
▁অংশগ্রহণকারী	-10.6645
▁বেলায়	-10.6649
▁হোটেলটি	-10.6649
▁উইকেটের	-10.665
▁দূত	-10.665
▁এগুলিকে	-10.6653
কাটা	-10.6653
▁ইতিবাচক	-10.6658
▁শা	-10.666
পর্যন্ত	-10.6665
▁সৃষ্টির	-10.6666
▁থাকল	-10.6667
▁পানীয়	-10.6667
▁আবদু	-10.6669
▁কর্মজীবনে	-10.6673
▁ক্রস	-10.6676
▁আরা	-10.6687
▁যাকে	-10.6695
▁কায়রো	-10.6703
▁পৃষ্ঠপোষক	-10.6708
▁হাইওয়ে	-10.6708
▁ভূমিকম্প	-10.6712
▁আব্বাস	-10.6717
▁অভিনয়ে	-10.6722
▁ভরে	-10.6723
▁শূককীট	-10.6726
▁গাড়ির	-10.673
▁মুজিব	-10.6731
▁ছাত্রছাত্রী	-10.6732
▁গাণিতিক	-10.6732
▁সম্প্রসারণ	-10.6732
▁লিপ্ত	-10.6732
▁অবতরণ	-10.6732
▁পড়ালেখা	-10.6732
▁মেধাবী	-10.6732
▁স্কটিশ	-10.6732
▁ডিজিটাল	-10.6732
▁কেপলার	-10.6732
▁অস্থায়ী	-10.6733
▁পেরেছিলেন	-10.6733
▁সরস্বতী	-10.6734
▁নাগরিকত্ব	-10.6734
▁নির্বাসিত	-10.6734
▁অনশন	-10.6734
৫৯	-10.6735
৭৪	-10.6737
▁দারুণ	-10.6739
▁অনেকসময়	-10.674
▁পূর্ববর্তী	-10.6742
▁অতীত	-10.6743
▁ঘোষনা	-10.6744
▁কিন্ত	-10.6748
▁আমলের	-10.6752
▁ম্যাক	-10.6759
▁কাপের	-10.6762
স্তা	-10.6762
সম্পন্ন	-10.6763
▁স্মরণ	-10.6765
টিই	-10.6766
▁আমিন	-10.6766
▁প্রমাণিত	-10.677
তলা	-10.6771
▁সাহা	-10.6772
▁অনুপস্থিত	-10.6787
▁বাষ্প	-10.6789
▁ট্রেনে	-10.679
কারীদের	-10.6791
লতা	-10.68
গা	-10.6809
▁লক্ষ্মী	-10.681
▁হাল	-10.6811
▁একাদশে	-10.6818
▁জার	-10.6819
▁ব্য	-10.6825
▁লতা	-10.683
▁প্লে	-10.683
▁সাপের	-10.6835
▁ব্যবস্থায়	-10.6848
▁উভয়ই	-10.6857
বাহী	-10.6863
▁কড়া	-10.6867
▁কক্ষের	-10.6875
▁উন্নয়নের	-10.6879
▁অ্যান	-10.688
▁ব্যবসার	-10.6882
▁দুর্গে	-10.6891
মের	-10.6898
▁মোম	-10.6898
শক্তি	-10.6899
▁সহস্র	-10.69
সহযোগ	-10.6902
িয়াল	-10.6906
▁অনেকাংশে	-10.691
▁কোণে	-10.6919
ভূত	-10.6925
▁গোলাপ	-10.6925
▁পরপর	-10.6928
▁লাইব্রেরি	-10.6936
▁রবি	-10.6938
▁যব	-10.6938
▁সেগুলি	-10.6942
▁শিকাগো	-10.6945
▁মরুভূমি	-10.6946
▁অমিত	-10.6947
▁প্লাব	-10.6955
▁ডেল	-10.6963
▁জাতীয়তাবাদী	-10.6963
▁মানিক	-10.6965
▁মির্জা	-10.6967
▁ইবরাহিম	-10.697
▁ঔপনিবেশিক	-10.697
▁চল্লিশ	-10.697
▁ডক্টরেট	-10.697
▁বিএনপি	-10.697
▁হাতেখড়ি	-10.697
▁হিটলার	-10.697
▁হুমায়ুন	-10.697
▁মুহম্মদ	-10.6971
C	-10.6972
▁ব্যতীত	-10.6972
▁পুরানো	-10.6973
▁সাদৃশ্য	-10.6974
▁অন্যত্র	-10.6974
▁খুঁজতে	-10.6974
▁লম্বাটে	-10.6975
▁জুনে	-10.6976
▁আছি	-10.6976
▁মেশিন	-10.6977
▁জামাল	-10.6977
▁আব্বাসীয়	-10.6977
ক্ষণ	-10.6981
▁ধনেশ	-10.6982
▁দূর্বল	-10.6982
বিদ	-10.6983
▁কটা	-10.6985
▁কাঁচা	-10.6987
▁নীচে	-10.6988
▁বলিউডে	-10.6991
▁নামতেন	-10.6992
▁এঁরা	-10.6993
▁রাজাকার	-10.6999
▁অধিবাসীরা	-10.7
▁বাণিজ্যিকভাবে	-10.7001
▁হলঃ	-10.7008
▁পুষ্প	-10.7013
▁ছোটবেলায়	-10.702
▁ময়ূর	-10.7021
▁ভেড়া	-10.7022
▁মদিনায়	-10.7023
০৩	-10.7028
▁মাকে	-10.7032
▁বীরত্ব	-10.7041
▁পার্কে	-10.7048
ল্যান্ড	-10.7049
▁ব্যাকরণ	-10.705
▁জা	-10.7054
▁ম্যাচটি	-10.7054
বড়	-10.7071
▁কর্ণাটক	-10.7072
▁মধ্যকা	-10.7072
▁ঐতিহাসিকভাবে	-10.7073
▁ধারায়	-10.7074
▁জনপদ	-10.708
গার	-10.7081
৩৫	-10.7085
▁নখ	-10.7085
▁উট	-10.7087
▁ক্রম	-10.7088
▁সৈকত	-10.709
জুড়ে	-10.7101
▁বারবার	-10.7112
▁পাড়	-10.7115
ছিল	-10.712
িডি	-10.7137
ূ	-10.7138
দেশিক	-10.7146
▁মেহরাব	-10.7147
▁কমিক	-10.7147
▁আলীর	-10.7151
▁চাক	-10.7152
▁সুলতানা	-10.7152
▁উদ্যোগে	-10.7155
▁বারের	-10.7156
▁০১	-10.7159
▁বাতাস	-10.7162
▁ট্যাক্সি	-10.7163
▁দ্বার	-10.7164
▁খোঁজ	-10.7165
তান্ত্রিক	-10.7171
▁মিশে	-10.7172
▁মডেলিং	-10.7178
▁ধারক	-10.7178
▁রাস্তাটিকে	-10.7179
▁ক্র	-10.718
▁কাজটি	-10.7181
কান্ত	-10.719
▁শ্লোক	-10.7193
▁ডাচ	-10.7194
বো	-10.7198
▁১৫০০	-10.7202
▁আসবে	-10.7202
▁গজল	-10.7203
▁মামা	-10.7204
▁ইব্রাহিম	-10.7204
▁এমএ	-10.7208
▁চ্যাম্পিয়নশিপ	-10.7209
▁একাকী	-10.7212
▁ঔপন্যাসিক	-10.7214
▁আয়তাকার	-10.7214
▁সমবেত	-10.7214
▁অবিবাহিত	-10.7214
▁উপসর্গ	-10.7214
▁কারাবরণ	-10.7214
▁মিশিয়ে	-10.7214
▁সফলকাম	-10.7214
▁বর্গমাইল	-10.7214
▁ক্ষমতাচ্যুত	-10.7214
▁বৈশ্বিক	-10.7215
▁স্মিথ	-10.7215
▁বিষাক্ত	-10.7215
▁কেন্দ্রবিন্দু	-10.7215
▁নিম্নরূপ	-10.7215
▁শতরান	-10.7216
▁ঢুকে	-10.7217
▁চলাকালীন	-10.7217
▁রাজারা	-10.7218
▁তোমাকে	-10.7218
▁শুনতে	-10.7221
▁লোহিত	-10.7221
রাও	-10.7221
▁আমন্ত্রণ	-10.7226
▁ত্রিপুরা	-10.7227
ন্তু	-10.7232
▁সংকট	-10.7235
▁সাহসী	-10.7237
২০	-10.7237
▁অঙ্কন	-10.7238
▁কার্ড	-10.7239
▁ট্রেনটি	-10.7244
▁শিরোনাম	-10.7247
▁খেজুর	-10.7248
▁পৃষ্ঠ	-10.7254
▁বাণী	-10.7255
▁কার্তিক	-10.7258
ভাগ	-10.7258
▁রাখতেন	-10.7259
▁ওমর	-10.7259
▁সম্মতি	-10.726
▁পলি	-10.7266
▁ভুটান	-10.7276
▁তিব্বতী	-10.7279
বদ্ধ	-10.7287
▁পুরোটা	-10.729
▁গতিতে	-10.7298
▁ওয়াশিংটন	-10.7304
▁টক	-10.7306
▁মনের	-10.7309
▁উচ্চতার	-10.731
▁ভবিষ্যতে	-10.7315
▁কল্পনা	-10.7316
▁গল	-10.7318
▁দাও	-10.7319
▁ভিন্নতা	-10.7321
গন	-10.7329
▁নগরের	-10.7331
▁অত	-10.7333
▁উল্লেখিত	-10.7336
হিক	-10.7337
▁নাতি	-10.734
▁দয়া	-10.7345
▁হয়তো	-10.7349
▁ওড়ে	-10.7379
▁কুসুম	-10.7383
▁গ্রামটি	-10.7384
গতভাবে	-10.7386
▁খ্রিষ্টাব্দ	-10.7387
▁কুরআনে	-10.74
▁বেলে	-10.7402
▁যাচাই	-10.7403
▁কখনোই	-10.7409
▁রচনায়	-10.7414
▁ডিস্ক	-10.7416
স্থান	-10.742
▁খনি	-10.7421
বাজার	-10.7424
ছড়ি	-10.7429
▁ক্যাপ	-10.743
▁বব	-10.7431
▁রেশম	-10.7433
ূষ	-10.7434
▁খেলাধুলা	-10.7437
▁গণিতবিদ	-10.7438
▁টার্মিনাল	-10.7438
▁দালান	-10.7439
▁টেবিল	-10.744
▁সতর্ক	-10.744
▁অন্ধ	-10.7443
▁রয়্যাল	-10.7444
▁আমদানি	-10.7446
▁ধর্মাবলম্বী	-10.7447
▁সম্পর্কের	-10.7447
▁উত্তোলন	-10.7447
▁বিশুদ্ধ	-10.7448
▁অঙ্ক	-10.7449
▁শত্রুর	-10.7451
▁মাদ্রিদ	-10.7451
▁রক্ষিত	-10.7452
▁শিক্ষিত	-10.7455
▁সংঘ	-10.7456
▁সম্মেলন	-10.7458
▁পাপড়ি	-10.7459
▁আচার্য	-10.7463
▁কাঁথা	-10.7464
▁সনাতন	-10.7464
▁চ্যাপ্টা	-10.7464
▁মহাসচিব	-10.7464
▁ধর্ষণ	-10.7464
▁নজদ	-10.7464
▁প্যাটেন্ট	-10.7464
▁জিরাফ	-10.7464
▁আত্মজীবনী	-10.7464
▁শ্রেণীবিন্যাস	-10.7464
▁ডিভিডি	-10.7465
▁পঞ্চায়েত	-10.7465
▁মনসুর	-10.7465
▁এস্তোনিয়া	-10.7466
▁ঝরে	-10.7466
▁খোসা	-10.7466
▁অনুগ্রহ	-10.7466
▁বসানো	-10.7467
▁মেটাল	-10.7467
▁পাওয়ার	-10.7468
▁এপ্রিলে	-10.7472
▁১৭৬	-10.7472
▁অঙ্কিত	-10.7474
▁এফএ	-10.7476
▁জরিপ	-10.7476
▁বনগাঁ	-10.7477
▁কবিতায়	-10.7478
▁জমে	-10.7478
▁বাহিনীকে	-10.748
▁ছাড়ে	-10.7481
▁তাহের	-10.7482
▁এগুলোকে	-10.7482
▁২৯০	-10.7482
▁বন্ধনী	-10.7483
পূর্বে	-10.7488
স্টার	-10.7491
▁সাধক	-10.7492
▁শ্রেণির	-10.7492
▁হর	-10.7494
ওয়া	-10.7494
২১	-10.7497
▁বিদেশ	-10.7506
▁বন্দরটির	-10.7513
▁হেলেন	-10.7515
▁বোম্বে	-10.7515
ষ্ট	-10.7518
▁পালি	-10.7519
▁রিপোর্ট	-10.7527
ঞ্চিত	-10.7527
▁এরূপ	-10.7533
▁কুমারী	-10.7536
▁উল্	-10.7536
▁পর্বতমালার	-10.7537
▁জবাব	-10.7538
▁মহানগর	-10.7544
▁লর্ডসে	-10.7545
▁গুল	-10.755
▁নির্মান	-10.7553
▁খরা	-10.7556
▁মাহবুব	-10.757
৫০	-10.7575
▁ধারাবাহিকতা	-10.7575
▁লাইনে	-10.7578
▁থিয়েটারে	-10.7579
৫৮	-10.7582
▁বিজ্ঞানে	-10.7583
▁প্রাচীনকালে	-10.7584
ন্ড	-10.7585
▁ইতিহাসবিদ	-10.7594
▁উদ্যানে	-10.7599
▁সোনাল	-10.7609
▁বইতে	-10.761
▁ভাগের	-10.7622
ণিক	-10.7626
▁খোঁজে	-10.7627
▁মাঠটি	-10.7633
▁ওজনের	-10.7635
▁বৌদ্ধবিহার	-10.7642
▁প্রা	-10.7649
▁মহিলারা	-10.7655
▁শিকারে	-10.7658
▁মুসা	-10.7659
টু	-10.7661
▁অনার্স	-10.7662
▁ট্রাক	-10.7667
▁টেকনোলজি	-10.7668
▁হোল	-10.7672
▁শার্ট	-10.7674
▁মঙ্গোল	-10.7676
▁মহাবিশ্ব	-10.7681
▁গঙ্গার	-10.7686
▁কুষ্টিয়া	-10.7692
▁জুল	-10.7693
▁বিপন্ন	-10.7694
▁হার্ট	-10.7694
যোগে	-10.7699
▁সাঁওতাল	-10.7701
▁শাস্ত্রী	-10.7705
▁সামগ্রী	-10.7706
▁উত্তরাধিকার	-10.7709
▁অবৈধ	-10.771
▁চাপে	-10.771
▁তদন্ত	-10.7712
▁পশ্চিমা	-10.7712
েদ	-10.7714
▁দিদি	-10.7714
▁ষোল	-10.7716
▁সুখ	-10.7716
▁গ্র্যান্ড	-10.7717
▁বেসরকারী	-10.7718
▁আসাদ	-10.7719
▁পরিগণিত	-10.772
▁বাস্কেটবল	-10.772
▁ইকবাল	-10.772
▁হিমবাহ	-10.772
▁জাকার্তা	-10.772
▁গোস্বামী	-10.772
▁বৈধ	-10.772
▁শ্যুটিং	-10.7721
দো	-10.7721
▁বাঁশখালী	-10.7721
▁বাঁকানো	-10.7721
▁রাষ্ট্রদূত	-10.7721
▁গণতান্ত্রিক	-10.7721
▁প্রমুখ	-10.7721
▁মশলা	-10.7721
▁চালাতে	-10.7721
▁মধ্যবিত্ত	-10.7722
▁মাসুদ	-10.7722
▁জিততে	-10.7723
▁মুকুট	-10.7723
▁মূল্যবান	-10.7724
▁গ্রিন	-10.7725
▁তুলেছিলেন	-10.7726
▁প্রবণতা	-10.7727
▁বেড়াতে	-10.7727
▁সংগে	-10.7727
▁বাঁকা	-10.7728
▁মাগুরা	-10.7728
▁১৮৯০	-10.7732
▁চার্জ	-10.7732
▁ফায়ার	-10.7734
▁রবিন	-10.7734
▁বিশ্বনাথ	-10.7735
▁এলিজাবেথ	-10.7735
▁O	-10.7735
▁উপদ্বীপে	-10.7736
▁মহাদেশের	-10.7738
▁হো	-10.7742
▁হোটেলে	-10.7742
▁ভিক্ষুর	-10.7744
▁নভেম্বরে	-10.7744
▁সিঙ্গাপুর	-10.7744
ভা	-10.7764
▁জননী	-10.7766
৪২	-10.7768
গান	-10.7771
দ্বয়	-10.7772
▁নর	-10.7773
▁স্থলে	-10.7775
▁দিবা	-10.7784
ওয়ালা	-10.7789
▁বাহক	-10.7791
▁১৪০	-10.7793
▁বৌদ্ধবিহারে	-10.7799
▁হেজাজ	-10.7813
▁যাবেন	-10.7813
▁রফিক	-10.7815
ভূমি	-10.7831
▁লাইব্রেরী	-10.7834
▁শেখা	-10.7839
▁লেখকের	-10.784
▁দেউল	-10.7845
▁ভোটে	-10.7849
▁৫০০০	-10.7861
বালা	-10.7863
দাস	-10.787
▁দ্বীপপুঞ্জে	-10.7874
▁পু	-10.7876
▁চাইতে	-10.7889
▁ছায়াছবি	-10.7893
লাম	-10.7903
চে	-10.7904
▁কোরআন	-10.7907
▁অপারেটি	-10.791
▁দামেস্ক	-10.7914
থচ	-10.7924
▁বো	-10.7934
▁ধারণাটি	-10.7934
▁ঘ	-10.7935
▁সেলসিয়াস	-10.794
▁নির্মাণকাজ	-10.7941
▁ছাগল	-10.7942
▁রাজবাড়ি	-10.7942
▁নিউজ	-10.7943
▁সর	-10.7946
▁টে	-10.7952
▁ফজলু	-10.7953
াভ	-10.7957
▁স্বচ্ছ	-10.7963
▁নিরপেক্ষ	-10.797
▁রিচার্ড	-10.7973
▁ক্রোমোজোম	-10.7974
▁রক্ষার	-10.7976
▁ইন্সটিটিউট	-10.7976
▁প্রাণীর	-10.7977
▁বাদাম	-10.7978
▁চৈত্র	-10.7983
▁চিরসবুজ	-10.7983
▁সুস্বাদু	-10.7983
▁দাখিল	-10.7983
▁প্রত্নতাত্ত্বিক	-10.7983
▁প্রদত্ত	-10.7984
▁মথুরা	-10.7984
▁সত্যজিৎ	-10.7984
▁মুরগি	-10.7984
▁সেনগুপ্ত	-10.7984
৯৩৭	-10.7984
▁ঝুঁটি	-10.7984
▁নিষেধ	-10.7984
▁অক্সাইড	-10.7984
▁মহেশখালী	-10.7985
▁আধা	-10.7985
▁তিমি	-10.7985
▁বাড়ানো	-10.7986
▁সত্যিকার	-10.7987
▁জাতিগোষ্ঠী	-10.799
▁সংস্পর্শে	-10.7991
▁টুকরো	-10.7991
▁মেঘনা	-10.7992
▁জালাল	-10.7992
▁সেবার	-10.7993
▁শেখেন	-10.7996
▁ভোরে	-10.7996
▁কাটিয়ে	-10.7996
▁বরুয়া	-10.7998
▁৩০০০	-10.7999
▁ফু	-10.7999
▁করতোয়া	-10.7999
▁পাঁচজন	-10.7999
টের	-10.8
▁বিশ্রাম	-10.8005
▁উর্বর	-10.8007
▁উদ্বোধনে	-10.8009
▁সৌর	-10.8013
দিয়া	-10.8014
▁দুবার	-10.8019
▁দাশ	-10.8025
▁উচ্চতম	-10.8029
▁ফিল্ড	-10.803
▁বৈচিত্র্য	-10.8038
▁বিনা	-10.8048
▁ডুবে	-10.805
মঙ্গল	-10.8056
▁বঙ্গোপসাগর	-10.8057
▁পার্টিতে	-10.8063
▁পালকে	-10.8065
▁মেটে	-10.8066
▁১৭টি	-10.8067
▁ইরাকি	-10.8074
▁চৌ	-10.8074
▁কাদের	-10.8076
▁লিগা	-10.8078
৫১	-10.8079
▁সুন্দরী	-10.8083
▁আস	-10.8084
▁পাখিরা	-10.8087
▁টান	-10.8088
ীকরণ	-10.8094
▁কোল	-10.8098
▁অর্ডার	-10.8102
▁উদ্যানটি	-10.8121
▁ছদ্মনাম	-10.8127
▁বিলুপ্তি	-10.8128
▁বনাঞ্চল	-10.8131
▁উপরিভাগ	-10.8134
ওয়ে	-10.8137
৩২	-10.8138
▁বিপ্লবে	-10.814
▁জাম	-10.8141
শা	-10.8147
▁সুজা	-10.8152
▁বাবর	-10.8157
▁গার্ডেন	-10.8158
▁প্রবেশদ্বার	-10.8162
▁বাল্যকাল	-10.8164
▁১৭৫	-10.8167
▁পার্বতী	-10.8167
▁জেনে	-10.8168
▁কেন্দ্রস্থলে	-10.8169
▁ধূমকেতু	-10.8174
▁গঠনে	-10.8179
▁শহরটিতে	-10.8183
▁হাম	-10.8186
▁পেরু	-10.8193
্ড	-10.8198
▁রেলস্টেশন	-10.8204
▁প্রকল্পে	-10.8205
▁সন্ধানে	-10.8205
▁বিরত	-10.8208
▁থাই	-10.8209
▁আবিস্কার	-10.8217
৯৩	-10.8224
▁ছাড়াই	-10.8227
▁নিত্য	-10.8228
▁আলফা	-10.8231
দু	-10.8232
▁প্রধানমন্ত্রীর	-10.8233
▁সাজা	-10.8234
▁ভালোবাসে	-10.8239
▁সেপ্টেম্বরে	-10.8243
▁যন্ত্রটি	-10.8243
▁লো	-10.8247
▁শাহজাহান	-10.8249
▁মনি	-10.8249
▁ভৌত	-10.825
▁নারায়ণগঞ্জ	-10.8252
▁গ্রীষ্মকালে	-10.8253
▁কূটনৈতিক	-10.8254
▁তেলুগু	-10.8254
▁ধার্মিক	-10.8254
▁বিশ্বরেকর্ড	-10.8254
▁মূককীট	-10.8254
▁মুগ্ধ	-10.8254
▁ফিল্মফেয়ার	-10.8254
▁শ্রদ্ধা	-10.8254
▁ব্যাথা	-10.8254
▁জিয়া	-10.8254
▁জিন্নাহ	-10.8254
▁পিছিয়ে	-10.8255
▁উপার্জন	-10.8255
▁অফিসিয়াল	-10.8255
▁জীবদ্দশায়	-10.8256
▁কমেডি	-10.8257
▁বর্ণহীন	-10.8258
▁প্রোটন	-10.8259
▁টুপি	-10.8261
▁রহিম	-10.8261
▁সাধু	-10.8262
▁১০২	-10.8264
▁পৌঁছায়	-10.8265
▁বানায়	-10.8267
▁দোতলা	-10.8267
▁ভেসে	-10.8268
▁লক্ষণীয়	-10.8268
▁ঘটানো	-10.8269
▁ঘুরতে	-10.8271
▁ছেলেদের	-10.8272
▁মহাকাশ	-10.8277
▁স্বর	-10.8278
▁হয়না	-10.8279
▁আখ	-10.8286
▁১৯শ	-10.8286
▁দেবার	-10.8288
▁উচ্চত	-10.8289
▁উদ্দীন	-10.8291
▁রেজিমেন্টের	-10.8291
▁মাতৃ	-10.8294
▁উদয়	-10.8295
▁চালনা	-10.8299
বর	-10.8301
▁অনুবাদক	-10.8304
▁মাদার	-10.8306
▁অধিবাসীদের	-10.8307
▁স্ট্রিট	-10.8307
▁বইয়ে	-10.831
▁দাবার	-10.8324
স্ত	-10.8324
▁দামেস্কে	-10.8326
কায়	-10.8328
বিদ্যা	-10.8328
▁কুন	-10.833
▁চল	-10.8339
▁পেশাগত	-10.8344
▁ডালে	-10.8344
▁শিক্ষিকা	-10.8349
▁বাতাসে	-10.835
▁মৌসুমী	-10.8356
▁স্প্যানিশ	-10.8357
▁গানটির	-10.8362
▁সুবাদ	-10.8364
▁করাচি	-10.8366
▁গতির	-10.8367
▁আয়ের	-10.8369
▁ভিড়	-10.8369
▁ক্রমেই	-10.8369
▁চিড়িয়াখানা	-10.8373
▁গ্যালারি	-10.8375
৪৮	-10.8376
▁লেখায়	-10.8377
▁স্পিনার	-10.8378
▁কাঁধ	-10.8378
▁বিগ্রহটি	-10.838
িও	-10.8383
▁প্রযুক্তির	-10.8386
▁দক্ষতার	-10.8387
▁রত্ন	-10.8388
▁স্থাপনের	-10.839
▁হিম	-10.839
▁e	-10.839
▁মাঝের	-10.8396
▁লিস্ট	-10.8397
▁মহাসাগরের	-10.8403
▁কাশ্মীর	-10.8405
▁সাইকেল	-10.8406
▁ভক্তি	-10.8407
▁দশা	-10.8411
জনক	-10.8412
▁শরিফ	-10.8413
নাকে	-10.8415
৬৩	-10.8416
▁স্বভাবের	-10.8424
পুত্র	-10.8426
▁ঢাল	-10.8427
▁অনুরোধ	-10.843
▁৩৫০	-10.8434
▁উঁচুতে	-10.8436
▁গাল	-10.8445
▁চত্বর	-10.8448
▁সংস্করণটি	-10.8449
কল	-10.8449
▁পাণ্ডুলিপি	-10.846
লার	-10.8461
▁বৃদ্ধ	-10.8465
▁ছন্দ	-10.8466
▁উই	-10.8469
▁গর্ভে	-10.848
▁বারান্দা	-10.8481
▁ফারুক	-10.8481
স্	-10.8485
▁শেল	-10.8486
▁অব্দে	-10.8502
r	-10.8502
▁স্যুপ	-10.8506
▁জংশন	-10.8509
৮৮	-10.851
▁পৌছে	-10.8513
▁কমিয়ে	-10.8513
টুকু	-10.8516
পুরে	-10.8516
▁কোম্পানিটি	-10.8518
▁হাঁকান	-10.8519
▁বস্ত্র	-10.852
▁ছেদ	-10.8521
▁বয়স্ক	-10.8522
▁টাইম	-10.8523
▁পাটনা	-10.8523
▁লু	-10.8524
▁আব্দু	-10.853
▁উপভোগ	-10.8531
▁তৃণ	-10.8531
▁অনুভব	-10.8531
▁অপরিসীম	-10.8531
▁উপজীব্য	-10.8531
▁চব্বিশ	-10.8531
▁নারিকেল	-10.8531
▁নিশাচর	-10.8531
▁রৌপ্য	-10.8531
▁সাতক্ষীরা	-10.8531
▁সুনির্দিষ্ট	-10.8531
▁জরুরি	-10.8531
▁সাক্ষাত	-10.8531
▁আলমগীর	-10.8531
▁চলাফেরা	-10.8531
▁ক্লার্ক	-10.8531
▁পূর্ণবয়স্ক	-10.8531
▁শে	-10.8532
▁শাকিব	-10.8532
▁যোগান	-10.8532
▁সর্বকাল	-10.8532
▁অমান্য	-10.8532
▁তাইওয়ান	-10.8532
▁প্রবাল	-10.8532
▁আখ্যা	-10.8532
▁ভগবান	-10.8532
▁মুকুল	-10.8533
▁লরেন্স	-10.8533
▁যুবরাজ	-10.8534
▁রাগবি	-10.8534
▁সারণী	-10.8536
▁১৮৭০	-10.8537
▁১৩৫	-10.8537
▁পাঠিয়ে	-10.8537
▁বিরাজ	-10.8538
▁উদযাপন	-10.8539
▁আদিম	-10.8541
▁একপ্রকার	-10.8544
▁জায়গার	-10.8544
▁ফোটা	-10.8544
▁কিছুক্ষণ	-10.8546
▁জানুয়ারিতে	-10.8547
▁দিঘী	-10.855
▁সেসব	-10.856
▁পরিবেশিত	-10.8561
সু	-10.8561
▁খাজা	-10.8561
▁মৌর্য	-10.8565
▁কিনতে	-10.8565
▁যাচ্ছেন	-10.8571
on	-10.8584
▁মেয়েটি	-10.8584
▁বেদের	-10.859
▁গোলাবর্ষণ	-10.8591
▁পারেঃ	-10.8594
▁সুড়ঙ্গ	-10.8595
▁কন্ঠ	-10.8596
▁মধ্যযুগ	-10.8597
▁আমেরিকাতে	-10.8603
▁গ্রেড	-10.8606
▁বাড়ে	-10.8607
▁বেড়া	-10.8607
▁১০৩	-10.8609
▁পর্বতে	-10.8609
▁কারও	-10.8614
▁অঞ্চলকে	-10.862
▁প্লাটুন	-10.8621
▁অদ্বৈত	-10.8626
▁প্রভাত	-10.8627
▁তালাক	-10.8633
বাড়ি	-10.8638
ুস	-10.8639
▁কেপ	-10.8647
▁৯০০	-10.8648
▁ফিট	-10.8655
▁হাবিব	-10.8662
▁আগুনে	-10.8662
▁হলিউড	-10.8663
▁স্পোর্টস	-10.8679
▁ওসমান	-10.8683
▁পার্কটি	-10.8687
▁বাজ	-10.8689
াংশ	-10.8693
▁পেশ	-10.8695
▁ব্যাঙ্ক	-10.87
▁দেবে	-10.8708
▁ক্রীড়াবিদ	-10.8711
▁২৯৪	-10.8713
▁অধিবেশনে	-10.8718
▁জাতিগত	-10.8718
দেশীয়	-10.8719
▁দিত	-10.8725
▁দেশটিতে	-10.8734
▁বালা	-10.8735
▁ওরা	-10.8737
▁রড	-10.8738
▁জোন	-10.8743
▁বন্য	-10.8743
▁লাগিয়ে	-10.8748
▁কবরস্থানে	-10.8752
▁পরিষদে	-10.8754
▁ব্যবহারকারী	-10.8757
▁কেন্ট	-10.8764
▁সন্দেশ	-10.8767
▁জলদস্যু	-10.877
▁অগাস্ট	-10.8777
▁সংগ্রহের	-10.8778
ঘাট	-10.878
▁দিঘি	-10.878
▁রূপা	-10.878
▁মিশ্রণ	-10.8782
▁দেখাতে	-10.8788
দি	-10.879
▁শ্রীলংকা	-10.879
▁সাঈদ	-10.8794
▁অনেকের	-10.8798
▁বহ	-10.8804
▁পূজিত	-10.8804
▁প্ৰ	-10.8808
▁ধারাবাহিকে	-10.8809
▁বইটিতে	-10.881
▁ফলন	-10.881
▁নিলে	-10.8814
▁পরিদর্শন	-10.8814
▁অপ্রাপ্তবয়স্ক	-10.8817
▁অসামান্য	-10.8817
▁দার্জিলিং	-10.8817
▁সমালোচিত	-10.8817
▁তামিলনাড়ু	-10.8817
▁পুঁথি	-10.8817
▁সংগ্রাহক	-10.8817
▁অক্সিজেন	-10.8817
▁অধিগ্রহণ	-10.8817
▁ইমরান	-10.8817
▁ব্যবসাসফল	-10.8817
▁কারাদণ্ড	-10.8817
▁বঙ্গবন্ধু	-10.8817
▁স্বরবর্ণ	-10.8817
▁পতঙ্গ	-10.8817
▁অণুযায়ী	-10.8817
▁অসম্পূর্ণ	-10.8817
▁অ্যালান	-10.8818
▁পেরিয়ে	-10.8818
▁ডক্টর	-10.8818
▁আলাপ	-10.8818
▁ভাদ্র	-10.8818
▁অনুপ্রেরণা	-10.8818
োন্নতি	-10.8818
▁উদাহরণস্বরূপ	-10.8818
▁গণহত্যা	-10.8818
▁জীবনযাপন	-10.8819
▁মারাঠি	-10.8819
▁দেল	-10.8819
▁১৮৬৯	-10.882
▁টিম	-10.8821
▁ফোঁটা	-10.8824
▁পরিখা	-10.8825
▁হস্তান্তর	-10.8826
▁চাবি	-10.8826
▁গাইতে	-10.8834
▁ওড়িশা	-10.8835
▁১৮৪	-10.8835
▁টাইপ	-10.8837
▁রাউন্ডে	-10.8841
াহ	-10.8841
▁থাকলেন	-10.8844
খণ্ড	-10.8845
বিদ্যুৎ	-10.8846
▁ঝাল	-10.8847
▁আহ্বান	-10.8848
িরা	-10.8849
▁শ্রেণিতে	-10.885
▁ঔষধি	-10.885
▁ফাইল	-10.8853
▁কয়েকদিন	-10.8855
▁বিদ্রোহী	-10.8859
▁বক্তা	-10.8861
▁দ্বা	-10.8862
স্বত্ত্বে	-10.8872
▁মিলান	-10.8873
ছ	-10.8877
▁গোলা	-10.8882
▁কোষে	-10.8884
ব্রাহ্মণবাড়িয়া	-10.8885
▁মুম্বাইয়ে	-10.8895
▁১০৭	-10.8904
▁বেদী	-10.8904
▁জং	-10.891
▁কোমর	-10.891
▁মতন	-10.8926
▁পোপ	-10.8932
▁যত্ন	-10.8932
▁মদন	-10.8936
▁চাঁদে	-10.8937
▁সমৃদ্ধি	-10.8942
▁কর্ণ	-10.8944
o	-10.8945
▁কমতে	-10.895
▁গলায়	-10.8955
▁প্রাণীদের	-10.8957
▁খাতে	-10.8972
▁জার্নাল	-10.8972
▁আসনে	-10.8973
▁পরিমান	-10.8974
▁লাফ	-10.8975
▁স্বদেশী	-10.8987
▁লাইসেন্স	-10.8988
▁ভ্যান	-10.8989
▁ঋগ্বেদ	-10.899
▁স্বত্ত্বে	-10.8997
▁মিটারের	-10.8998
▁ফ্রাঙ্ক	-10.9006
লু	-10.9007
ঙ্গ	-10.9011
▁হার্ড	-10.9018
▁মাইক্রোসফট	-10.9018
▁প্যারা	-10.9019
▁স্বর্গ	-10.9028
▁পৌরসংস্থা	-10.9032
▁নৌবাহিনীর	-10.9035
▁সনাক্ত	-10.9037
▁কল্যাণ	-10.9041
▁প্রিন্স	-10.9046
▁লুক	-10.9053
▁পারা	-10.9055
▁শামস	-10.9055
ফা	-10.906
▁ভিক্ষু	-10.9061
▁উদার	-10.9069
▁সাময়িক	-10.9077
ল্ড	-10.9078
▁সহকর্মী	-10.9084
▁চেন্নাই	-10.9085
▁ঠিকানা	-10.9085
▁পদবি	-10.9086
▁জু	-10.9089
▁বিমানবাহিনী	-10.9092
গুলিকে	-10.9094
▁ছিলাম	-10.9096
▁রাস	-10.91
▁আকস্মিক	-10.9101
নারায়ণ	-10.9106
▁কমনওয়েলথ	-10.9111
▁গ্রেনেড	-10.9111
▁পরমহংস	-10.9111
▁প্রফেসর	-10.9111
▁বিনামূল্যে	-10.9111
▁স্ফটিক	-10.9111
▁অজ্ঞাত	-10.9111
▁রক্ষণাবেক্ষণ	-10.9111
▁পরিসেবা	-10.9111
▁বেশীরভাগ	-10.9111
▁সমার্থক	-10.9111
▁মহম্মদ	-10.9111
▁the	-10.9111
▁পুঠিয়া	-10.9111
▁জেগে	-10.9111
▁কলম্বিয়া	-10.9112
▁পুড়িয়ে	-10.9112
▁বিক্রম	-10.9112
▁কোয়ার্টার	-10.9112
▁সমাজতান্ত্রিক	-10.9112
▁দুর্লভ	-10.9112
▁অভিযুক্ত	-10.9113
▁বর্গফুট	-10.9113
▁প্রভু	-10.9114
▁টপ	-10.9115
▁অসুবিধা	-10.9116
▁সারদা	-10.9117
▁লুসি	-10.9118
▁পরিধি	-10.9118
▁শাবানা	-10.9119
▁নাবিক	-10.9119
▁দুপুর	-10.9119
▁তরিকা	-10.9121
▁সুগন্ধি	-10.9121
▁জীবন্ত	-10.9122
▁চাকমা	-10.9123
▁পারদর্শীতা	-10.9124
▁নাটকীয়	-10.9125
▁রামু	-10.9127
▁জজ	-10.9127
▁অভিন্ন	-10.9129
▁প্রজা	-10.913
৪৭	-10.913
▁ওয়াই	-10.9131
▁লোকদের	-10.9136
▁তাত্ত্বিক	-10.9139
▁আমর	-10.9145
▁যেগুলো	-10.9148
▁ফজল	-10.9149
হেতু	-10.915
▁ইয়ান	-10.9151
▁সভাপতির	-10.9151
খা	-10.9153
▁ছবিটিতে	-10.9154
▁অন্তর্	-10.9157
▁ময়দান	-10.9158
▁টেক্সাস	-10.916
▁ইসলামে	-10.9162
▁অভয়ারণ্য	-10.9164
▁মামলায়	-10.9164
▁পিতৃ	-10.9166
▁খুজে	-10.9166
াত্মক	-10.9174
▁ভা	-10.9178
▁p	-10.918
▁r	-10.9181
▁মণি	-10.9183
▁তীব্রতা	-10.9183
▁জয়ে	-10.9184
াইন	-10.9186
▁মহাবিশ্বে	-10.9189
▁আন্দামান	-10.919
▁বদল	-10.9191
▁দলিল	-10.9195
▁ইঙ্গ	-10.9206
▁ব্রত	-10.9209
▁ফিলিপ	-10.9215
▁পেল	-10.9216
▁সাম	-10.9218
▁ড্রাইভ	-10.9222
▁মহানগরী	-10.9227
▁ইংরেজদের	-10.923
▁আঃ	-10.9233
▁ভাগ্য	-10.9238
▁মহ	-10.924
▁প্রক্রিয়ায়	-10.9244
▁শব্দে	-10.9246
▁লতিফ	-10.9247
▁ট্রফিতে	-10.9256
▁পড়ল	-10.9259
▁আদালতে	-10.9266
▁গৃহযুদ্ধ	-10.9267
▁বিট	-10.9267
▁উড়	-10.9273
▁হেল	-10.9276
▁কোম্পানিতে	-10.9278
▁দীর্ঘকাল	-10.929
ভাষী	-10.9295
▁রেজিমেন্ট	-10.9307
▁ভাইবোনের	-10.9314
▁১৮৫	-10.9314
▁সদস্যের	-10.9322
▁বর্ষার	-10.9324
▁সুইডেন	-10.9328
▁বাংকার	-10.9329
▁জর্জিয়া	-10.9329
▁কেল্লা	-10.933
বহুল	-10.9332
▁ফে	-10.9332
▁চোর	-10.9333
▁১৮৮৩	-10.9334
▁মৃত্যুদণ্ড	-10.9337
▁উপাখ্যান	-10.9338
▁হজ্জ	-10.934
▁গল্পে	-10.9343
▁বিবাদ	-10.9344
▁ইয়র্কশায়ার	-10.9346
▁অধ্যায়ে	-10.9347
▁হিসেব	-10.9347
▁গোলটি	-10.9348
▁বৌদ্ধধর্মে	-10.935
▁একাই	-10.9352
▁কাশী	-10.9354
বাগ	-10.9358
▁গুহ	-10.936
ান্বিত	-10.9362
▁হিন্দ	-10.9366
বাসী	-10.9367
▁রোমান্টিক	-10.937
োস	-10.9372
▁f	-10.9373
▁বিদ্রোহে	-10.9376
ছেন	-10.9384
▁স্বেচ্ছা	-10.9385
▁পুরুলিয়া	-10.9385
▁সংশোধন	-10.9388
▁ফিলিপাইনে	-10.9394
▁সম্মত	-10.9396
▁প্রশান্ত	-10.9397
▁নির	-10.9403
▁সংঘের	-10.9407
▁প্রথাগত	-10.9409
▁ক্যান্সারে	-10.941
▁সুভাষ	-10.9414
▁স্টিভ	-10.9414
▁কন্টেইনার	-10.9414
▁নওগাঁ	-10.9414
▁নিখুঁত	-10.9414
▁পাণ্ডব	-10.9414
▁ভূঁইয়া	-10.9414
▁ভূগর্ভস্থ	-10.9414
▁ভেষজ	-10.9414
▁মোস্তফা	-10.9414
▁সংকলিত	-10.9414
▁গীটার	-10.9414
▁ব্যারিস্টার	-10.9414
▁মার্বেল	-10.9414
▁ভুগছিলেন	-10.9414
▁ইস্টার্ন	-10.9414
▁গিয়াসউদ্দিন	-10.9414
▁ঘটনাবলী	-10.9414
▁সমতুল্য	-10.9414
াধিকার	-10.9415
▁দ্বিতল	-10.9415
▁আহরণ	-10.9415
▁লোদি	-10.9415
▁শিবলিঙ্গ	-10.9415
▁চঞ্চু	-10.9415
▁ইউটিসি	-10.9415
▁বামপন্থী	-10.9416
▁রোপণ	-10.9416
▁চার্লি	-10.9416
▁বাৎসরিক	-10.9416
▁বাঙালী	-10.9417
▁মেশানো	-10.9418
▁টাইটানিক	-10.9418
▁ওস্তাদ	-10.9418
▁পালকহীন	-10.9418
▁আখতার	-10.9419
▁১১১	-10.9419
▁রুদ্র	-10.9419
▁লবন	-10.942
▁সভাপতিত্ব	-10.942
▁পোষণ	-10.942
▁লাঠি	-10.9422
▁মালিকানাধীন	-10.9422
ঙ্ক	-10.9422
▁পর্যাপ্ত	-10.9424
▁জিয়াউ	-10.9424
▁ক্ষীর	-10.9425
▁গ্রিসে	-10.9426
▁প্রেক্ষিতে	-10.9427
▁আসক্তি	-10.9427
▁লীলা	-10.9429
▁ধারন	-10.9429
▁সংসদে	-10.9431
▁গৌরব	-10.9433
▁ঊষা	-10.9439
পতি	-10.944
▁গায়	-10.944
▁খাত	-10.9441
▁প্রবাসী	-10.9442
▁জামে	-10.9446
▁কেমব্রিজ	-10.9448
▁ইয়র্কে	-10.9448
▁দ্রুততম	-10.9449
▁খোদাই	-10.945
▁সত্যতা	-10.9451
▁ছড়ায়	-10.9452
জার	-10.9453
▁থাকি	-10.9453
▁নুর	-10.9459
▁অবস্থানের	-10.9463
▁হাফ	-10.9464
▁সাথেই	-10.947
▁সিডনিতে	-10.947
▁চেনা	-10.9471
▁জানতেন	-10.9473
েন্দ্রনাথ	-10.9474
▁ডব্লিউ	-10.9474
▁খ্রিস্ট	-10.9474
্ত	-10.9475
▁ক্রিস	-10.9484
▁চিত্রিত	-10.9484
▁করণ	-10.9484
▁রুপান্তর	-10.9485
▁মশা	-10.9485
স্থল	-10.9486
▁প্রতিযোগীতা	-10.9488
▁হাজির	-10.949
▁দ্রাঘিমাংশ	-10.949
▁মিলিয়নের	-10.9491
▁পদার্থবিজ্ঞান	-10.9495
▁শৈলী	-10.9495
▁রেখেছিল	-10.9496
▁১৭০	-10.9496
▁মেলবোর্ন	-10.95
▁মুর্শিদাবাদ	-10.9502
▁কৈশোরে	-10.9503
▁রুটি	-10.9503
রীতি	-10.9506
▁আকবরের	-10.9509
▁করব	-10.9515
▁বৃত্তাকার	-10.9517
▁এইভাবে	-10.9526
▁গোল্ড	-10.9526
▁হেঁটে	-10.9527
গো	-10.9528
▁সম্মুখ	-10.9529
▁সন্তানদের	-10.953
▁ব্যাংকের	-10.9532
▁ফার্ম	-10.9534
▁পছন্দের	-10.9534
▁স্বরূপ	-10.9538
▁ডুব	-10.954
▁চ্যাম্পিয়নশীপ	-10.954
▁থানায়	-10.9553
তী	-10.9554
▁ক্যাম্পাসে	-10.9554
▁যাপন	-10.9556
িয়	-10.9564
▁বাগ	-10.9571
▁প্রসঙ্গে	-10.9581
▁কল্প	-10.9582
▁জেটি	-10.9584
নার	-10.9585
▁যন্ত্রে	-10.9589
▁শিকড়	-10.9591
▁বান	-10.96
▁ভবিষ্যত	-10.9601
মু	-10.9604
▁চিত্রা	-10.9605
্র	-10.9618
▁শিবির	-10.9619
▁কল্পকাহিনী	-10.9626
▁পাশ্চাত্য	-10.9631
▁বাড়িয়ে	-10.9633
ৰ	-10.9636
▁শৈল	-10.9641
▁১১৫	-10.9643
▁ভঙ্গ	-10.9647
▁মাত্রার	-10.9656
আপ	-10.9656
▁মন্ত্রণালয়ের	-10.9658
▁জিলা	-10.9659
জী	-10.966
▁ডাকনামে	-10.9662
▁আশ্রম	-10.9662
▁ঘটক	-10.9667
▁আবেগ	-10.9676
▁বিদ্যুত	-10.9677
গ্রহণ	-10.9679
▁বোস	-10.9683
রং	-10.9685
▁পট	-10.9687
হা	-10.9688
▁শাসনকাল	-10.9689
বিধ	-10.9693
▁বনভূমি	-10.9694
▁কর্মকান্ড	-10.9695
▁হালিম	-10.9701
▁রব	-10.9703
▁দিয়েই	-10.9707
▁একলা	-10.9708
▁আঠারো	-10.9711
▁পুন	-10.9712
▁শান্তিনিকেতনে	-10.9716
▁সহযোগ	-10.9717
▁১৯০	-10.9718
▁ব্রিগেড	-10.972
▁অস্পষ্ট	-10.9723
▁তলে	-10.9724
▁গবেষনা	-10.9725
▁তিব্বতে	-10.9726
▁স্পেশাল	-10.9726
▁বন্দুক	-10.9726
▁অস্বাভাবিক	-10.9727
▁আলজেরিয়া	-10.9727
▁কাল্পনিক	-10.9727
▁জাহাঙ্গীর	-10.9727
▁পিস্তল	-10.9727
▁প্রতিফলিত	-10.9727
▁সেন্ট্রাল	-10.9727
▁কবুতর	-10.9727
▁চিংড়ি	-10.9727
▁অণুজীব	-10.9727
▁গাছপালা	-10.9727
▁বাধ্যতামূলক	-10.9727
▁ভগিনী	-10.9727
▁আর্সেনাল	-10.9727
▁পীতাভ	-10.9727
▁সাংহাই	-10.9727
▁আয়োজক	-10.9727
▁মহাত্মা	-10.9727
▁ছৌ	-10.9727
▁কালিদাস	-10.9727
▁রেগে	-10.9727
▁সমূদ্র	-10.9727
▁চলবে	-10.9727
▁পীত	-10.9727
▁ক্লান্ত	-10.9727
▁আখড়া	-10.9727
▁দেখাশোনা	-10.9728
▁পাইথন	-10.9728
▁অধিকতর	-10.9728
▁টিকিট	-10.9728
▁ব্যাক্তিগত	-10.9728
▁আপনাদের	-10.9728
▁গিটার	-10.9728
▁রাজবাড়ী	-10.9729
▁জ্যাকসন	-10.9729
▁মনোরম	-10.9729
▁ছাত্রাবস্থায়	-10.973
▁বিজনেস	-10.9731
দুটি	-10.9732
▁সংঘাত	-10.9732
▁করলাম	-10.9732
▁এলে	-10.9732
▁চকচক	-10.9732
▁১৮৯৪	-10.9734
▁মৃত্যুবর	-10.9734
▁ইসরায়েল	-10.9735
▁পল্লী	-10.9735
▁শিক্ষাবিদ	-10.9736
▁লাইকেন	-10.9737
▁বিঘা	-10.9737
▁মজিদ	-10.9739
▁নাসির	-10.9739
▁নদীয়া	-10.974
▁ইমন	-10.974
▁টেনে	-10.9742
▁অদূরে	-10.9742
পদ	-10.9742
▁মোহনায়	-10.9743
▁অবস্থাতেই	-10.9743
▁উপকারী	-10.9743
▁বিভিন্নতা	-10.9744
▁অবমুক্ত	-10.9745
▁একাধিকবার	-10.9745
▁কাটতে	-10.9746
▁বন্ড	-10.9747
▁দেহতল	-10.9749
▁একমত	-10.9751
▁আভা	-10.9752
▁প্রেরণা	-10.9753
▁মিমি	-10.9754
▁টোপর	-10.9754
▁ঢিবি	-10.9755
▁রাধা	-10.9755
▁আপন	-10.9755
▁ভাঙা	-10.9756
▁ছবিগুলো	-10.9757
▁ফাঁক	-10.9757
▁গেছি	-10.9757
▁উপস্থাপনা	-10.9758
াড়া	-10.9764
▁স্নান	-10.9768
▁গ্র	-10.977
▁গ্রামাঞ্চলে	-10.9776
▁পাকিস্তানী	-10.978
েজ	-10.9781
▁কাতারে	-10.9782
▁নৌবাহিনী	-10.9785
টিস	-10.9786
৭৮	-10.9797
▁উড্ডয়ন	-10.9798
▁বর্গাকার	-10.9798
▁ডক	-10.9799
▁দম্পতি	-10.9801
▁বিরতি	-10.9801
▁উইন	-10.9806
▁জার্মানিতে	-10.9807
▁অপু	-10.9808
▁মৌ	-10.9811
▁ইরানি	-10.9816
▁যাক	-10.9817
৮১	-10.9819
▁মিশেল	-10.9824
▁রোধ	-10.9826
▁অন্ত	-10.983
▁ট্রেনিং	-10.983
▁নিতেন	-10.9844
▁দ্বন্দ্ব	-10.9845
▁ইতালিতে	-10.9847
▁আশির	-10.9853
▁পুরোহিত	-10.9856
▁শান	-10.9856
▁দন্ড	-10.9865
▁মাদ্রাজ	-10.9866
▁চক	-10.9874
▁মাউন্ট	-10.988
▁অপরটি	-10.9883
ুক	-10.9884
▁কুক	-10.9886
▁ইয়ু	-10.9888
▁পুর্ব	-10.9889
▁মাদরাসা	-10.9893
▁টুল	-10.9894
▁অনলাইন	-10.9895
▁ত্রিশ	-10.9896
▁অপরকে	-10.9896
or	-10.9903
▁ফ্যাশন	-10.9906
▁মায়ানমারে	-10.9909
▁একতলা	-10.9911
▁আবাহনী	-10.9914
▁আঙুল	-10.9915
▁কিঃ	-10.9919
▁হলোঃ	-10.9919
▁ব্যাবস্থা	-10.993
▁২৪টি	-10.9941
▁গেমসের	-10.995
▁ব্র্যান্ড	-10.995
িভ	-10.9951
▁রঙে	-10.9956
চালা	-10.9956
দৃষ্ট	-10.9957
িজ	-10.9959
▁ফন	-10.9962
▁লিবিয়া	-10.9964
▁পোল্যান্ড	-10.9965
▁দর	-10.9965
▁জিতেন	-10.9968
▁ক্যান্টিন	-10.997
ফিল্ড	-10.9972
▁স্মরণে	-10.9973
P	-10.9974
▁রুপি	-10.9977
▁ফলক	-10.9978
ইল	-10.9986
বয়ে	-10.9993
▁যেতেন	-10.9995
▁কাবা	-11
▁১০১	-11.0001
▁রাজস্থান	-11.0009
▁লুট	-11.001
▁বলি	-11.0016
▁সাক্ষর	-11.0016
▁পর্বতশ্রেণী	-11.0017
▁রানওয়ে	-11.0018
▁কোচিং	-11.002
▁নাম্বার	-11.0027
▁সাদ	-11.003
▁কিশোরগঞ্জ	-11.0032
▁বাজারজাত	-11.0035
▁ঘন্টার	-11.0038
▁কিতাব	-11.0041
▁মুর	-11.0046
▁রকেট	-11.0049
▁শচীন	-11.0049
▁কন্নড়	-11.0049
▁দৈনন্দি	-11.0049
▁স্থগিত	-11.0049
▁মধুসূদন	-11.0049
▁মিডলসেক্স	-11.0049
▁সাংবিধানিক	-11.0049
▁দুর্নীতি	-11.0049
▁পঞ্চদশ	-11.0049
▁ব্যাক্টেরিয়া	-11.0049
▁পড়ুন	-11.0049
▁পশম	-11.0049
▁শুটিং	-11.005
▁প্রত্যাহার	-11.005
▁সেলজুক	-11.005
▁কালীর	-11.005
▁ঝুঁকে	-11.005
▁ক্ষেত্রফল	-11.005
▁ইন্দিরা	-11.005
▁অপসারণ	-11.005
▁জেনেভা	-11.005
▁ফারাও	-11.005
▁পঞ্চগড়	-11.005
▁কৌতুক	-11.0051
▁অমরনাথ	-11.0051
▁আলফ্রেড	-11.0051
▁পরগণা	-11.0051
▁অস্কার	-11.0052
▁হাঙ্গর	-11.0052
▁অর্থনীতিবিদ	-11.0053
▁গ্রাহক	-11.0053
▁ঝিল্লি	-11.0053
▁ট্রাম	-11.0054
▁ছাড়িয়ে	-11.0054
▁মতভেদ	-11.0054
▁দাড়ায়	-11.0055
▁বিশ্বজুড়ে	-11.0055
▁ব্যাটারি	-11.0055
▁ভাস	-11.0056
▁আটজন	-11.0056
▁বাঁধানো	-11.0056
▁লিচু	-11.0056
▁নির্মল	-11.0057
▁১৮৮৭	-11.0057
▁সাক্ষী	-11.0059
▁১৮৮৮	-11.006
▁পুনরুদ্ধার	-11.0062
▁সংখ্যাটি	-11.0062
▁বাঙ্গালী	-11.0062
▁পাদদেশে	-11.0063
▁উত্তল	-11.0063
৪৯	-11.0064
▁বেষ্টিত	-11.0064
▁পাত্রে	-11.0066
▁নিবন্ধিত	-11.0067
▁লুই	-11.0067
▁প্রানী	-11.0068
▁কামনা	-11.0071
▁হলদিয়া	-11.0072
চরণ	-11.0072
▁মুক্তিলাভ	-11.0074
▁গর্তে	-11.0076
▁দৌড়ে	-11.0078
▁বেতারে	-11.0079
▁মহিলার	-11.0083
▁সাইদ	-11.0086
▁হাসি	-11.0086
▁টেইলর	-11.0093
▁সুইস	-11.0095
▁লাসা	-11.0095
▁ভেদ	-11.0099
▁রিভার	-11.0109
▁শিক্ষকের	-11.0111
▁উল্লাহ	-11.0112
চা	-11.0112
▁উমিয়া	-11.0114
জে	-11.0115
▁প্রচ্ছদ	-11.0119
ণ্ড	-11.0126
▁নিক	-11.0127
ভাগে	-11.0129
▁টের	-11.0129
ক্স	-11.013
▁ক্রমান্	-11.013
▁রেজা	-11.0133
খানা	-11.014
▁বোর	-11.0141
▁সংরক্ষণের	-11.0145
▁শনিবার	-11.0146
▁মন্ত্রণালয়	-11.0146
▁প্রাঙ্গনে	-11.0146
▁চত্বরে	-11.0149
▁থাইল্যান্ডে	-11.0149
▁নজরে	-11.0152
▁আগস্টে	-11.0152
▁নিম	-11.0156
২৮	-11.0163
er	-11.0165
▁খেলনা	-11.0175
▁তুরস্কে	-11.0179
▁রেকর্ডস	-11.0181
▁সিম	-11.0186
▁বক	-11.0189
▁খন্ডে	-11.0198
েন্স	-11.0198
▁সেজন্য	-11.0198
▁তাক	-11.02
▁ইপিআরে	-11.0203
▁নিচ	-11.0205
▁জনকে	-11.0205
▁কান্ড	-11.0205
৮০	-11.021
টমাস	-11.0212
▁কবিতাটি	-11.0214
▁বার্লিন	-11.0215
▁লাইট	-11.022
▁ডগা	-11.0221
▁c	-11.0225
▁কাঁধে	-11.023
▁জিম	-11.0236
০৫	-11.0236
▁বেজ	-11.0241
▁ইয়ে	-11.0241
▁গিল	-11.0248
▁১৮৮০	-11.0248
▁অটো	-11.0253
▁প্রাসাদে	-11.0253
▁সম্মুখে	-11.0254
▁রেট	-11.0259
রেখা	-11.0259
▁বলতেন	-11.026
কেন্দ্র	-11.0268
▁ভেদে	-11.0272
▁ফার	-11.0273
▁সুযোগে	-11.0278
▁প্রতিষ্ঠাকাল	-11.0278
▁অনুগামী	-11.028
▁গাড়ী	-11.028
▁ফোর্স	-11.0283
▁অস্ট্রেলিয়ান	-11.0284
▁কাম	-11.0287
▁জেন	-11.03
▁অংশকে	-11.0302
▁দুর্গটি	-11.0302
লিং	-11.0304
মুক্ত	-11.0304
▁লেন্স	-11.0309
▁বসন্তে	-11.031
ৈক	-11.0312
▁নিরাপত্তার	-11.0312
▁পোতাশ্রয়	-11.0317
▁জ্যোতি	-11.032
▁কুস্তি	-11.0323
সময়	-11.0325
▁জঙ্গি	-11.0328
▁অপারেশনে	-11.0328
▁শিরোনামে	-11.0337
▁১০৬	-11.0338
▁বৈশিষ্ট	-11.0338
▁পুরস্কারটি	-11.0349
▁স্মারক	-11.0351
▁ক্লিনিক	-11.0351
▁বউ	-11.0355
▁কৃত	-11.0356
▁বলিভিয়া	-11.0357
▁হারুন	-11.0358
▁বিমল	-11.0358
▁অস্থি	-11.0359
▁গদ	-11.036
▁তথ্যের	-11.0361
▁কাউন্টির	-11.0362
▁নাস্তিক	-11.0363
ত্র	-11.0367
মত	-11.0367
▁দোষ	-11.0371
▁সমাগম	-11.0371
▁মেগা	-11.0371
▁দূর্গ	-11.0375
▁ওয়ে	-11.0376
▁শৈব	-11.038
▁ইন্টারন্যাশনাল	-11.0383
▁উবুন্টু	-11.0383
▁নিষেধাজ্ঞা	-11.0383
▁মোতাবেক	-11.0383
▁ওলন্দাজ	-11.0383
▁চুনাপাথর	-11.0383
▁টেকনাফ	-11.0383
▁তাড়াতাড়ি	-11.0383
▁শিফট	-11.0383
▁সিদ্ধার্থ	-11.0383
▁এডওয়ার্ড	-11.0383
▁উচিৎ	-11.0383
▁সুন্নি	-11.0383
▁আইনস্টাইন	-11.0383
▁নরসিংদী	-11.0383
▁খাদ্যাভ্যাস	-11.0383
▁হিজরি	-11.0383
▁অলংকার	-11.0383
▁ওয়াটসন	-11.0383
▁কুন্তী	-11.0383
▁আপত্তি	-11.0384
▁খন্দকার	-11.0384
▁এমসিসি	-11.0384
▁অ্যাঞ্জেল	-11.0384
▁অনুপম	-11.0384
▁পোড়ামাটি	-11.0385
▁ইংলিশ	-11.0385
▁র্গ্যাল	-11.0385
▁হাজী	-11.0386
▁যুগান্তর	-11.0386
▁উত্তরসুরি	-11.0386
▁ডেভিস	-11.0386
▁নেশা	-11.0387
▁যোনি	-11.0387
▁পৌঁছান	-11.0389
▁হাঁটু	-11.039
▁স্লেট	-11.0392
▁অক্ষত	-11.0393
▁চাষাবাদ	-11.0393
▁নব্বই	-11.0394
▁কলসি	-11.0394
▁পাঠায়	-11.0397
▁তালিম	-11.0401
সিন	-11.0403
▁স্তন	-11.0405
▁মেয়েরা	-11.0408
▁হবেন	-11.0411
▁স্পোর্টিং	-11.0413
▁রচনাকাল	-11.0413
▁ব্রড	-11.0415
▁চলচিত্র	-11.0417
▁সূত্রঃ	-11.0418
h	-11.0423
▁পর্দায়	-11.0428
▁প্রভূত	-11.0429
▁দরবারে	-11.0429
▁ভোলা	-11.0433
▁শেরপুর	-11.0434
▁আঘাতপ্রাপ্তি	-11.0435
▁শিরা	-11.0437
▁ব্যা	-11.0439
▁রসায়নবিদ	-11.0443
▁পড়তেন	-11.0444
▁বাস্তবায়ন	-11.0448
গামী	-11.0451
▁জলপথ	-11.0455
▁ইয়ার	-11.0455
▁প্রসাদ	-11.0458
▁বাগানে	-11.0461
▁সিভিল	-11.0462
▁কাগজে	-11.0462
রিয়া	-11.0466
ঞ্জ	-11.0466
▁লিভারপুল	-11.0469
▁ক্রু	-11.0472
▁কোটা	-11.0475
▁মিরপুর	-11.0476
▁সুইজারল্যান্ডে	-11.0477
▁টেলর	-11.0481
▁গৃহপাল	-11.0484
▁আওয়াজ	-11.0484
▁বৈঠক	-11.0484
▁প্রজন্ম	-11.0484
▁স্থাপনাটি	-11.0491
পন্থী	-11.0492
▁ঘটেনি	-11.0493
▁খো	-11.0495
▁গার্ড	-11.0502
▁উপদলে	-11.0502
▁নিউজিল্যান্ডে	-11.051
▁আদল	-11.0519
▁জাপানী	-11.0526
▁আত	-11.0531
▁রাইট	-11.0531
▁কাক	-11.0531
▁আক	-11.0535
▁চাও	-11.0536
▁উপমহাদেশ	-11.0536
৫৫	-11.054
▁নাচে	-11.0541
▁ওভারের	-11.0542
▁ইভেন্টে	-11.0542
▁10	-11.0549
▁পরিমানে	-11.0551
▁তৈরীতে	-11.0556
হান	-11.0559
▁ডু	-11.0559
▁৩৬০	-11.0562
ছো	-11.0563
এম	-11.0564
৬৮	-11.0565
▁খ্রিষ্টপূর্ব	-11.0566
▁ক্যাম্পে	-11.0568
▁মধ্যভাগ	-11.0569
আর	-11.0576
▁পারলে	-11.0577
▁পুরা	-11.058
▁অবি	-11.058
ানা	-11.0587
▁খেলোয়াড়ের	-11.0588
ডো	-11.059
▁পক্ষের	-11.059
▁মজার	-11.059
▁চৌদ্দ	-11.0593
▁অভিধান	-11.0595
▁তেলে	-11.0598
▁মন্দ	-11.0599
▁নগরীর	-11.06
▁আয়ু	-11.06
▁জলপ্রপাত	-11.06
▁চলত	-11.0601
▁১৯টি	-11.0602
▁ফেব্রুয়ারিতে	-11.0603
▁প্লেট	-11.0612
▁বন্ধুর	-11.0615
উড	-11.0616
▁তাও	-11.0617
▁হারাম	-11.0618
▁এসময়ে	-11.0621
▁শিম	-11.0635
▁কুই	-11.0643
▁হোন	-11.0643
পুরাণ	-11.0645
▁১১৩	-11.0651
▁পর্বটি	-11.0659
▁মোয়া	-11.0659
▁চাকুরি	-11.0659
▁অম্ল	-11.066
▁পাগল	-11.0665
▁ছত্রাক	-11.0668
▁বান্দরবান	-11.0669
▁রজনী	-11.0669
▁টনি	-11.0671
▁জোড়	-11.0672
▁১০৫	-11.0678
▁মেট্রিক	-11.0678
▁কর্তৃপক্ষের	-11.0681
▁নিন	-11.0688
▁জীবাশ্ম	-11.0691
▁রবিবার	-11.0693
▁ভালবাসে	-11.0696
▁একীভূত	-11.0696
▁শামসু	-11.0698
▁জলাশয়ে	-11.07
▁কমিউনিটি	-11.0701
▁হাফিজ	-11.0705
▁কড়ি	-11.0714
▁বাজাতে	-11.072
স্কি	-11.0721
▁তাৎপর্য	-11.0725
▁বুলেট	-11.0726
▁নিখিল	-11.0727
▁আবশ্যক	-11.0727
▁কাঁঠাল	-11.0727
▁দুঃসাহসী	-11.0727
▁বিচলিত	-11.0727
▁যুধিষ্ঠির	-11.0727
▁অগভীর	-11.0727
▁ডালপালা	-11.0727
▁বিকশিত	-11.0727
▁প্রশিক্ষক	-11.0728
▁চর্যাপদ	-11.0728
▁বুলবুল	-11.0728
▁হালাকু	-11.0728
▁লুঙ্গি	-11.0728
▁শুকানো	-11.0728
▁নোকিয়া	-11.0728
▁কম্বোডিয়া	-11.0728
▁জোয়ারভাটা	-11.0728
▁অন্তর্ভূক্ত	-11.0728
▁রাউজান	-11.0728
▁হায়দ্রাবাদ	-11.0728
▁পদার্পণ	-11.0728
▁জব্বার	-11.0728
▁কাটিয়েছেন	-11.0728
▁আটলান্টিক	-11.0728
▁প্রত্যাবর্তন	-11.0728
▁শুক্রবার	-11.0728
▁সুভাষচন্দ্র	-11.0728
▁অবনতি	-11.0729
▁দ্রৌপদী	-11.0729
▁The	-11.0729
▁মেগাওয়াট	-11.0729
▁প্রতিশব্দ	-11.0729
▁নিশ্চয়	-11.0729
▁মিশেছে	-11.0729
▁খেলাধূলা	-11.073
▁শয্যা	-11.073
▁বানিজ্যিক	-11.073
▁চৈতন্য	-11.0731
▁পত্তন	-11.0732
▁দামোদর	-11.0732
▁ঘরানা	-11.0733
▁বুনো	-11.0734
▁ডাব্লিউডাব্লিউই	-11.0734
▁মান্নান	-11.0735
▁ঐতিহ্যগতভাবে	-11.0737
▁আর্মেনীয়	-11.0738
▁সম্পর্কযুক্ত	-11.0738
▁ভাণ্ডার	-11.0739
৪৬	-11.0739
▁ইঙ্গিত	-11.0739
▁ছয়জন	-11.0741
রণ	-11.0741
▁রানার্স	-11.0742
▁পারলেন	-11.0744
▁বড়ুয়া	-11.0744
তায়	-11.0747
▁দুর্ভিক্ষ	-11.0748
চ্ছ	-11.0749
▁সারাদিন	-11.075
▁গুজরাট	-11.0751
▁ঘটনাকে	-11.0752
▁ঘাটে	-11.0753
▁হিন্দী	-11.0753
▁শৃঙ্খলা	-11.0754
▁ইঞ্জিনিয়ারিং	-11.0756
▁পার্শ্ব	-11.0758
কেন্দ্রিক	-11.0758
▁প্রাসাদের	-11.0759
▁প্রমান	-11.0762
▁অচি	-11.0762
▁অপরাধী	-11.0763
▁নাটকেও	-11.0768
▁পিচ	-11.0773
▁মহাবিদ্যালয়	-11.0774
▁ক্ষয়	-11.0777
▁মাঝেমধ্যে	-11.0778
▁পারস্যে	-11.0778
▁বাস্তবতা	-11.0779
▁লক্ষের	-11.0781
▁সো	-11.0782
▁শিখতে	-11.0794
▁মহেশ	-11.0795
দে	-11.0796
▁বিক্রমপুর	-11.0797
▁মামুন	-11.0798
▁চাট	-11.0799
▁ছু	-11.08
▁নয়ন	-11.08
▁ব্যর্থতা	-11.0802
▁সীতা	-11.0803
▁ছাই	-11.0803
▁ঘন্টায়	-11.0804
▁সরীসৃপ	-11.0806
লের	-11.0807
▁অবলম্বন	-11.0807
▁বলয়	-11.0812
▁কম্পন	-11.0814
ড়িয়ে	-11.0814
▁গুড়	-11.0819
t	-11.082
সো	-11.0822
পরি	-11.0825
▁বিজয়ে	-11.0827
▁কাবুল	-11.0829
▁m	-11.0829
▁মিলি	-11.0833
▁ওল্ড	-11.0835
▁আসছেন	-11.0835
▁ধর	-11.0837
▁মাদ্রাসায়	-11.0846
▁শিল্পীরা	-11.0847
▁ব্রা	-11.0848
▁আতা	-11.0851
▁নবাবের	-11.0861
হাতি	-11.0862
▁ফেমে	-11.0868
ছি	-11.0881
▁নেতাদের	-11.0886
ীদের	-11.0886
▁সাফ	-11.0887
▁বিপ্লবীদের	-11.0892
▁ক্রিস্ট	-11.0893
▁পাঠাগার	-11.0894
▁আইল্যান্ড	-11.09
▁আয়না	-11.0902
গঠিত	-11.0909
▁গতিপথ	-11.0911
ীতে	-11.0913
▁জমিদারি	-11.0914
▁বইগুলো	-11.0918
▁চাচাত	-11.0919
▁খালেদ	-11.092
▁ফিলিস্তিন	-11.0921
▁অভিযোগে	-11.0921
▁নেদারল্যান্ডস	-11.0923
▁ভূমিতে	-11.0927
পো	-11.0929
▁চলচিত্রে	-11.0933
▁উপনিষদের	-11.0937
▁বচন	-11.094
▁মূর্তির	-11.0949
▁ডিমগুলো	-11.0951
▁বেকার	-11.0952
▁যাও	-11.0952
▁ভদ্র	-11.0963
▁ফুজি	-11.0977
বস্তু	-11.0977
▁প্রতিবেদন	-11.0978
▁রেকর্ডটি	-11.0978
উল্লাহ	-11.098
▁পূর্বাঞ্চল	-11.0982
িশ	-11.0982
▁সুইজারল্যান্ড	-11.0985
▁চেয়ার	-11.0986
▁ঘি	-11.0987
▁সুজি	-11.0994
বতী	-11.0998
▁আদর্শে	-11.1003
▁রিপ	-11.1004
প্রসাদ	-11.1013
▁চিত্রকর্ম	-11.1014
▁মুম্বই	-11.1014
▁চম্পা	-11.1015
▁কৌশলে	-11.1016
▁পারেনা	-11.1022
কক্ষ	-11.1023
▁ব্ল	-11.1023
▁বিল্ডিং	-11.1028
▁দীন	-11.1028
▁সিঙ্গাপুরে	-11.1029
▁আত্মগোপন	-11.1032
▁মাঙ্গা	-11.1033
▁আগষ্ট	-11.1036
▁নিউক্লিয়াস	-11.1037
▁সমান্তরাল	-11.1047
▁মধুর	-11.1048
▁নথি	-11.1055
▁রক্ষণশীল	-11.1057
▁রোবট	-11.1059
▁১০৪	-11.1062
▁দেশগুলি	-11.1062
▁বার্ড	-11.1065
▁বিজ্ঞাপনে	-11.1067
▁ফটো	-11.1069
▁সচেতন	-11.107
▁প্যান	-11.1073
▁বক্সিং	-11.1075
▁ইউক্রেন	-11.1077
▁প্রসঙ্গ	-11.1079
▁মুরাদ	-11.1079
▁খ্রি	-11.1079
▁অভ্যুত্থানে	-11.108
▁ছি	-11.1084
▁প্রশাখা	-11.1084
▁অপরিহার্য	-11.1085
▁অশ্বারোহী	-11.1085
▁বাগেরহাট	-11.1085
▁ব্যাডমিন্টন	-11.1085
▁হবিগঞ্জ	-11.1085
▁সম্ভ্রান্ত	-11.1085
▁ইয়াসমিন	-11.1085
▁টমেটো	-11.1085
▁মহাকর্ষ	-11.1085
▁সরঞ্জাম	-11.1085
▁উৎকৃষ্ট	-11.1085
▁অগ্রণী	-11.1085
▁হায়দার	-11.1085
▁নির্বাসন	-11.1085
▁বুদ্ধিজীবী	-11.1085
▁সুইডিশ	-11.1085
▁জিডিপি	-11.1085
▁ঝুলন্ত	-11.1085
▁বংশবৃদ্ধি	-11.1085
▁বিচারপতি	-11.1085
▁পারছি	-11.1085
▁বুঝানো	-11.1085
▁তামাটে	-11.1085
▁যমজ	-11.1085
▁ক্ষতিগ্রস্থ	-11.1086
▁বুদ্ধিমান	-11.1086
▁লায়লা	-11.1086
▁মমতাজ	-11.1086
▁প্রেরিত	-11.1086
▁কাতালান	-11.1086
▁তৈল	-11.1087
▁কামরূপ	-11.1087
▁গুজব	-11.1087
▁বিবিসি	-11.1088
▁অপেরা	-11.1088
▁রক্তে	-11.109
▁নাট্যকার	-11.109
▁ডিভাইস	-11.1091
▁ফিল্ডার	-11.1092
▁শ্রম	-11.1092
▁তেরো	-11.1092
▁১৮৬৮	-11.1093
▁ফ্রেড	-11.1094
▁পার্ল	-11.1094
▁থাকতো	-11.1096
▁সাতজন	-11.1096
▁৭৫০	-11.11
▁ডাটা	-11.11
িৎ	-11.1101
মুখ	-11.1101
▁উচ্চমাধ্যমিক	-11.1103
▁লাভের	-11.1105
▁জাতীয়করণ	-11.1107
▁যজ্ঞ	-11.1107
▁বডি	-11.1107
▁নিলেন	-11.1109
▁জিতেছেন	-11.1112
▁ভাষ্য	-11.1112
▁কমিকস	-11.1113
তন্ত্র	-11.1114
▁আর্ম	-11.1114
▁অরণ্যে	-11.1116
▁মিউজিয়াম	-11.1116
▁ব্যক্তিজীবন	-11.1118
▁মেট্রোর	-11.112
▁প্রস্থে	-11.112
গ্রস্ত	-11.1123
▁সংস্করন	-11.1124
▁বিধি	-11.1126
▁ছো	-11.113
▁ইমারত	-11.113
▁ভেজা	-11.1133
▁পোড়া	-11.1135
▁মিত্রতা	-11.1135
▁পাঁচবার	-11.1138
ারা	-11.1143
▁কাশি	-11.1146
▁দৃষ্টিতে	-11.1148
▁পেতেন	-11.1152
▁ডেথ	-11.1152
▁কাবাড	-11.1153
▁জলচ	-11.1153
▁রাষ্ট্রে	-11.1155
▁সুফিয়া	-11.1157
▁রজার	-11.1159
▁পরিবহণ	-11.1163
▁সৈন্যদের	-11.1168
▁দীনেশ	-11.1171
▁জার্মানী	-11.1173
▁লিলি	-11.1173
▁ঝ	-11.1176
▁তালিকাটি	-11.1185
▁দিকটা	-11.1188
নেট	-11.119
াংশে	-11.1193
▁চাঁদপুর	-11.1197
জো	-11.1197
ুদ্দিন	-11.1203
▁লিন	-11.1206
▁বঙ্গাব্দ	-11.1209
▁জনসন	-11.121
▁মেল	-11.1213
▁অপেক্ষায়	-11.1214
শিক্ষাপ্রতিষ্ঠান	-11.1215
▁মিলার	-11.1219
▁উপসাগরে	-11.1221
▁ডো	-11.1228
তারা	-11.1229
▁হারানো	-11.123
▁দায়ে	-11.124
▁কিলোমিটারে	-11.1242
লেস	-11.1253
▁আবরণ	-11.126
▁বিদ্যালয়টির	-11.1262
▁২৭টি	-11.1262
▁বীর্য	-11.1263
▁গোয়া	-11.1271
▁জোরে	-11.1273
টেড	-11.1279
▁গণি	-11.1291
▁পেটে	-11.1291
▁মেরামত	-11.1292
▁হাইকোর্টে	-11.1293
▁তন্তু	-11.1299
▁পাসপোর্ট	-11.13
▁ভ্রমণে	-11.1301
▁সহায়তায়	-11.1306
▁পাতাগুলো	-11.1307
▁ওজনে	-11.1309
৮২	-11.1323
▁২২০	-11.1326
তল	-11.1329
▁সবুজাভ	-11.133
▁মহাদেশ	-11.1333
▁ছাত্ররা	-11.1334
▁আজারবাইজান	-11.1334
▁ষাঁড়	-11.1344
▁পাত	-11.1344
▁জবাবে	-11.1346
লিক	-11.135
▁সাসেক্স	-11.1354
▁৪৫০	-11.1362
▁বাত	-11.1364
িংয়ের	-11.1369
বৃন্দ	-11.137
▁কিস	-11.1372
▁হাদীস	-11.1372
▁রাজধানীর	-11.1378
▁১১৭	-11.1381
নাগরী	-11.1385
চাইতে	-11.1387
▁খানিকট	-11.1388
▁জোলি	-11.1391
জিৎ	-11.1393
পিছু	-11.1394
িতা	-11.1395
নু	-11.1397
বিদ্ধ	-11.1399
▁লিভার	-11.1407
▁ময়লা	-11.1408
▁গ্রে	-11.141
▁তেজপুর	-11.1415
▁প্রবর্ত	-11.1417
নুল	-11.1417
▁গ্রাউন্ড	-11.142
▁স্কাউট	-11.1424
▁৩২০	-11.1424
াবস্থায়	-11.1427
▁পশতুন	-11.1428
▁ভুমিকা	-11.1429
▁দরগাহ	-11.1431
বছর	-11.1432
▁সকলে	-11.1434
▁করুণ	-11.1436
▁ধ্রুপদ	-11.1437
▁অনুরাগ	-11.1438
▁সুকুমার	-11.1441
▁ব্যক্ত	-11.1443
▁ধ্রুব	-11.1444
▁নখর	-11.1444
▁প্রো	-11.1445
গু	-11.1446
জ্জীবন	-11.1447
▁তাঁত	-11.1447
▁ওমান	-11.1448
▁বানর	-11.1448
▁চুপ	-11.1451
▁লক্ষ্মণ	-11.1454
▁বিতরণ	-11.1455
▁এক্সপ্রেস	-11.1455
▁উদ্যোক্তা	-11.1455
▁ফ্যাকাশে	-11.1455
▁ভেক্টর	-11.1455
▁মাংসাশী	-11.1455
▁মুখার্জী	-11.1455
▁সন্তোষ	-11.1455
▁সম্প্রসারিত	-11.1455
▁সুবিশাল	-11.1455
▁জন্ডিস	-11.1455
▁প্রণীত	-11.1455
▁মামলুক	-11.1455
▁রাজ্জাক	-11.1455
▁শুল্ক	-11.1455
▁অস্ত্রশস্ত্র	-11.1455
▁উদ্ভাবক	-11.1455
▁বাল্টিক	-11.1455
▁পরশুরাম	-11.1455
▁মজবুত	-11.1455
▁যন্ত্রপাতি	-11.1455
▁আহসান	-11.1455
▁প্রভাষক	-11.1455
▁অভিমত	-11.1455
▁তলোয়ার	-11.1456
▁পুরসভা	-11.1456
▁মহাযান	-11.1456
▁দাপ্তরিক	-11.1456
▁মুঙ্গের	-11.1456
▁চামচ	-11.1456
▁শাঁস	-11.1457
▁নাচোল	-11.1457
▁অ্যাকশন	-11.1457
▁আর্থার	-11.1457
▁সমকামী	-11.1458
ষ	-11.1458
▁অনিল	-11.1458
▁আক্রমণাত্মক	-11.1459
▁সাইবেরিয়া	-11.146
▁রাখছেন	-11.146
▁এঁকে	-11.146
▁ভাঙ্গন	-11.1461
▁বান্ধবী	-11.1461
▁অজিত	-11.1462
▁ববিতা	-11.1462
▁যৌগিক	-11.1463
▁বহুমুখী	-11.1464
▁খেয়াল	-11.1464
▁লৌকিক	-11.1464
▁বেগুনী	-11.1465
▁তুলেছেন	-11.1465
▁শ্রীপুর	-11.1466
▁কাঁকড়া	-11.1466
▁ভিজে	-11.1466
▁সহকারে	-11.1467
▁এশিয়াতে	-11.1468
ing	-11.1469
▁কংগ্রেসে	-11.1469
▁সংযোজন	-11.1471
▁টাইমস	-11.1472
▁বিষ্ণুপুর	-11.1472
ia	-11.1472
▁কদর	-11.1474
▁আনার	-11.1475
▁পার্শ্বে	-11.1476
▁দীঘি	-11.1479
▁স্রোত	-11.1486
▁কাশ	-11.1489
▁ভাবনা	-11.1489
▁বাদক	-11.149
যাবৎ	-11.1491
▁সিডি	-11.1491
▁চিপ	-11.1494
▁হাঙর	-11.1494
▁পৃষ্ঠপোষকতা	-11.1495
▁পনের	-11.1496
▁পালানো	-11.1496
▁মাংসের	-11.1498
▁হাতা	-11.1501
▁ভার্সন	-11.1502
েন্ট	-11.1502
▁ধ্বনি	-11.1502
▁বরিশালের	-11.1506
▁গাই	-11.1509
▁মারমা	-11.1511
▁জেড	-11.1514
▁অ্যাপল	-11.1517
▁হাইস্কুলে	-11.1517
খে	-11.1519
▁ডেনমার্ক	-11.152
▁বিমানবন্দরে	-11.1521
▁ডেনি	-11.1523
তন	-11.1523
▁কক্ষপথ	-11.1526
▁বয়সের	-11.1528
▁থাকাকাল	-11.1535
▁শ্রমিকদের	-11.1535
▁একেক	-11.1543
▁আসতেন	-11.1545
▁রাষ্ট্রপ্রধান	-11.1547
ঙ্গি	-11.1551
▁বাইবেল	-11.1554
▁গেয়ে	-11.1557
▁১৬১	-11.1557
▁বসার	-11.1565
▁আবাসন	-11.1572
▁প্রশাসনের	-11.1574
▁সেক্স	-11.1576
▁৩০টি	-11.1577
▁খ্রীস্টাব্দে	-11.1577
ক্ষ	-11.1577
▁৩৯টি	-11.158
▁বোর্ডে	-11.1581
▁জটিলতা	-11.1581
▁মেলায়	-11.1581
দাতা	-11.1588
▁রিয়া	-11.1592
▁স্থাপত্যশৈলী	-11.1593
▁১১৮	-11.1593
▁আত্মার	-11.1595
▁শিল্পকলা	-11.1596
▁নন্দী	-11.1599
▁মহারাষ্ট্র	-11.16
্ক	-11.1601
▁দাসের	-11.1602
ভিন	-11.1602
▁সম্রাটের	-11.1604
▁সোমবার	-11.1605
▁কানা	-11.1607
▁কমান্ড	-11.1611
▁আমের	-11.1619
ধীন	-11.162
▁স্কট	-11.1622
▁সাইয়	-11.1629
▁পরিবারকে	-11.163
▁বিবার	-11.1635
▁সঙ্গেও	-11.1638
▁গুচ্ছ	-11.1644
▁মাত্রায়	-11.1647
▁কেন্দ্রিক	-11.165
▁হেড	-11.1651
পথ	-11.1651
▁খানম	-11.1654
▁বুদ্ধি	-11.1655
▁মানবদেহে	-11.1657
ঙ্গা	-11.1658
▁পাখা	-11.1659
স্ক	-11.166
েড	-11.1661
চর	-11.1667
▁কুড়ি	-11.1668
▁স্বাভাবিকভাবে	-11.1672
▁ঢেউ	-11.1672
▁রুটটি	-11.1675
লেও	-11.1678
নারা	-11.1678
▁দেশি	-11.1679
▁শোক	-11.1682
▁মনো	-11.1682
▁কিউ	-11.1684
▁সুনামগঞ্জ	-11.1684
৭৩	-11.1685
▁এড	-11.1691
▁জাদু	-11.1693
▁কালাম	-11.1696
▁অঞ্চলটির	-11.1702
▁ভাস্কর্যটি	-11.1705
I	-11.1717
▁ম্যাক্স	-11.1718
▁হান্ট	-11.1718
▁শ্লোকে	-11.1718
▁দীর্ঘস্থায়	-11.1722
▁ছায়াপথ	-11.1722
▁পোল	-11.1724
▁মাই	-11.1726
▁ভয়ে	-11.1726
▁গৃহে	-11.173
▁পিরামিড	-11.1731
▁কর্পোরেশনে	-11.1735
তু	-11.1735
তত্ত্ব	-11.1742
▁কাদা	-11.1744
▁কৃষ্ণা	-11.1745
▁উত্তরাঞ্চলে	-11.1747
▁ফির	-11.1752
▁বারে	-11.1755
▁অগ্র	-11.1756
▁মোহন	-11.1758
▁বাস্তবে	-11.1761
বাহিক	-11.1762
▁ফা	-11.1764
▁ডায়াবেটিস	-11.1769
▁হস্তক্ষেপ	-11.1773
▁কুমির	-11.1775
▁ময়ূরের	-11.1778
▁ইপি	-11.1778
▁দক্ষিণাংশে	-11.1783
▁টানেল	-11.1785
▁লোগো	-11.1787
▁ইতোমধ্যে	-11.1788
▁মুস্তাফা	-11.1788
▁অভিবাস	-11.1791
▁মাইক্রো	-11.1796
▁শহরেই	-11.1798
▁২৮৯	-11.1798
ফটেন্যান্ট	-11.1798
▁লাভে	-11.1799
▁সম্পাদ	-11.18
▁হুগলী	-11.1809
▁নিবেদিতা	-11.1809
ইন	-11.1809
▁প্রচারণা	-11.1815
▁সৃজনশীল	-11.1816
▁হরফে	-11.1817
▁তিল	-11.1818
▁পাঠ্য	-11.1818
▁ইঞ্জিনিয়ার	-11.1819
▁একপর্যায়	-11.1823
▁মহল	-11.1823
▁১৮০০	-11.1824
▁নির্বাহ	-11.1826
▁রাজকুমার	-11.1827
▁স্কোর	-11.1828
▁মিগ	-11.1829
▁কিংস	-11.1831
▁সার্কিট	-11.1833
▁স্টিল	-11.1835
▁রাজপুত	-11.1839
▁ইঁদুর	-11.184
▁পথিকৃৎ	-11.184
▁ফাতেমা	-11.184
▁বিপজ্জনক	-11.184
▁ভাঁজ	-11.184
▁হেলিকপ্টার	-11.184
▁যোরহাট	-11.184
▁চন্দনাইশ	-11.184
▁বৰ্গ	-11.184
▁ধাক্কা	-11.184
▁নেহেরু	-11.184
▁পুনর্নির্মাণ	-11.184
▁রেফারি	-11.184
▁ফার্স্ট	-11.184
▁ক্যামব্রিজ	-11.184
▁ঈষ	-11.184
▁সুবেদার	-11.184
▁ক্রমাগত	-11.184
▁আশ্চর্য	-11.184
▁শাহরুখ	-11.184
▁কুয়াশা	-11.184
▁প্রতাপ	-11.184
▁প্রবক্তা	-11.184
▁বেসামরিক	-11.184
▁সুনীল	-11.184
▁ব্জাং	-11.184
▁হাঙ্গেরী	-11.184
▁কুয়াং	-11.184
▁নেতৃত্বাধীন	-11.184
▁আশঙ্কা	-11.184
▁ব্যায়াম	-11.184
▁টেক্সট	-11.1841
▁মোল্লা	-11.1841
▁সুসজ্জিত	-11.1841
▁উপাচার্য	-11.1841
▁তাসমানিয়া	-11.1841
▁ক্ষতিকর	-11.1841
▁তপস্যা	-11.1841
▁সাময়িকী	-11.1841
▁পয়সা	-11.1841
▁প্রাইভেট	-11.1841
▁শোষণ	-11.1842
▁অস্বীকৃতি	-11.1842
▁মুখ্যমন্ত্রী	-11.1842
▁মাস্টার্স	-11.1842
▁বসবাসকারী	-11.1842
▁শনাক্ত	-11.1842
▁নিকোলাস	-11.1843
▁চণ্ডী	-11.1843
▁প্রতিস্থাপন	-11.1843
▁ভেবে	-11.1844
▁তুষার	-11.1844
▁সেক্রেটারি	-11.1844
▁কৃষিজমি	-11.1844
▁এজেন্ট	-11.1845
▁দৃষ্টিকোণ	-11.1845
▁নড়াইল	-11.1845
▁মেলার	-11.1845
▁মৃত্তিকা	-11.1846
▁বিধবা	-11.1847
▁শিক্ষাগ্রহণ	-11.1847
▁প্রসব	-11.1847
▁ছিটিয়ে	-11.1847
▁কবলে	-11.1848
হ্	-11.1848
▁পরম্পরা	-11.1848
▁২০১৮	-11.1848
▁কেমন	-11.1851
▁হরিণের	-11.1851
▁দেখলে	-11.1852
্যক	-11.1854
▁চেম্বার	-11.1854
▁আর্দ্রতা	-11.1855
▁পড়ছে	-11.1855
▁শিক্ষাব্যবস্থা	-11.1857
▁ব্রাহ্মী	-11.1857
▁সন্তুষ্ট	-11.1862
▁মারে	-11.1862
▁ধ্রুপদী	-11.1862
▁কমাতে	-11.1864
▁উপলব্ধি	-11.1867
▁নবীন	-11.1868
াচার্য	-11.1869
▁নৌবাহিনীতে	-11.1869
▁গোলাপী	-11.1869
▁দেওয়াল	-11.1871
৮৬	-11.1873
▁সপ্তদশ	-11.1874
▁ক্ষতির	-11.1875
▁বিক্ষোভ	-11.1875
▁বলেছে	-11.1876
▁রাত্রি	-11.1878
▁আড়ালে	-11.1879
▁১৭৮	-11.1887
▁পাইপ	-11.1888
▁মার্কো	-11.1888
▁রানার	-11.1889
▁১৬শ	-11.1894
▁মানচিত্র	-11.1895
▁ভু	-11.1896
▁ভক্তদের	-11.19
▁বাক্স	-11.1902
▁২০২	-11.1903
▁ইয়া	-11.1903
▁বাংলাদেশি	-11.1903
▁২২টি	-11.1906
▁যেতো	-11.1906
▁সন্ত	-11.1908
▁উচ্চভূমি	-11.1921
টায়	-11.1923
▁সনদ	-11.1926
▁গ্রহটি	-11.1927
▁১৮৬৫	-11.1928
▁ফোক	-11.1928
▁বাঁশি	-11.1929
▁লারা	-11.1935
▁হাল্ক	-11.1936
তিপ	-11.1943
▁রাষ্ট্রপতির	-11.1949
▁সংগ্রামে	-11.1949
▁উঠেছেন	-11.1953
▁পাল্লা	-11.1956
▁প্রাসাদটি	-11.1957
▁আমল	-11.1959
▁লামার	-11.196
▁ব্যাগ	-11.1961
▁আভ	-11.1968
▁ফিল্মস	-11.1973
▁ভ্রাতা	-11.1977
▁চাইলে	-11.1979
▁রাও	-11.1982
▁সুপ্রি	-11.1984
▁সিলভার	-11.1985
▁স্রষ্টা	-11.1988
▁১২৩	-11.1989
▁ভাটা	-11.199
▁রমণী	-11.199
ভিল	-11.1991
▁মজা	-11.2005
▁শিশুরা	-11.2014
▁অরুণাচল	-11.2016
▁বিপর্যয়	-11.2016
▁সঙ্গ	-11.2018
▁তত্ত্বে	-11.2027
▁পর্তুগাল	-11.203
▁ডাইনোসর	-11.2032
বার্গ	-11.2032
▁ম্যাগাজিনটি	-11.2032
ভেদ	-11.2035
ানুসারে	-11.2036
▁গীতি	-11.2036
▁লাস	-11.2038
▁প্লাস্টিক	-11.2038
▁দর্শকের	-11.2039
▁অধিদপ্তর	-11.2047
কানিয়া	-11.2048
▁পিঠা	-11.2048
▁নুরুল	-11.2054
▁চিকিৎসায়	-11.2055
▁চাঁদি	-11.2055
▁বহি	-11.2057
▁পরলোকগ	-11.2057
▁চলেছিল	-11.2063
▁পাকল	-11.2073
▁আলোকচিত্র	-11.2075
তুল	-11.2076
হারা	-11.2077
▁১৪৩	-11.2077
▁ল্যাব	-11.2086
▁ড্রাগন	-11.2088
▁থ্রি	-11.2088
ফি	-11.209
▁টেলি	-11.2092
▁কোর্সে	-11.2092
▁প্রস্তর	-11.2093
▁কুয়েতে	-11.2099
▁দৈর্ঘ্যের	-11.21
▁রোমে	-11.2106
▁ব্যবহারিক	-11.2106
▁থি	-11.2109
ন্ট	-11.2109
▁উৎ	-11.211
গুলোও	-11.2114
▁পিসি	-11.2122
রকম	-11.2124
▁বীরত্বে	-11.2125
▁দখলের	-11.2129
▁বিলাস	-11.2132
▁শিক্ষকদের	-11.2133
▁তবলা	-11.2133
▁কাব্যটি	-11.2133
▁ভাষণ	-11.2135
▁কোলে	-11.2138
▁গোলার্ধে	-11.2142
▁মরা	-11.2144
৯৪	-11.2145
▁ক্লাসিক	-11.2145
▁ধারাটি	-11.2146
▁অ্যালবামে	-11.2147
মোহর	-11.215
▁প্রক্রিয়াটি	-11.2157
যান	-11.2158
▁মহাবিদ্যালয়ে	-11.216
▁গিরিপথ	-11.2162
য়োগ	-11.2168
জোড়া	-11.2169
▁প্রেক্ষাপট	-11.2173
য়াল	-11.2174
▁তৈমুর	-11.2178
▁গ্রন্থি	-11.2182
▁উত্	-11.2187
শিয়া	-11.2193
ুজ্জামান	-11.2195
▁দেখতেন	-11.2196
▁কেরালা	-11.2211
▁মস্তিষ্কে	-11.2212
▁ধানমন্ডি	-11.2214
▁ঘাড়ে	-11.2216
▁যথাযথ	-11.2221
▁ক্ষার	-11.2224
▁বিষয়শ্রেণী	-11.2231
▁এঁর	-11.2232
▁যাদব	-11.2234
▁পুল	-11.2235
▁ঘটাতে	-11.2235
▁জন্মদিন	-11.2236
▁উল্টো	-11.2236
▁ভাস্কর	-11.2236
▁চেয়েছিল	-11.2237
▁ভারসাম্য	-11.2238
▁লাইনটি	-11.2239
▁অধ্যুষিত	-11.224
▁জরুরী	-11.224
▁পেঙ্গুইন	-11.224
▁পেনাল্টি	-11.224
▁কংক্রিট	-11.224
▁রহনপুর	-11.224
▁পঁচিশ	-11.224
▁মানিকজোড়	-11.224
▁কোলকাতা	-11.224
▁মরদেহ	-11.224
▁ঝোঁক	-11.224
▁কুর্দি	-11.224
▁উকিল	-11.224
▁অত্যধিক	-11.224
▁বিস্ময়কর	-11.224
▁তীক্ষ্ণ	-11.224
রখাস্ত	-11.224
▁পারভেজ	-11.224
▁আচ্ছাদিত	-11.224
▁আলেপ্পো	-11.224
▁হিজরী	-11.224
▁কাঠমান্ডু	-11.224
▁মোনাকো	-11.224
▁বাড়ছে	-11.224
▁অশ্ব	-11.224
▁তীর্থস্থান	-11.224
▁অবিচ্ছেদ্য	-11.224
▁বৈশালী	-11.224
▁শ্রেণীবিভাগ	-11.224
▁অগ্রবর্তী	-11.224
▁আমৃত্যু	-11.224
▁১৮৬১	-11.2241
▁ফার্সী	-11.2241
▁বেকারত্ব	-11.2241
▁দুরত্ব	-11.2241
▁জলাধার	-11.2241
▁সপরিবারে	-11.2241
▁তহবিল	-11.2241
▁বৈষম্য	-11.2241
▁ম্যাজিস্ট্রেট	-11.2241
▁অর্জিত	-11.2241
▁মৃত্যুদন্ড	-11.2241
▁প্রদাহ	-11.2241
▁জুরিখ	-11.2242
▁সিরাজগঞ্জ	-11.2242
▁গোলদাতা	-11.2242
▁জ্বালানি	-11.2242
▁মূলধন	-11.2242
▁চড়ে	-11.2243
▁মিত্রবাহিনী	-11.2243
▁লালবাগ	-11.2243
▁আপেল	-11.2243
▁পুষ্টি	-11.2244
▁সম্পাদন	-11.2244
▁সদ্য	-11.2244
▁অলিভার	-11.2245
▁কোমল	-11.2245
▁স্টাফ	-11.2246
▁অপূর্ব	-11.2247
▁জ্বালানী	-11.2247
▁এসেক্স	-11.2248
▁উন্মোচন	-11.2248
▁লিখা	-11.2249
▁হফেজ	-11.2249
▁গজায়	-11.2249
▁অঞ্চলভেদে	-11.225
▁১৮৯২	-11.225
▁সুমন	-11.2251
▁মূল্যমান	-11.2253
▁দুর্গাপুর	-11.2254
▁ক্রোমোজোমে	-11.2254
▁পরীক্ষামূলক	-11.2254
▁মেইন	-11.2256
▁মাল্টা	-11.2258
▁ডিউক	-11.2259
▁মাদক	-11.226
▁বাঁচে	-11.2261
▁গোবর	-11.2261
▁বিশেষত্ব	-11.2263
▁২৯২	-11.2265
▁বাগদাদে	-11.2265
বাদের	-11.2266
▁নকল	-11.2268
▁মস্তিষ্ক	-11.2269
িয়েট	-11.2275
পাত	-11.2279
▁ঘুড়ি	-11.228
▁কর্মকান্ডে	-11.2281
▁গেলো	-11.2284
▁শেফিল্ড	-11.2293
▁ইস	-11.2293
▁ইতোমধ্যেই	-11.2294
▁শংকর	-11.2295
▁পলাশ	-11.2296
▁অঙ্গরাজ্যে	-11.2297
▁১২৪	-11.2297
▁প্রথমটি	-11.2297
▁প্রমথ	-11.2298
▁শেখে	-11.2299
হিল	-11.23
৮৯	-11.2304
▁খ্রীষ্টাব্দে	-11.2306
▁শ্বাস	-11.2308
সমূহে	-11.231
▁নান	-11.2311
c	-11.2312
▁গণমাধ্যমে	-11.2314
উল	-11.2316
▁শাসনকালে	-11.2317
▁সুবর্ণ	-11.2317
পার	-11.2318
▁ঐদিন	-11.2318
▁দলগত	-11.232
▁কৃষকদের	-11.2321
▁মাইক	-11.2321
▁বইটা	-11.2325
▁জলীয়	-11.2328
▁স্ট্রাইকার	-11.233
▁পাটি	-11.2335
▁পিট	-11.2337
▁ট্রাস্ট	-11.2344
▁চিত্রগ্রহণ	-11.2346
▁অববাহিকায়	-11.2348
▁শেষভাগে	-11.2353
সূচিত	-11.2354
সিস	-11.2356
▁পাঞ্জাবে	-11.2357
▁চলচ্চিত্রটিতে	-11.2358
▁১৮৩	-11.236
▁w	-11.2362
▁সিয়া	-11.2366
▁ছেলেকে	-11.2366
▁দুর	-11.2368
জু	-11.2368
▁দই	-11.2372
▁রাস্তাটা	-11.2376
গিরি	-11.2376
▁অঞ্চলগুলি	-11.2377
▁তীর্থঙ্কর	-11.2377
▁মুনি	-11.2378
▁প্রতিফলন	-11.2379
▁ইভেন্ট	-11.238
িনের	-11.2381
▁১২২	-11.2386
▁অনুরোধে	-11.2388
জের	-11.239
গুলোয়	-11.239
▁কুশ	-11.2391
▁নানাভাবে	-11.2394
▁দর্শনে	-11.2395
▁দেবতাদের	-11.2398
▁মন্ডল	-11.2403
▁সমন্বয়	-11.2405
দলীয়	-11.2405
▁জুটিতে	-11.2406
সালে	-11.2408
▁ঘূর্ণিঝড়	-11.2409
▁পপ	-11.2412
▁অপহরণ	-11.2415
▁মাইনর	-11.2415
▁স্টাইল	-11.2416
▁গোলক	-11.242
শ্বাস	-11.2422
▁আয়তনে	-11.2422
▁তোর	-11.2424
▁আগ্রা	-11.2425
▁বরাক	-11.2431
▁গুটিয়	-11.2432
▁জান	-11.2433
▁শ্রীলঙ্কায়	-11.2438
▁নাগর	-11.2439
▁মহারাজ	-11.2441
▁বার্লিনে	-11.2447
▁সৈকতে	-11.2448
ine	-11.2457
▁আয়ারল্যান্ডে	-11.2458
▁মিন	-11.2467
▁বর্ষাকাল	-11.2468
▁সংগ্রহে	-11.2471
▁কাপড়ের	-11.2472
▁সংস্করণের	-11.2473
▁নার্স	-11.2475
▁মাছটি	-11.2477
▁পশ্চিমাঞ্চলে	-11.2484
▁মোজা	-11.2485
▁খ্রিষ্ট	-11.2488
▁পশুর	-11.2492
▁প্রজন্মের	-11.2492
▁জাতীয়তাবাদ	-11.2496
▁সিনেট	-11.2497
ফল	-11.2502
▁সময়কার	-11.2509
▁প্রাচীনকাল	-11.2521
হো	-11.2521
▁উজির	-11.2527
টিং	-11.2529
▁সেরে	-11.253
মূর্তি	-11.2531
পে	-11.2538
▁চিকন	-11.2544
▁২৮০	-11.2548
▁এরমধ্যে	-11.2548
মতি	-11.2548
▁কবিদের	-11.2548
▁রেলপথে	-11.2557
▁ফেল	-11.2561
▁উজানে	-11.2566
▁মহাদেশে	-11.2572
▁আর্টস	-11.2575
▁হিজরত	-11.2578
▁আদালতের	-11.2579
▁বসত	-11.2579
▁এলবাম	-11.2581
▁শিয়ালদ	-11.2584
▁বিলি	-11.2586
▁হাইস্কুল	-11.2587
চাঁদ	-11.2588
▁সূরার	-11.2588
▁ঘোর	-11.259
▁উত্ত	-11.2593
▁মিলিটারি	-11.2594
▁আঘাতপ্রাপ্ত	-11.2596
▁জ্যোতির্বিজ্ঞান	-11.2598
▁বাবুই	-11.2611
▁১৪৭	-11.2612
▁সমাস	-11.2613
▁রু	-11.2614
▁ঐতিহ্যের	-11.2615
▁পিলার	-11.2618
▁অধিকারে	-11.2619
▁শিক্ষায়	-11.2619
▁সত্যাগ্রহ	-11.2623
▁টেলিফিল্ম	-11.2625
▁অ্যাওয়ার্ড	-11.2627
▁ভূমিকম্পে	-11.2627
▁মগধ	-11.2629
▁দারিদ্র্য	-11.2629
▁ময়দা	-11.263
▁সভ্য	-11.263
▁যতীন	-11.2632
বারের	-11.2632
▁অংশীদার	-11.264
▁রিড	-11.264
▁স্কি	-11.2641
▁দিচ্ছে	-11.2643
▁বোল্ড	-11.2644
▁করছি	-11.2645
▁হাশিম	-11.2648
▁সাথী	-11.2648
▁শোভা	-11.265
▁গ্রিস	-11.265
▁ঝাড়খন্ড	-11.2651
▁ঝর্ণা	-11.2651
▁বিকৃত	-11.2652
▁আবদ	-11.2652
▁ক্লাসে	-11.2652
কীর্ণ	-11.2654
▁নৈতিক	-11.2655
▁নেপচুন	-11.2656
▁প্যাপিলিওনি	-11.2656
▁উত্তরসূরি	-11.2656
▁গঙ্গোপাধ্যায়	-11.2656
▁গোলাবারুদ	-11.2656
▁ধূমাবতী	-11.2656
▁নেতিবাচক	-11.2656
▁শিলিগুড়ি	-11.2656
▁নাইট্রোজেন	-11.2656
▁মৃণাল	-11.2656
▁পলায়ন	-11.2656
▁অতর্কিত	-11.2656
▁শ্যামপুকুর	-11.2656
▁লাটভিয়া	-11.2656
▁কর্মসংস্থান	-11.2656
▁দিলীপ	-11.2656
▁রবীন্দ্রসংগীত	-11.2656
▁তুষারপাত	-11.2656
▁সংগঠক	-11.2656
▁দ্পাল	-11.2656
▁ওয়েস্টার্ন	-11.2656
▁আইসল্যান্ড	-11.2657
▁সিয়েরা	-11.2657
▁নথিভুক্ত	-11.2657
▁উইলসন	-11.2657
▁গোলরক্ষক	-11.2657
▁স্পিকার	-11.2657
▁মিশনারি	-11.2657
▁সুখ্যাতি	-11.2657
▁মঞ্চস্থ	-11.2658
▁সাহিত্যচর্চা	-11.2658
▁সঙ্গীতশিল্পী	-11.2658
▁ডেন	-11.2658
▁নির্বাণ	-11.2658
▁যুগ্ম	-11.2658
▁নানারকম	-11.2659
▁ঘনমিটার	-11.2659
▁নানাবিধ	-11.2659
▁সীমান্তবর্তী	-11.2659
▁মরু	-11.2659
▁বুঝে	-11.266
▁প্রবর্তক	-11.2661
▁সিনা	-11.2662
▁মূলনীতি	-11.2662
▁বকুল	-11.2662
▁নিবিড়	-11.2663
▁অ্যাসিড	-11.2664
▁সিদ্দিকী	-11.2664
▁আরেকজন	-11.2664
▁বর্গমিটার	-11.2665
▁ধ্বংসপ্রাপ্ত	-11.2665
▁পেটেন্ট	-11.2666
▁পারতো	-11.2667
▁উপগোত্রে	-11.2668
▁এট	-11.2669
▁কিপার	-11.2669
▁সাহারা	-11.267
▁বিরক্ত	-11.2671
▁কিডনি	-11.2672
▁ছাদে	-11.2672
▁স্কাই	-11.2672
▁অলংকরণ	-11.2673
▁ফাঁকা	-11.2673
▁ঘোষাল	-11.2673
▁ছুট	-11.2677
াইড	-11.2677
▁ফিচার	-11.2679
▁লিখন	-11.2681
▁শিখেন	-11.2682
▁পদার্থবিজ্ঞানী	-11.2683
▁পড়লেন	-11.2683
▁খিদ	-11.2685
▁দেবেন	-11.2685
▁ম্যাগাজিনে	-11.2687
▁যশ	-11.2687
▁সুইং	-11.2694
ক্রম	-11.2695
▁অপরিবর্তিত	-11.2696
▁গণতন্ত্র	-11.2697
শুতোষ	-11.27
▁প্রত্যেকেই	-11.2701
হুরে	-11.2703
▁২১টি	-11.2703
▁স্নেহ	-11.2707
▁আধান	-11.2708
খ্রিস্টপূর্বাব্দ	-11.2708
▁গাজন	-11.2709
ছাড়া	-11.271
এসডি	-11.271
▁দত্তক	-11.2711
▁ভূটান	-11.2712
▁খা	-11.2712
▁সনি	-11.2712
▁পটি	-11.2713
▁সিরিয়ান	-11.2721
িয়ন	-11.2722
▁পটল	-11.2735
▁প্রাপ্তি	-11.2735
▁উত্তরাংশে	-11.2736
ক্ষেত্র	-11.2736
শত	-11.2738
▁ডাব	-11.2739
টাকে	-11.274
পাদ	-11.2742
▁প্লেটো	-11.2742
▁২৫টি	-11.2743
▁ভ্যালি	-11.2745
কট	-11.2745
▁কারখানায়	-11.2746
▁ছন্দে	-11.2749
▁নগরীতে	-11.2751
▁রেডিওতে	-11.2753
▁এনজাইম	-11.2754
▁বললে	-11.2758
িটি	-11.2761
▁বজ্র	-11.2765
▁১৫৫	-11.2767
ছুটে	-11.2768
জীবী	-11.277
ক্ষেত্রে	-11.2772
বাস	-11.2774
▁সেলাই	-11.2779
থা	-11.2779
▁হাতির	-11.2782
▁১৯২	-11.2782
▁লেনের	-11.2784
▁পার্থ	-11.2788
▁একাদশের	-11.2789
▁রানা	-11.2791
▁বাকিরা	-11.2791
▁ধনুক	-11.2796
পূর্ব	-11.2798
▁খু	-11.2799
▁ভাইবোন	-11.281
▁নিস	-11.2811
aceae	-11.2812
▁মাধব	-11.2813
▁অ্যাড	-11.2815
▁চারিদিকে	-11.2817
▁কুয়েত	-11.2828
▁ব্যাপী	-11.2832
▁দুররানি	-11.2834
▁দেখি	-11.2841
▁তলার	-11.2841
▁চেতনা	-11.2842
▁১৩১	-11.2843
▁বিমানটি	-11.2844
▁উদর	-11.2845
▁বিস্ফোর	-11.2851
▁হোস্টেল	-11.2854
▁সার্ভিসে	-11.2854
ধ	-11.2855
▁বাঁক	-11.286
▁লেখিকা	-11.2861
▁প্রতিরোধের	-11.2861
▁কলিম	-11.2868
িদের	-11.2874
জীবন	-11.2875
▁আশ্রমে	-11.2876
▁সাইট	-11.2876
▁১১৬	-11.2879
ফু	-11.2882
▁বস্তুত	-11.2883
▁ত্শ	-11.2886
▁সোম	-11.2888
▁টালি	-11.2891
▁১৭৭	-11.2891
▁গর্জ	-11.2893
▁জিউস	-11.2899
▁ফিজি	-11.29
▁গ্রন্থাগারে	-11.291
খালি	-11.2911
▁সংস্থায়	-11.2912
▁সংবিধানে	-11.2916
মন্ডল	-11.2921
▁সুতা	-11.2925
▁বিপদে	-11.2931
▁ঘটিয়ে	-11.2932
▁d	-11.2938
াজ	-11.2941
▁গর্ভ	-11.2944
▁শিল্পীর	-11.2945
▁পরিচালকের	-11.2946
▁হজ	-11.2947
▁গুড	-11.2948
▁ম্যারি	-11.2952
▁সম্মিলন	-11.2954
কুল	-11.2958
লং	-11.2962
▁সিলেটে	-11.2962
▁বোল	-11.2963
▁১৫৬	-11.2963
োয়িং	-11.2964
▁com	-11.2966
৬২	-11.2966
▁বাসভবন	-11.2966
ধারা	-11.2968
▁অভিষেকে	-11.2968
▁নকশায়	-11.2972
▁১৭৯	-11.2979
▁জ্বল	-11.2984
▁দেও	-11.2987
▁পরিণতি	-11.2988
▁যায়না	-11.299
▁সেতার	-11.299
▁তারিক	-11.2993
▁ডলারের	-11.2998
▁বেস্ট	-11.3002
▁হত্যাকাণ্ড	-11.3004
▁সিন	-11.3004
▁আশপাশে	-11.3007
▁পোষা	-11.301
▁তফসিল	-11.301
▁কাট	-11.3011
▁পরেন	-11.3013
বিরোধী	-11.3015
▁উইল	-11.3015
▁শহরগুলো	-11.3017
সান	-11.302
▁প্রেক্ষাগৃহে	-11.302
চৌ	-11.3021
▁২৫০০	-11.303
মণ্ডল	-11.303
▁নারীরা	-11.3038
▁ভূখণ্ড	-11.304
▁ঊর্ধ্ব	-11.3044
▁ফয়সালের	-11.3046
▁শখ	-11.3047
▁সানি	-11.3048
১৫	-11.305
▁ঢাক	-11.3051
▁গ্যাসের	-11.3054
▁সৈয়দপুর	-11.3054
▁শ্যাম	-11.3058
▁নীলফামারী	-11.306
▁১৯১	-11.3061
▁ভিয়েনা	-11.3063
▁ফেব্রুয়ারী	-11.3065
▁মহাদেব	-11.3067
▁সামন্ত	-11.3068
নির্মিত	-11.3071
ওয়ার্ড	-11.3074
▁মানুষেরা	-11.3074
▁নগরে	-11.3077
▁ঈগল	-11.3079
▁সূক্ষ্ম	-11.3079
▁দ্রবণ	-11.3084
▁অভ্যাস	-11.3086
▁গার্ল	-11.3087
▁তাজ	-11.3088
▁লেফট	-11.3088
▁শিক্ষার্থীর	-11.3088
▁লেডি	-11.3088
▁সৌভাগ্য	-11.3091
▁প্রত্নতত্ত্ব	-11.3091
▁আওরঙ্গজেব	-11.3091
▁গ্র্যাজুয়েট	-11.3091
▁পলিটেকনিক	-11.3091
▁ভীষ্ম	-11.3091
▁মৌখিক	-11.3091
▁শওকত	-11.3091
▁poem	-11.3091
▁গহনা	-11.3091
▁চর্বি	-11.3091
▁বচ্চন	-11.3091
▁ঝগড়া	-11.3091
▁ব্যাচেলর	-11.3091
▁বিবাহবিচ্ছেদ	-11.3091
▁লিনাক্স	-11.3091
▁মুদ্রণ	-11.3091
▁লাগবে	-11.3091
▁ত্রুটি	-11.3091
▁সর্বশ্রেষ্ঠ	-11.3091
▁অগ্রগতি	-11.3091
▁চেপে	-11.3091
▁সুলাইমান	-11.3091
▁মৌলভীবাজার	-11.3091
▁চাইনিজ	-11.3091
▁ধারাভাষ্যকার	-11.3092
▁সামর্থ্য	-11.3092
▁অদৃশ্য	-11.3092
▁ভোকাল	-11.3092
▁দৃশ্যায়ণ	-11.3092
▁দ্বিগুণ	-11.3092
▁ইলিয়াস	-11.3092
▁আমাজন	-11.3092
▁মেশিনগান	-11.3092
▁ধারণক্ষমতা	-11.3092
▁থমাস	-11.3093
▁চিত্রকলা	-11.3093
▁অন্নপূর্ণা	-11.3093
▁লাজুক	-11.3093
▁গ্রাহাম	-11.3093
▁রাজীব	-11.3093
▁বাহ্যিক	-11.3093
▁উদ্দেশে	-11.3093
▁আগাছা	-11.3093
▁ধাবিত	-11.3093
▁শৈবাল	-11.3093
▁সর্দার	-11.3093
▁মসলা	-11.3094
▁পান্না	-11.3094
▁মমতা	-11.3094
▁অভিভাবক	-11.3094
▁মেট্রোপলিটন	-11.3095
▁ঈমান	-11.3095
▁ক্ষত্রিয়	-11.3096
▁খোদিত	-11.3096
▁গ্লাস	-11.3096
▁গবেষণাপত্র	-11.3096
▁সিস্টেমে	-11.3097
▁রাখাইন	-11.3097
▁পেরেছেন	-11.3098
▁ফিল	-11.3098
▁হুদা	-11.3098
থে	-11.3098
▁বিন্যস্ত	-11.3099
▁চিত্রশিল্পী	-11.3099
▁ধরেছেন	-11.31
ধর্ম	-11.31
▁সংজ্ঞায়িত	-11.31
▁সিকান্দার	-11.3101
▁পচা	-11.3102
▁তিথিতে	-11.3102
▁সেক্ষেত্রে	-11.3103
▁পৃষ্ঠীয়	-11.3104
▁প্রতিদ্বন্দ্বী	-11.3105
▁হ্যারিসন	-11.3106
▁উইংয়ে	-11.3106
▁ফিকহ	-11.3107
▁লেখ	-11.3107
▁ত্রয়ী	-11.3109
▁সাময়িকভাবে	-11.311
ছিলাম	-11.3111
▁রহমত	-11.3111
▁আংশিকভাবে	-11.3111
▁বুলগেরিয়া	-11.3112
▁শেষোক্ত	-11.3112
▁পোলো	-11.3113
▁ব্লাক	-11.3114
▁গতিবেগ	-11.3115
▁এএফসি	-11.3117
ফোর্ট	-11.3117
▁১১৪	-11.3117
▁উৎসর্গিত	-11.3118
▁প্রবাদ	-11.312
▁একরকম	-11.3121
▁ততদিন	-11.3121
▁প্রান্তিক	-11.3122
▁ইং	-11.3122
▁ফিরোজ	-11.3126
প্লব	-11.3126
▁২০শ	-11.3127
▁রাশিয়ান	-11.313
▁ব্রাজিলীয়	-11.3133
▁এব	-11.3133
▁নিম্নভূমি	-11.3134
▁ব্রি	-11.3135
▁একেকটি	-11.3139
▁ইউরেশিয়া	-11.3139
▁আমীর	-11.314
▁পারত	-11.3141
▁রাই	-11.3148
▁আরাকান	-11.3151
▁জামান	-11.3152
▁চলেছেন	-11.3152
▁ব্লো	-11.3152
▁ভক্তরা	-11.3152
ৌ	-11.3155
▁মস্কোতে	-11.3155
▁সম্প্রদায়ে	-11.3157
▁হংকংয়ে	-11.3159
▁হাওয়া	-11.3161
▁প্লাটফর্ম	-11.3164
১৪	-11.3165
A	-11.3168
▁সর্প	-11.3168
▁দুপুরে	-11.317
▁কারুকার্য	-11.3173
▁চেঁচা	-11.3173
▁মজুদ	-11.3176
▁প্রস্তাবনা	-11.3178
জেন	-11.3181
▁পাঞ্জাবী	-11.3181
▁গেজেট	-11.3185
▁আদা	-11.3185
করা	-11.3188
▁১০৯	-11.3194
▁ইটন	-11.3194
▁কিশোরী	-11.3195
▁গোড়ায়	-11.3197
▁টেক	-11.3197
▁কাটায়	-11.3198
▁জিয়ান	-11.3198
ানি	-11.3206
যে	-11.3207
▁পশ্চিমাংশে	-11.3209
▁মহেন্দ্র	-11.3209
▁ইংরেজরা	-11.321
▁ধীর	-11.3224
▁পাশ্চাত্যে	-11.3226
▁বিনিময়	-11.3231
▁ভক্তের	-11.3232
▁সমর্থনে	-11.3234
▁ঘড়ি	-11.3237
▁ঋতুতে	-11.3241
▁পাম	-11.3243
▁কবরস্থান	-11.3244
▁অন্ধকারে	-11.3252
▁সুদান	-11.3254
ংগঠন	-11.3254
▁ইউনিভার্সিটিতে	-11.3256
▁গড়ন	-11.3257
▁শায়ে	-11.3259
শালী	-11.326
▁কিড	-11.3261
লোক	-11.3266
চার	-11.3271
▁সাংসদ	-11.3275
▁১২৮	-11.3276
▁সিসিলি	-11.3276
▁পাঞ্চে	-11.3276
▁করন	-11.3281
▁দিব্য	-11.3282
▁ঝাঁক	-11.3285
নাশক	-11.3287
▁নাটাল	-11.3288
▁নাচতে	-11.3291
খানি	-11.3296
মোর	-11.3298
িয়াস	-11.3303
▁বাঘা	-11.3307
ন্ন	-11.3312
▁প্রথমার্ধে	-11.3314
▁২১০	-11.3314
বন্ত	-11.3316
▁কোয়ান্টা	-11.3317
▁ফন্ট	-11.3319
T	-11.332
▁নাকি	-11.3321
▁পর্তুগালে	-11.3325
▁মাঝি	-11.3326
▁আয়োজনে	-11.3328
ার্থে	-11.333
▁সবকটি	-11.3333
▁ভে	-11.3339
▁যৌনতা	-11.3348
▁১৪৬	-11.3348
েলেগু	-11.3354
▁মধ্যপ্রাচ্যে	-11.3356
▁কাঠি	-11.3357
▁আরবিতে	-11.3363
দেশ	-11.3366
▁জমান	-11.3373
▁রেজিমেন্টে	-11.3374
▁বহিঃ	-11.3374
▁টুকরা	-11.3376
সাল	-11.3378
▁নট	-11.3383
▁অধি	-11.3385
কুয়া	-11.3386
▁নিজেদেরকে	-11.3386
▁কেলি	-11.3391
▁রিয়াদ	-11.3394
▁জড়	-11.3398
▁ইউটিউবে	-11.34
▁গোসল	-11.3402
▁কৈশোর	-11.3405
▁বিতাড়	-11.3406
▁এসোসিয়েশন	-11.3411
▁২৯৩	-11.3419
াবলী	-11.342
▁মুভি	-11.3421
▁একান্ত	-11.3422
গুণ	-11.3429
▁দ্রাঘিমাংশে	-11.3432
ঠা	-11.3434
▁গড়প	-11.3437
▁সঞ্চালন	-11.3437
▁স্তুপ	-11.3444
▁ক্যান্টনমেন্ট	-11.3445
▁শাস্ত্রে	-11.3452
▁কোথা	-11.3452
▁আর্ক	-11.3457
▁বিক্রির	-11.3457
▁লাগল	-11.346
▁করিতে	-11.3469
▁0	-11.347
▁সেটিকে	-11.3475
ংশ	-11.3478
▁উগ্র	-11.3478
ীক	-11.348
▁জান্নাত	-11.3484
▁১৬৮	-11.3487
▁তরুন	-11.3487
▁চিক	-11.349
▁রেস	-11.3494
▁প্রণয়	-11.3494
▁আরবে	-11.3496
▁রুটে	-11.3498
োফার	-11.35
▁শীল	-11.3501
▁জানত	-11.3502
▁নাথ	-11.3505
▁খাঁজ	-11.3505
শিয়ান	-11.3507
▁মূর্তিতে	-11.351
▁উত্তেজনা	-11.3512
▁ওয়াল	-11.3512
মো	-11.3514
▁দৃষ্টিভঙ্গি	-11.3517
▁গি	-11.3517
▁ভূত	-11.352
দেরকে	-11.3526
▁জয়া	-11.3527
▁স্থিতিশীল	-11.3527
▁ভারতবর্ষ	-11.3529
▁প্লট	-11.3537
▁ঐতিহ্যগত	-11.3538
▁কাটার	-11.3542
কার্য	-11.3543
▁টাইটান	-11.3543
▁টাইগার	-11.3543
▁যাচ্ছিল	-11.3545
▁পুণ্ড্র	-11.3546
▁রপ্তানী	-11.3546
▁http	-11.3546
▁অসন্তোষ	-11.3546
▁কিংবদন্তী	-11.3546
▁ক্যামেরুন	-11.3546
▁খুতবা	-11.3546
▁পর্তুগীজ	-11.3546
▁পারস্পরিক	-11.3546
▁যজুর্বেদ	-11.3546
▁শেকসপিয়র	-11.3546
▁সরিষা	-11.3546
▁স্টুয়ার্ট	-11.3546
▁অনিরুদ্ধ	-11.3546
▁জোড়াসাঁকো	-11.3546
▁যক্ষ্মা	-11.3546
▁ব্যাকটেরিয়া	-11.3546
▁ক্যালসিয়াম	-11.3546
▁গুরুত্বপূর্ন	-11.3546
▁ঠাণ্ডা	-11.3546
▁গোড়াপত্তন	-11.3546
▁রমজান	-11.3546
▁লার্ভা	-11.3546
▁বর্ষপঞ্জী	-11.3546
▁শাইখ	-11.3546
▁স্ট্যানফোর্ড	-11.3546
▁মুখোশ	-11.3546
▁রিভিউ	-11.3546
▁মোঘল	-11.3546
▁অগস্ট	-11.3546
▁ইনজুরি	-11.3546
▁শরাফী	-11.3546
▁ব্রহ্মাণ্ড	-11.3546
▁নিকোবর	-11.3546
▁বিলুপ্তপ্রায়	-11.3546
▁রচনাবলী	-11.3546
▁কন্যাসন্তান	-11.3546
▁হরতাল	-11.3546
▁আনিমে	-11.3546
▁তেলের	-11.3546
▁তালুকদার	-11.3546
▁স্বাদু	-11.3547
▁মর্টার	-11.3547
▁হিলিয়াম	-11.3547
▁বেচে	-11.3547
▁সর্বজনীন	-11.3547
▁ফাল্গুন	-11.3547
▁বন্দোবস্ত	-11.3547
▁সুবিধাজনক	-11.3547
▁ফরেস্ট	-11.3547
▁নাও	-11.3548
▁ঐক্যবদ্ধ	-11.3548
▁ভাগলপুর	-11.3548
▁শায়িত	-11.3549
▁ইয়ং	-11.3549
▁জানিয়ে	-11.3549
▁সাবিনা	-11.3549
ড়তা	-11.3549
▁দীক্ষিত	-11.3551
▁মুরগী	-11.3551
▁১৮৬৭	-11.3551
▁বণ্টন	-11.3551
▁এড়াতে	-11.3551
▁জোন্স	-11.3552
▁খ্যাতিমান	-11.3552
▁রাসুল	-11.3553
▁বানাতে	-11.3553
▁খেলেছিলেন	-11.3554
▁লাইফ	-11.3554
▁হাসিনা	-11.3554
▁অধ্যয়নরত	-11.3556
▁কলেরা	-11.3556
▁ত্রিপুরার	-11.3556
▁বঞ্চিত	-11.3557
▁সারাংশ	-11.3557
▁অতুল	-11.3558
▁১৪৪	-11.3559
▁লেভেল	-11.356
▁ধর্মপাল	-11.3561
▁মাখন	-11.3561
▁মালদা	-11.3563
▁নির্মাণকার্য	-11.3563
▁সত্তা	-11.3563
▁ব্যানারে	-11.3564
▁অমৃত	-11.3566
▁বিশপ	-11.3567
▁রন	-11.3569
▁সংকর	-11.357
▁কাপুরের	-11.357
রেই	-11.3571
▁খেলাগুলো	-11.3573
▁গর্ভাবস্থা	-11.3574
▁তেজগাঁও	-11.3575
▁১১২	-11.3576
▁গুজরাত	-11.3576
াঙ্গ	-11.3576
▁চায়না	-11.3576
▁সুখী	-11.3576
▁আনুমা	-11.3578
▁দুনিয়া	-11.3578
▁বৃহস্পতি	-11.358
▁করিয়ে	-11.3581
▁যুগল	-11.3582
রাই	-11.3583
▁এসিসি	-11.3583
▁কাব্যে	-11.3583
▁সিরি	-11.3584
▁২৯৭	-11.3585
▁ওয়াইন	-11.3587
▁ফিতা	-11.3587
▁নদিয়া	-11.3587
▁বানু	-11.3589
ইয়া	-11.3593
▁লিওন	-11.3594
▁রাজপরিবারের	-11.3595
▁বাকু	-11.3597
▁নাহার	-11.3599
▁ম্যা	-11.3602
▁২৭০	-11.3603
▁পরিবেশনা	-11.3604
▁বিভাগসমূহ	-11.3604
▁চিনির	-11.3605
▁স্বর্গে	-11.3607
▁ক্ল	-11.3608
ীয়মান	-11.3609
▁পুনর্গঠন	-11.3609
▁আক্রমণকারী	-11.3612
▁ফোর্ড	-11.3612
▁ভারি	-11.3614
▁অনাথ	-11.3617
▁ঠ	-11.3618
▁তালে	-11.3621
▁লাফিয়ে	-11.3622
▁ডাকাত	-11.3623
নেস	-11.3625
▁বামন	-11.3626
▁ট্রেড	-11.3626
▁স্তোত্র	-11.3626
ভাব	-11.3628
ব্য	-11.3629
▁কলি	-11.3632
▁মৃত্যুকাল	-11.3635
▁রাজু	-11.3636
▁কতগুলো	-11.3638
▁সময়সীমা	-11.364
▁বুশ	-11.364
▁ডিসি	-11.364
▁মঠের	-11.3643
▁আত্র	-11.3643
▁পৌঁছ	-11.3646
▁ক্ষত	-11.365
▁রোদে	-11.3652
▁লিগে	-11.3653
▁কমল	-11.3654
▁ছেন	-11.3663
মতী	-11.3663
▁নাগরিকদের	-11.3672
▁পাতি	-11.3673
▁জাতিসংঘে	-11.3676
▁ঢালু	-11.3677
মণি	-11.368
▁সানা	-11.3681
▁কানের	-11.3684
▁ফো	-11.3688
▁নেননি	-11.369
▁বদ্ধ	-11.3691
বাবু	-11.3694
বন্ধনে	-11.3703
▁তরফ	-11.3705
▁ভাষাও	-11.3705
▁এয়ারপোর্ট	-11.3706
▁রহ	-11.3706
▁অধিবেশন	-11.3707
▁নাড়া	-11.3709
▁চিনতে	-11.3713
▁হামলায়	-11.3719
▁দায়	-11.3723
▁বার্জ	-11.3724
▁চো	-11.3726
▁শিবিরে	-11.3735
▁লাউ	-11.3739
▁বায়ুর	-11.3741
▁ভুবন	-11.3742
▁ইলা	-11.3745
▁হাইকোর্ট	-11.3749
▁পশ্চাদপসরণ	-11.3756
▁ভাইস	-11.3757
an	-11.376
▁নব্য	-11.3768
▁উত্তরবঙ্গ	-11.377
▁ক্রিক	-11.377
হেলা	-11.3773
▁পরিসর	-11.3774
সেট	-11.3775
▁বালু	-11.3779
▁তত্ত্বটি	-11.3782
▁চক্রের	-11.3786
▁উত্তরবঙ্গে	-11.3792
▁পথি	-11.3798
▁গভর্ন	-11.38
ানী	-11.3801
সাইড	-11.3802
▁ধলা	-11.3802
▁স্টিফেন	-11.3808
মাল	-11.3809
▁গাব	-11.3809
▁এলাকাতে	-11.3821
▁বানিয়ে	-11.3821
▁কালা	-11.3821
▁ওয়াকার	-11.3829
▁কলোনি	-11.3831
▁প্যান্ট	-11.3834
▁ত্রিনিদাদ	-11.3838
▁নির্	-11.3842
▁চারদিক	-11.3842
▁ক্যারিয়ারে	-11.3842
▁১২১	-11.3845
▁জিপ	-11.3845
▁পর্যায়ক্রম	-11.3849
▁ফ্রেম	-11.3853
▁বঙ্গাব্দে	-11.3857
▁দেখিয়ে	-11.3863
ফোর্ড	-11.3864
▁স্যান	-11.3867
কথা	-11.3869
ঘাত	-11.387
▁ব্রাহ্ম	-11.3871
▁তলদেশ	-11.3872
▁বিবৃতি	-11.3879
▁ঘটত	-11.3879
▁অণুপ	-11.388
▁কোয়া	-11.3884
৮৭	-11.3885
▁এককালে	-11.3888
▁বঙ্গোপসাগরে	-11.3889
িনি	-11.3889
▁বাদল	-11.3891
বেন	-11.3893
▁পুরুষেরা	-11.3895
▁গানগুলি	-11.3902
▁মানতে	-11.3906
ডন	-11.3906
▁অনুপস্থিতি	-11.3908
▁বাহার	-11.3909
য়ো	-11.3909
▁সমারসেট	-11.3917
▁প্রজাতন্ত্রে	-11.392
▁ভাঙ্গা	-11.3922
▁জ্বালা	-11.3924
স্টেট	-11.3924
বর্গ	-11.393
▁জেরুজালেম	-11.3932
মূল্য	-11.3932
ৈ	-11.3937
▁পৌছা	-11.3938
কূল	-11.394
▁চিল	-11.3941
▁পুরান	-11.3943
ঠালো	-11.3944
S	-11.3944
মফ্যাল	-11.3948
▁ভুমি	-11.3949
নীতি	-11.3949
▁যথার্থ	-11.3953
▁রাসূল	-11.3954
▁রানি	-11.3955
এব	-11.3955
▁প্রথার	-11.3956
বেল	-11.3957
কচি	-11.3958
▁দেশেই	-11.3961
▁খলিফার	-11.3966
▁কটি	-11.3969
▁১৮শ	-11.397
▁আবি	-11.3972
▁বাহিরে	-11.3972
▁বিক্রিত	-11.3975
▁৬৫০	-11.3975
b	-11.3976
▁জায়গাতে	-11.3976
▁জানুয়ারী	-11.3979
▁৪০টি	-11.3982
▁নিয়ত	-11.3983
▁কাঁচ	-11.3984
দিনের	-11.3994
▁জলপাইগুড়ি	-11.3995
বন	-11.3998
ফোন	-11.4002
রঞ্জন	-11.4003
▁সংযোজ	-11.4003
রু	-11.4004
▁প্রথমদিক	-11.4009
▁ঝোল	-11.4009
▁পুণঃ	-11.4013
▁মীরা	-11.4015
▁গীতা	-11.4016
▁২৮৪	-11.4017
▁ফরজ	-11.4017
▁ত্রিভুজ	-11.4018
▁শরৎ	-11.4019
▁লঞ্চ	-11.402
▁মৎস	-11.4021
▁সঞ্চয়	-11.4021
▁onlyinclude	-11.4022
▁অনিশ্চিত	-11.4022
▁আসানসোল	-11.4022
▁ইখওয়ান	-11.4022
▁টেরাকোটা	-11.4022
▁দ্রাবিড়	-11.4022
▁পর্যালোচনা	-11.4022
▁প্রতিশোধ	-11.4022
▁বনমোরগ	-11.4022
▁বাল্মীকি	-11.4022
▁মরহুম	-11.4022
▁মিষ্টান্ন	-11.4022
▁যীশু	-11.4022
▁রৌদ্র	-11.4022
▁স্নেইপ	-11.4022
▁ইংরাজি	-11.4022
▁গাঙ্গুলী	-11.4022
▁ওতাগো	-11.4022
▁কার্যকারিতা	-11.4022
▁চমকপ্রদ	-11.4022
▁হিব্রু	-11.4022
▁CST	-11.4022
▁কমবেশি	-11.4022
▁ফটিকছড়ি	-11.4022
▁উত্তপ্ত	-11.4022
▁কারাদন্ড	-11.4022
▁ততোধিক	-11.4022
▁তদারক	-11.4022
▁গ্রানাইট	-11.4022
▁ভবিষ্যৎ	-11.4022
▁থোকা	-11.4022
▁করিডর	-11.4022
▁জম্মু	-11.4022
▁ছোটখাট	-11.4022
▁নওয়াব	-11.4022
▁মসলিন	-11.4022
▁স্কয়ার	-11.4022
▁বৃহদাকার	-11.4022
▁দরবেশ	-11.4023
▁ইয়াকুব	-11.4023
▁প্রতিস্থাপিত	-11.4023
▁নাযিল	-11.4023
▁প্রিন্সটন	-11.4023
▁অঞ্জন	-11.4023
▁স্ট্রিং	-11.4023
▁মেন্ডেট	-11.4023
▁আকরাম	-11.4023
▁সাহাবী	-11.4023
▁রিকশা	-11.4023
▁প্রদক্ষিণ	-11.4024
▁মোহনবাগান	-11.4024
▁প্রতিশ্রুতি	-11.4024
▁যন্ত্রাংশ	-11.4024
▁ছোঁয়া	-11.4024
▁ঢোল	-11.4024
▁মগ	-11.4024
সারির	-11.4024
▁গাঠ	-11.4024
▁হাফেজ	-11.4024
▁লিটল	-11.4025
▁সাম্প্রতিককালে	-11.4025
▁রিলিজ	-11.4025
▁জাদুকর	-11.4026
▁জামালপুর	-11.4026
▁থিম	-11.4026
▁কদাচ	-11.4026
▁একনিষ্ঠ	-11.4026
▁ওয়াটার	-11.4026
▁র্দো	-11.4027
▁ভালভাবে	-11.4028
▁মিঠা	-11.4028
▁আরাফাত	-11.4028
▁গার্লস	-11.4029
▁জমাট	-11.4029
▁ক্যান	-11.4029
▁উইলিস	-11.403
▁ইভানস	-11.4031
▁সাউন্ড	-11.4031
▁কিরণ	-11.4031
▁কবীর	-11.4031
▁অজয়	-11.4031
▁শিল্পকর্ম	-11.4033
▁পাঠশালায়	-11.4033
▁দ্বীপান্তর	-11.4033
▁অভিমুখে	-11.4034
▁ছাড়ো	-11.4035
▁ঘোরা	-11.4035
▁ঔরস	-11.4036
▁ধ্রুবক	-11.4036
▁অর্থমন্ত্রী	-11.4036
▁জনগননা	-11.4038
▁টিলা	-11.4038
▁কবিগান	-11.404
▁নিন্দা	-11.4044
▁ছাল	-11.4044
▁ফিল্ডিংয়ে	-11.4045
▁গাইতেন	-11.4045
▁বাউ	-11.4046
▁ব্যাধি	-11.4046
▁বয়েজ	-11.4046
▁সার্ক	-11.4049
▁বাহরাইন	-11.405
▁কবে	-11.4051
▁সাপেক্ষে	-11.4052
▁একশত	-11.4053
▁চরে	-11.4055
▁নুন	-11.4055
▁পড়েছিলেন	-11.4057
▁স্নায়ু	-11.4061
▁সংক্রান্তি	-11.4062
▁বেদনা	-11.4066
▁লাইব্রেরীতে	-11.4066
▁অ্যাকাডেমি	-11.4066
▁পারব	-11.4066
োজ	-11.4068
▁অনুবাদের	-11.4069
▁কৃতি	-11.4069
▁১৮৭২	-11.4069
▁বাছাইপর্বে	-11.4075
েত	-11.4077
▁পূর্ণিয়া	-11.4077
দণ্ড	-11.4077
▁চু	-11.4082
▁আহার	-11.4082
▁বাচ	-11.4083
▁পেলেন	-11.4084
▁কপিল	-11.4086
▁কানাডায়	-11.4086
▁প্রয়া	-11.4087
▁মানা	-11.4087
▁সংবাদপত্রে	-11.4088
▁নারীবাদী	-11.4095
▁এমনিতে	-11.4098
ঘর	-11.4101
▁মতিন	-11.4104
▁মিশা	-11.4105
গাছ	-11.4105
▁যথাঃ	-11.4106
▁ফ্রেঞ্চ	-11.4108
▁পেশাদারী	-11.4109
▁শিস	-11.411
বুক	-11.4113
▁নিল	-11.4116
▁যৌবন	-11.4116
▁সেকেন্ডে	-11.4117
▁বন্ধুদের	-11.4121
▁ভিসা	-11.4121
▁কারাগার	-11.4123
▁মিলনায়তন	-11.4127
▁উৎসাহী	-11.4129
▁কানন	-11.4129
▁নেপালি	-11.413
▁রোল	-11.4132
▁গঞ্জ	-11.4132
▁প্রজ্ঞা	-11.4135
ডা	-11.4139
তেন	-11.4145
▁প্রজননকাল	-11.4146
▁লাম	-11.4148
▁সমাধিটি	-11.4149
▁অনুবাদে	-11.4149
▁কক্ষে	-11.4151
▁মৈত্রী	-11.4151
▁মিনি	-11.4153
▁মস্তক	-11.4153
মেন	-11.4155
বৃত্তি	-11.4159
▁দ্বীপগুলি	-11.416
▁সংঘর্ষে	-11.4161
▁রেলওয়ের	-11.4161
H	-11.4161
▁ইভান	-11.4166
▁আইএ	-11.417
▁নালা	-11.4172
▁থা	-11.4172
▁ফেলুদার	-11.4175
ানোর	-11.4175
▁মাশরুম	-11.4177
▁বুড়ি	-11.4182
▁দাসী	-11.4183
▁করেছিলো	-11.4187
▁পোকার	-11.4192
টো	-11.4194
▁প্রসেসর	-11.4197
পরাস্ত	-11.4199
▁কাজকর্ম	-11.4201
▁মন্ত্রীসভা	-11.4201
▁পরিশ্রম	-11.4204
▁রোজা	-11.4205
▁শয়তান	-11.4207
▁বিপিএল	-11.4207
▁টেস্টটি	-11.4212
▁লাহোরে	-11.4213
▁আইপি	-11.4213
▁বেলজিয়াম	-11.4215
শাস্ত্র	-11.4217
▁বস্টনে	-11.4218
▁ভাঙন	-11.4224
▁পুরী	-11.4227
▁মুন	-11.4228
▁দর্শনার্থী	-11.4229
▁শিল্পীদের	-11.4229
▁বাঙালির	-11.4237
ভাই	-11.4239
▁পাথরে	-11.4244
▁চারপাশ	-11.4245
▁ফিনল্যান্ড	-11.4249
▁ওভালে	-11.4254
্পিক	-11.4255
▁তোরণ	-11.4266
▁শহরাঞ্চল	-11.4271
▁হাবিবু	-11.4272
▁কানি	-11.4278
▁উপজাতির	-11.4285
▁বিস্ফোরক	-11.4286
তির	-11.4303
▁চতুর্থাংশ	-11.4311
▁১৬৭	-11.4313
▁কারাবাস	-11.4316
▁বস্টন	-11.4322
▁তাতার	-11.4323
▁শামুক	-11.4323
▁বিবির	-11.4324
▁ছেলেটি	-11.4326
উদ্দীন	-11.4326
হাম	-11.4335
▁প্রি	-11.4337
প্রিয়	-11.434
িব	-11.4344
▁ক্যা	-11.4345
▁মানচিত্রে	-11.435
▁স্ট	-11.4352
রূপী	-11.4364
▁এস্টেট	-11.4367
▁পদটি	-11.4368
▁কিম	-11.4368
▁অকল্যান্ড	-11.4377
িলা	-11.438
▁দেবদেবীর	-11.4382
▁ব্যক্তিদের	-11.4388
▁গৌর	-11.4389
▁১০০টি	-11.4389
▁খানা	-11.439
াৎ	-11.4392
ল্লা	-11.44
▁বিমানে	-11.4402
▁বোলারদের	-11.4407
▁নন্দ	-11.441
▁বিনয়	-11.4415
চিহ্ন	-11.4419
প্রতি	-11.4422
হাট	-11.4422
▁নাইট্র	-11.4431
▁নেট	-11.4431
▁আটা	-11.4432
▁সম্মেলনের	-11.4434
▁মিহরাব	-11.444
▁অনুদান	-11.444
▁উদাহরন	-11.4441
▁কৃষ্ণনগর	-11.4445
▁চড়া	-11.4446
▁ভালুক	-11.4451
▁ইসরায়েলে	-11.4452
▁২৯৫	-11.4453
পাশা	-11.4454
▁আয়ন	-11.4456
▁আঙ্গুল	-11.4459
্ম	-11.446
▁ছত্র	-11.4461
▁২০৬	-11.4465
▁বাছাইপর্ব	-11.4466
▁বুট	-11.4467
▁ভাইরাসের	-11.4469
▁পিন	-11.447
▁ওঁ	-11.447
▁সাঁতারু	-11.4472
▁শক্তিপীঠ	-11.4474
▁গ্রা	-11.4475
▁মিনারটি	-11.4482
লস	-11.4487
▁ডট	-11.4488
▁চিরহরি	-11.4489
▁ইদ্রিস	-11.4491
াও	-11.4493
▁শর্ট	-11.4495
▁মার্কস	-11.4496
▁পৌঁছা	-11.4496
▁বনানী	-11.4496
▁সময়টা	-11.4499
▁কোবরা	-11.4499
▁সংহিতা	-11.4501
মাত্রায়	-11.4502
▁পন্থা	-11.4503
▁আনু	-11.4504
▁পেত	-11.4505
▁ফিল্ডিং	-11.4506
▁উজি	-11.4506
▁তেজস্ক্রিয়	-11.4507
মুখে	-11.4512
▁আয়ত্ত	-11.4512
ঙ	-11.4512
সম্পূর্ন	-11.4513
▁ফরাসিতে	-11.4513
▁উত্তেজ	-11.4515
▁ভবানী	-11.4518
▁আর্মেনিয়া	-11.4519
▁লবণাক্ত	-11.4519
▁ঠাঁ	-11.452
▁মনুষ্য	-11.4521
▁আলীবর্দী	-11.4522
▁জীবাণু	-11.4522
▁পূর্ণদৈর্ঘ্য	-11.4522
▁ফ্যাকাসে	-11.4522
▁ভাগীরথী	-11.4522
▁ভেনেজুয়েলা	-11.4522
▁সান্নিধ্য	-11.4522
▁সিক্কিম	-11.4522
▁উপাধী	-11.4522
▁ক্লাইভ	-11.4522
▁বীরভূম	-11.4522
▁উরুগুয়ে	-11.4522
▁ফাহাদ	-11.4522
▁ভয়ংকর	-11.4522
▁অন্তরীণ	-11.4522
▁অম্বিকা	-11.4522
▁বুদ্ধিমত্তা	-11.4522
▁উৎখাত	-11.4522
▁ডিফেন্স	-11.4522
▁দেহাবশেষ	-11.4522
▁ভৃগু	-11.4522
▁ঝামেলা	-11.4522
▁নির্বাচকমণ্ডলী	-11.4522
▁অনুমিত	-11.4522
▁ফুয়াদ	-11.4522
▁মজনু	-11.4522
▁মাজহার	-11.4522
▁ওয়াজেদ	-11.4522
▁জ্যোতির্লিঙ্গ	-11.4522
▁হরমোন	-11.4522
▁মাপকাঠি	-11.4522
▁গর্ভবতী	-11.4522
াবলম্বন	-11.4522
▁কান্দাহার	-11.4522
▁টেলিফোন	-11.4522
▁বিস্তীর্ণ	-11.4522
▁পদাতিক	-11.4522
▁ওয়ানডে	-11.4522
▁মহামারী	-11.4522
▁ম্যালেরিয়া	-11.4522
▁মিডফিল্ডার	-11.4522
▁আইবিএম	-11.4522
▁কর্মসূচী	-11.4522
▁পিয়ানো	-11.4522
▁জালালাবাদ	-11.4522
▁তুণ্ড	-11.4522
▁ডিজনি	-11.4523
▁অ্যাসোসিয়েশন	-11.4523
▁গুপ্তচর	-11.4523
▁জ্বালিয়ে	-11.4523
▁কুবলা	-11.4523
▁মালপত্র	-11.4523
▁বাড়ায়	-11.4523
▁সাইন্স	-11.4523
▁বিরাজমান	-11.4523
▁সুদর্শন	-11.4523
▁উপকূলবর্তী	-11.4523
▁সঞ্জয়	-11.4523
▁প্লাজমা	-11.4523
▁সীমারেখা	-11.4523
▁খাজনা	-11.4523
▁ইথানল	-11.4523
▁সতেরো	-11.4523
▁প্রাচুর্য	-11.4524
▁চড়ুই	-11.4524
▁রহস্যময়	-11.4524
▁ওয়ার্নার	-11.4524
▁হেমচন্দ্র	-11.4524
▁গেছিলেন	-11.4525
▁অনুগত	-11.4525
▁ফক্স	-11.4525
▁পরিণয়	-11.4525
▁করিমগঞ্জ	-11.4525
▁গোপালগঞ্জ	-11.4526
▁চশমা	-11.4526
▁উইং	-11.4526
▁ধারালো	-11.4526
▁মরণ	-11.4526
▁আব্দুল্লাহ	-11.4526
▁সৈন্যবাহিনী	-11.4527
▁অবনমন	-11.4527
▁ছোলা	-11.4527
▁সাইমন	-11.4527
▁পল্লব	-11.4527
▁উদ্ভাবিত	-11.4527
▁মিথেন	-11.4527
▁জানতো	-11.4528
▁মিস্টার	-11.4528
▁পনেরো	-11.4528
▁নেত্রী	-11.4528
▁নেতাজি	-11.4528
▁ঘানা	-11.4529
▁সিপাহি	-11.4529
▁পার্সি	-11.4529
▁রামচন্দ্র	-11.453
▁বলুন	-11.453
▁ক্রোয়েশিয়া	-11.4531
▁্যাঙ্কিংয়ে	-11.4531
▁ছাতনা	-11.4531
▁চাকতি	-11.4532
পুড়ে	-11.4532
▁সত্তর	-11.4532
▁র্জে	-11.4533
▁দুগ্ধ	-11.4534
▁লাঞ্চ	-11.4535
▁মূসা	-11.4535
▁উপস্থাপক	-11.4536
▁ঘেঁষে	-11.4536
▁সুরম	-11.4538
▁কর্ডোবা	-11.4538
▁বৈচিত্র	-11.4538
▁উদ্ধৃতি	-11.4538
▁পটার	-11.454
▁ইডেন	-11.454
▁ঊষর	-11.4542
▁ডাবল	-11.4543
▁নাদির	-11.4543
▁ভাষাভাষী	-11.4543
▁টি২০	-11.4543
▁দাড়ি	-11.4543
▁লক্ষ্মীপুর	-11.4545
▁আবহ	-11.4548
▁নও	-11.4549
▁রংয়ের	-11.4549
▁এমনক	-11.455
▁ক্ষুদ্রতম	-11.455
▁ভিটা	-11.4551
▁আলেম	-11.4554
▁পরিশোধ	-11.4559
▁চলাকাল	-11.456
▁প্রাকৃত	-11.456
▁বণিক	-11.4561
▁গবেষকরা	-11.4563
▁তাড়া	-11.4564
▁বয়েসে	-11.4564
▁পেশী	-11.4567
▁অন্যায়	-11.4569
▁চক্রবর্তীর	-11.4571
▁দুরন্ত	-11.4571
▁সম্পাদকের	-11.4571
▁অণুষ্ঠ	-11.4573
▁অ্যালকোহল	-11.4573
▁বটেরা	-11.4574
▁সস্তা	-11.4574
▁রেকর্ডিং	-11.4577
কাজ	-11.4577
▁অভিজ্ঞ	-11.4579
▁পানামা	-11.4581
▁কক্ষটি	-11.4583
▁গবেষকদের	-11.4585
▁উলু	-11.4593
▁এইডস	-11.4594
▁চিত্রে	-11.4597
▁বাহাই	-11.4601
ণা	-11.4602
৭০	-11.4604
▁প্রেক্ষাপটে	-11.4607
▁পদ্য	-11.4607
▁যুদ্ধক্ষেত্রে	-11.4608
▁জমিদারের	-11.4609
▁মেরিল	-11.4612
▁সংগ্রামী	-11.4615
ানের	-11.4615
বরণ	-11.4616
▁দেশভাগ	-11.4619
পাস	-11.4622
▁ইল	-11.4623
▁পলিমার	-11.4624
▁ভালোভাবে	-11.4625
▁বাঁচত	-11.4626
▁বাধ	-11.4626
▁কবিরাজ	-11.463
▁স্ত	-11.4631
▁পৃথকভাবে	-11.4634
ডেন	-11.4637
▁বেগে	-11.4639
▁ভাষী	-11.464
▁কিনারা	-11.4644
▁বিয়ার	-11.4644
▁শাসকরা	-11.4645
▁সার্ভার	-11.4646
▁২০৯	-11.4649
ংরা	-11.465
▁উজান	-11.4652
▁সাং	-11.4653
▁ওয়াক	-11.4654
▁মৌমাছির	-11.4655
▁ভব	-11.4657
বিজ্ঞান	-11.4663
▁ব্	-11.4669
▁সহস্রা	-11.467
▁কিশোরদের	-11.467
ধান	-11.4672
▁গড	-11.4674
▁৩৩টি	-11.4675
▁নিত	-11.4677
▁গন্তব্য	-11.4677
▁মালদ্বীপের	-11.4679
সংক্ষেপ	-11.468
▁উসমানীয়দের	-11.4685
▁খুলনায়	-11.4686
▁প্রতিমা	-11.469
▁কুমিল্লায়	-11.4692
▁বাল্যকালে	-11.4692
▁রূপক	-11.4696
▁সিরিয়াল	-11.4696
দল	-11.4698
▁গিলে	-11.4701
▁মন্দিরগুলি	-11.4701
▁সাদিক	-11.4703
ডব্লিউ	-11.471
▁শাসকদের	-11.4711
▁আটকা	-11.4711
▁দিবসটি	-11.4713
▁ভাষাগুলি	-11.4718
▁ভিলা	-11.4719
াগতিক	-11.472
▁অভ্যন্তর	-11.472
াকৃতির	-11.4724
▁টিভিতে	-11.4725
▁দ্বীপটিতে	-11.4729
▁রঙ্গ	-11.4732
▁পর্বতশৃঙ্গ	-11.4736
৯২	-11.474
▁দোহা	-11.4744
▁নিলাম	-11.4744
▁ছেলেমেয়ে	-11.4744
▁কুরু	-11.4745
▁শকুন	-11.4747
▁কপাল	-11.4747
▁লম্ব	-11.4754
▁গামা	-11.4755
▁উমা	-11.4758
▁বরা	-11.4758
▁ডায়ানা	-11.4762
▁ব্যক্তিগতভাবে	-11.4771
▁এসসি	-11.4777
▁যাওয়ায়	-11.4778
▁নিজেরা	-11.4784
▁সপ্ত	-11.4791
▁২৬টি	-11.4793
▁জামাত	-11.4795
▁আজহার	-11.4796
▁ছা	-11.48
▁এলো	-11.4803
▁চিন্তাধারা	-11.4806
ওয়াল	-11.4811
▁আইনগত	-11.4812
▁১১৯	-11.4819
রত্ন	-11.482
▁আইনু	-11.482
লেপ	-11.4822
▁পাকে	-11.4824
▁শিকারি	-11.4824
▁দাদার	-11.4826
▁১৪১	-11.4827
▁কার্যকলাপ	-11.4831
▁কূপ	-11.4832
▁ফেরী	-11.4832
১৮৫৪	-11.4833
▁গানটিতে	-11.4843
ফুট	-11.4844
▁অষ্ট	-11.4845
▁কোলা	-11.4846
▁বুল	-11.4846
u	-11.4847
es	-11.485
▁সোল	-11.4852
▁১২০০	-11.4852
▁মতবাদে	-11.4857
▁দৌড়া	-11.4857
▁হতাশ	-11.4861
▁ভাবা	-11.4863
▁মহারাষ্ট্রের	-11.4863
al	-11.4865
▁সুলতানের	-11.4866
▁শেন	-11.4868
▁১৪৫	-11.4871
িরহাট	-11.4872
▁সেবন	-11.4874
কোনো	-11.4883
▁থর	-11.4887
▁খানাত	-11.489
▁লিড	-11.489
▁একথা	-11.4892
▁ভীত	-11.4894
▁হেয়ার	-11.4895
▁খালটি	-11.4898
▁টসে	-11.4899
দর্শন	-11.4909
▁ফ্রান্সিস	-11.4911
▁ঢিবির	-11.4913
▁হ্রদটি	-11.4917
▁গালি	-11.4922
▁বিন্দুর	-11.4924
▁জামিল	-11.4926
▁মিড	-11.4932
▁দমনে	-11.4939
▁ইস্তানবুলে	-11.4939
▁হাস	-11.4941
▁শাক্ত	-11.4941
▁তের	-11.4942
▁উঠল	-11.4943
▁অভ্য	-11.4943
ঙ্গু	-11.4951
▁প্রাচ্য	-11.4952
▁পিপল	-11.4952
রাহ	-11.4956
বর্তিত	-11.4959
▁ময়না	-11.4964
▁আছ	-11.4964
সম্মত	-11.4968
▁কেক	-11.4973
▁ভারতী	-11.4976
বিষয়ক	-11.4981
▁১৭৪	-11.4981
▁সিনেমাতে	-11.4982
ুনি	-11.4983
দ্বীপ	-11.4984
পুরুষ	-11.4984
▁ষড়যন্ত্র	-11.4984
▁১৪৯	-11.4985
▁স্বরে	-11.4986
▁সংগ্রহশালা	-11.4995
▁এসি	-11.4996
▁ধর্মঘট	-11.5001
▁CH	-11.5002
▁মেসোপটেমিয়া	-11.5003
▁লিঙ্গের	-11.5004
▁নিউইয়র্ক	-11.5004
▁দক্ষিণাঞ্চল	-11.5008
▁বংশবিস্তার	-11.5009
▁অনুভূত	-11.5015
▁ডিভিশনে	-11.5017
নীয়	-11.5018
▁সুই	-11.502
টান	-11.502
বাগান	-11.5022
▁লেনিন	-11.5022
▁ধোঁয়া	-11.5023
▁আবৃত্তি	-11.5023
▁খোরাসান	-11.5024
▁জগ	-11.5025
▁স্থাপনার	-11.5025
▁দেরি	-11.5026
▁কাসেম	-11.5026
▁কোয়েল	-11.5027
▁আদিবাসীদের	-11.5028
▁জিৎ	-11.5028
▁আসক্ত	-11.5028
▁ভট্ট	-11.5033
▁উপগোত্র	-11.5033
কিন	-11.5034
▁কুর	-11.5035
O	-11.5036
▁পাঠাতে	-11.5037
▁স্বাগত	-11.5039
▁গলফ	-11.504
▁সমাধিস্থ	-11.504
▁উপেক্ষ	-11.5041
▁মোহনা	-11.5042
▁কন্ট্রোল	-11.5043
▁দৃশ্যে	-11.5043
▁্যাঙ্কিং	-11.5043
ন্	-11.5044
▁লেগেছিল	-11.5044
▁ব্যাসার্ধ	-11.5046
▁নেভি	-11.5046
২৩	-11.5046
▁তর্ক	-11.5046
▁ইউনিভার্স	-11.5047
▁সরণ	-11.5048
▁আগ্নেয়	-11.5048
▁অবকাশ	-11.5048
▁অবহেলিত	-11.5048
▁আচেহ	-11.5048
▁আনুগত্য	-11.5048
▁ঋত্বিক	-11.5048
▁তাফসীর	-11.5048
▁দত্তাত্রেয়	-11.5048
▁নিখোঁজ	-11.5048
▁ভলডেমর্ট	-11.5048
▁ভৌমিক	-11.5048
▁ভ্রাতুষ্পুত্র	-11.5048
▁মতবিরোধ	-11.5048
▁মাহফুজ	-11.5048
▁যাযাবর	-11.5048
▁যৌক্তিক	-11.5048
▁রিজার্ভ	-11.5048
▁সহজলভ্য	-11.5048
▁সিগনাল	-11.5048
▁আফজাল	-11.5048
▁ট্যাবলেট	-11.5048
▁ট্রিনিটি	-11.5048
▁অভিমন্যু	-11.5048
▁কীটপতঙ্গ	-11.5048
▁শোচনীয়	-11.5048
▁উদ্বুদ্ধ	-11.5048
▁নিউমোনিয়া	-11.5048
▁শাবনূর	-11.5048
▁কষ্টসাধ্য	-11.5048
▁খসড়া	-11.5048
▁কুখ্যাত	-11.5048
▁ঊনকোটি	-11.5048
▁উখিয়া	-11.5048
▁স্টার্চ	-11.5048
▁অনুজ্জ্বল	-11.5048
▁ভোলাহাট	-11.5048
▁স্ট্যান্ডার্ড	-11.5048
▁মোকাবিলা	-11.5048
▁স্বেচ্ছাসেবক	-11.5048
▁কনফেডারেশন	-11.5048
▁ইয়াজিদ	-11.5048
▁চকলেট	-11.5048
▁বয়কট	-11.5048
▁সংকীর্ণ	-11.5048
▁পিতৃভূমি	-11.5048
▁ডিপার্টমেন্ট	-11.5048
▁দয়ালু	-11.5048
▁গর্ডন	-11.5048
▁মালদহ	-11.5048
▁ডিপ্লোমা	-11.5049
পোশে	-11.5049
▁ঈশ্বরদী	-11.5049
▁হাওয়ার্ড	-11.5049
▁গবাদি	-11.5049
▁সুবিধার্থে	-11.5049
▁সার্বভৌমত্ব	-11.5049
▁মরক্কো	-11.5049
▁হলদেটে	-11.5049
▁সুসম্পর্ক	-11.5049
▁গেয়েছিলেন	-11.5049
▁গাভী	-11.5049
▁ঘৃণা	-11.5049
▁নির্গত	-11.5049
▁সোডিয়াম	-11.5049
▁হস্তশিল্প	-11.5049
▁ব্যয়বহুল	-11.5049
▁পুরাকীর্তি	-11.505
▁অলৌকিক	-11.505
▁আস্তানা	-11.505
▁উদ্ভিদে	-11.505
▁দিবালোক	-11.505
▁হার্জ	-11.505
▁শঙ্খ	-11.505
▁অ্যান্টার্কটিকা	-11.505
▁ফাইবার	-11.505
▁লাহিড়ী	-11.505
▁ভূপৃষ্ঠ	-11.505
▁কাঠে	-11.5051
▁ফাইভ	-11.5051
▁জিনোম	-11.5051
▁শশী	-11.5051
▁মনোবল	-11.5051
▁ঘুরিয়ে	-11.5051
▁লোকমুখে	-11.5051
▁হলুদাভ	-11.5051
▁ভোটাধিকার	-11.5051
▁নীলাভ	-11.5051
▁আরোহন	-11.5052
▁গারো	-11.5052
▁গরিব	-11.5052
▁ছড়ানো	-11.5052
▁বপন	-11.5052
▁বাঁচানো	-11.5052
▁অবহেলা	-11.5053
▁সমুদ্রতল	-11.5053
▁নীলমণি	-11.5053
▁প্রত্যাশা	-11.5053
▁ভেনিস	-11.5053
▁শঙ্কু	-11.5053
▁ইউনাইটেডে	-11.5053
▁সমকামিতা	-11.5053
▁অ্যাডামস	-11.5053
▁জয়মতী	-11.5053
▁ফাঁদে	-11.5053
▁মনোভাব	-11.5054
▁আবর্তিত	-11.5054
▁শ্রীরামপুর	-11.5054
▁লাগলো	-11.5054
▁বিবেক	-11.5054
▁ম্যাট্রিক্স	-11.5055
▁হাজরা	-11.5055
স্তান	-11.5055
▁ডায়েরি	-11.5055
▁শিবগঞ্জ	-11.5056
▁জিরো	-11.5056
▁লাগলেন	-11.5056
▁দোস্ত	-11.5056
▁সজল	-11.5056
▁লোকসঙ্গীত	-11.5057
▁প্রিজম	-11.5057
াইট	-11.5058
▁ইউরোপীয়ান	-11.5058
▁হীরক	-11.5058
▁এমপি	-11.5058
▁প্রদীপ	-11.5058
▁সেইন্ট	-11.5058
▁করবো	-11.5058
▁শহীদুল্লাহ	-11.5058
▁দাদী	-11.5059
▁সুবাদার	-11.5059
▁স্পট	-11.5059
▁নায়েক	-11.5059
▁হায়াত	-11.506
▁দেবীকে	-11.506
▁১৮৬২	-11.506
▁বেসিক	-11.5061
▁পরিকল্পিত	-11.5061
▁হাটবাজার	-11.5062
▁কানুন	-11.5062
▁এরশাদ	-11.5063
▁পাথুর	-11.5063
▁আলির	-11.5064
▁স্পেস	-11.5064
▁বিরূপ	-11.5064
▁পট্টি	-11.5065
▁সমকালীন	-11.5065
োপনিষদ্	-11.5065
▁পেয়ারা	-11.5066
▁প্রতিকৃতি	-11.5066
▁আইভি	-11.5066
ন্টু	-11.5068
▁শির	-11.5069
▁ভয়েস	-11.507
▁প্রত্যয়	-11.5075
▁২৯৬	-11.5075
খানকার	-11.5077
▁চাইতেন	-11.5078
▁পারসিক	-11.508
▁কমান্ডো	-11.5081
▁জুম	-11.5081
▁১৮০১	-11.5082
▁সিআর	-11.5083
▁লুকাস	-11.5086
▁সমালোচকরা	-11.5087
▁বিদ্রোহীদের	-11.5088
▁মহাদেশীয়	-11.509
▁11	-11.509
▁প্রকাশনী	-11.5091
দেহী	-11.5091
্যান	-11.5093
▁উষ্ণতা	-11.5093
▁ধনেশদের	-11.5094
▁করাচিতে	-11.5095
▁ইলেকট্রিক	-11.5096
▁এফসি	-11.5097
▁আবিষ্কারক	-11.5097
১নং	-11.5097
কম	-11.5098
▁গর্ভগৃহে	-11.5101
ধা	-11.5103
▁আগুনের	-11.5103
▁মনোযোগী	-11.5105
ুং	-11.5107
▁আংটি	-11.5108
এসসি	-11.5108
▁মুখোপাধ্যায়ের	-11.5109
▁মুম্বইয়ে	-11.5109
লিয়া	-11.511
▁গোত্রে	-11.5113
▁বহরে	-11.5113
▁আসছিল	-11.5115
▁দিল্লীতে	-11.5117
▁জিনগত	-11.5121
▁দুর্বলতা	-11.5121
▁রঞ্জন	-11.5126
ব্যাহত	-11.5127
▁আলিপুর	-11.5135
▁সমষ্টির	-11.5137
▁ঘুর	-11.5144
ক্ত	-11.5144
▁এগার	-11.5145
মন্ত্রী	-11.5148
▁শিখে	-11.515
▁শ্রোতা	-11.5151
▁একবছর	-11.5151
▁খাই	-11.516
▁রোমানরা	-11.516
▁কুইন্সল্যান্ড	-11.516
▁আসন্ন	-11.5167
▁আরিফ	-11.517
▁জৈনধর্মে	-11.5179
▁১৭১	-11.518
▁মতিঝিল	-11.518
▁এমনটা	-11.5183
▁১৩৮	-11.5184
▁টাওয়ারটি	-11.5186
▁k	-11.5191
▁কমপ্লেক্সে	-11.5194
▁বিভক্তি	-11.5196
▁বেলারুশ	-11.5205
▁বসতে	-11.5208
গ্রন্থ	-11.5216
বেক	-11.5218
▁পুরুষে	-11.5218
▁১৪৮	-11.522
০৭	-11.522
▁এলেন	-11.5223
▁নর্ম	-11.5224
▁কেন্দ্রস্থল	-11.5228
ুয়েল	-11.5234
সিত	-11.5236
▁উচ্চগতি	-11.5239
▁দানব	-11.5242
▁নৌকায়	-11.5248
▁টিপ	-11.5251
▁সুখক	-11.5256
▁একাংশ	-11.5264
স্ত্র	-11.5265
▁কনা	-11.5266
▁নেতারা	-11.5267
▁উড়ান	-11.5275
▁বিশ্বকোষ	-11.5283
▁আদান	-11.5284
ডে	-11.5285
▁ভেন	-11.5289
▁তলদেশে	-11.5294
▁সাজ	-11.5301
▁এজ	-11.5302
▁হইল	-11.5307
▁দুর্গার	-11.5313
▁অনুষদে	-11.5313
▁রুপে	-11.5317
▁বোম্বাই	-11.5321
▁আল্লা	-11.5328
▁১৬৫	-11.533
▁পুনর্	-11.5338
▁ইন্স	-11.5339
▁খড়	-11.534
▁জেতা	-11.5341
▁হলিউডে	-11.5342
▁প্রতিরোধযুদ্ধে	-11.5345
▁কালু	-11.5346
▁স্কেল	-11.5347
▁দিকটি	-11.5352
▁সেজন্যে	-11.5352
াদ	-11.5355
জ্জ	-11.5356
▁সত্ত্বা	-11.5358
▁মঠে	-11.5359
▁২৬০	-11.5359
▁মুহূর্তে	-11.5359
▁কর্মে	-11.536
পূর্বক	-11.536
▁স্তরটি	-11.5363
▁দুঃখের	-11.5367
▁জ্যা	-11.5369
▁উচ্চশিক্ষা	-11.537
ফার	-11.5371
▁পরিসরে	-11.5372
▁৭০টি	-11.5372
▁ল্যা	-11.5373
▁খালা	-11.5376
▁প্রতিবাদে	-11.5376
▁আধিকারিক	-11.5381
▁থে	-11.539
▁কোণা	-11.5392
▁নামায	-11.5392
▁কন্যার	-11.5394
▁উপনিষদে	-11.5397
▁হাটে	-11.5397
ভের	-11.5398
▁বাবুর	-11.5401
ান্ত	-11.5403
▁গেমে	-11.5404
▁ফেলেছে	-11.5404
▁দূষণ	-11.5408
ডেল	-11.541
▁সুরা	-11.5411
▁গ্রীসে	-11.5421
ডু	-11.5422
বহ	-11.5424
▁চাদ	-11.5425
▁কদম	-11.5429
▁বান্দা	-11.5434
g	-11.5436
▁আবহাওয়ার	-11.5439
মারা	-11.5441
▁ঈদগাহ	-11.5441
াক্রান্ত	-11.5443
▁বর্ম	-11.5443
▁ফটক	-11.5455
▁বাটা	-11.5459
▁এমডি	-11.546
▁ভ্রু	-11.546
▁কংস	-11.5462
▁আন্ত	-11.5463
▁দুর্ঘটনার	-11.5466
▁৪২০	-11.547
▁সাক্ষাৎকার	-11.5473
▁শূণ্য	-11.5473
▁বাক	-11.5476
▁কুমারের	-11.5476
▁স্ট্রাইক	-11.5479
▁যাত্রাপথে	-11.548
▁মধুমত	-11.5482
▁উত্তরা	-11.5486
▁আপাত	-11.5493
▁খড়ি	-11.5496
▁ঘা	-11.5496
▁ফুসফুস	-11.5497
দ্গা	-11.5499
▁সিট	-11.55
▁বনি	-11.5502
▁চাকরির	-11.5508
▁তাহির	-11.5509
▁ব্যবস্থাটি	-11.551
▁মোড়ে	-11.5511
প্রকার	-11.5512
▁নাৎসি	-11.552
্যু	-11.5522
▁অঙ্গরাজ্য	-11.5528
▁ক্যাট	-11.553
তীর্থ	-11.5531
০৬	-11.5531
ূত	-11.5534
▁ক্রো	-11.5536
ণী	-11.5537
গোপাল	-11.5537
▁গ্রন্থাগারটি	-11.5537
▁আইনি	-11.5538
▁চলল	-11.5542
▁আমিনা	-11.5542
ব্রুক	-11.5543
▁বাণ	-11.5547
▁গীর্জা	-11.5549
▁বিহারটি	-11.5553
▁অযোধ্যা	-11.5556
▁কারখানার	-11.5556
▁স্প	-11.5557
▁সন্ন্যাস	-11.5557
▁জুলু	-11.5557
▁৩৩০	-11.556
▁সুবিধার	-11.5561
পাই	-11.5562
৯৩৩	-11.5565
▁জ্যোতিষ	-11.5568
▁পর্নোগ্রাফি	-11.5568
▁সোয়া	-11.5569
▁একুশ	-11.5571
▁গ্রীন	-11.5572
▁সন্ধ্যার	-11.5572
▁চতুর্দশ	-11.5574
▁আনসার	-11.5576
▁বাড়ত	-11.5577
▁সেন্টারে	-11.5577
▁সেনাদল	-11.558
▁ফেরদৌস	-11.558
▁শুক্ল	-11.5583
▁মহাসাগরে	-11.5584
▁মল্ল	-11.5584
▁শাহী	-11.5587
▁হৃদরোগে	-11.559
▁রাজপুত্র	-11.5592
বের	-11.5593
▁রতন	-11.5595
গ্রাম্য	-11.5597
▁চ্যালেঞ্জ	-11.5598
▁যাচ্ছি	-11.5598
l	-11.5599
▁উড	-11.56
▁নমনীয়	-11.56
▁ফর্ম	-11.56
▁বাসুদেব	-11.56
ইউ	-11.5601
▁জেলাসমূহ	-11.5601
▁বলছে	-11.5602
▁মূখ্য	-11.5603
▁অত্যাবশ্যক	-11.5604
▁অপভ্রংশ	-11.5604
▁আইনজীবি	-11.5604
▁আত্মনিয়োগ	-11.5604
▁আবর্জনা	-11.5604
▁কলম্বাস	-11.5604
▁গুয়াতেমালা	-11.5604
▁গোলন্দাজ	-11.5604
▁জনপরিসংখ্যান	-11.5604
▁দিশেহারা	-11.5604
▁দূর্ঘটনা	-11.5604
▁পলাতক	-11.5604
▁মতপার্থক্য	-11.5604
▁মুত্তালিব	-11.5604
▁লিঙ্গানুপাত	-11.5604
▁শমসের	-11.5604
▁শাকসবজি	-11.5604
▁হ্যাডক	-11.5604
▁নটিংহ্যামশায়ার	-11.5604
▁প্রফুল্ল	-11.5604
▁রিসার্চ	-11.5604
▁অপর্ণা	-11.5604
▁জওহর	-11.5604
▁ধৃতরাষ্ট্র	-11.5604
▁পটাশিয়াম	-11.5604
▁পন্টিং	-11.5604
▁প্রটোকল	-11.5604
▁ভাল্লুক	-11.5604
▁সুউচ্চ	-11.5604
▁এইচআইভি	-11.5604
▁কনভেন্ট	-11.5604
▁প্রাইমেট	-11.5604
▁লিফট	-11.5604
▁জুবিন	-11.5604
▁ইস্পাত	-11.5604
▁ভরবেগ	-11.5604
▁গাঙ্গুলি	-11.5604
চিত্র	-11.5604
▁কন্ঠশিল্পী	-11.5604
▁শিশির	-11.5604
▁আমদানী	-11.5604
▁বিদ্যাসাগর	-11.5604
▁সুদৃশ্য	-11.5604
▁এয়ারলাইন্স	-11.5604
▁চালিকাশক্তি	-11.5604
▁নদনদী	-11.5604
▁গৃহিণী	-11.5604
▁চারুকলা	-11.5604
▁ডিফেন্ডার	-11.5604
▁এনামুল	-11.5604
▁স্কোয়ার	-11.5604
▁বুরুজ	-11.5604
▁সমন্বিত	-11.5604
▁বলিষ্ঠ	-11.5604
▁ট্রাফিক	-11.5604
▁মাঝেমাঝে	-11.5604
▁শরীরচর্চা	-11.5604
▁হোস্ট	-11.5604
▁জাভেদ	-11.5604
▁আদিত্য	-11.5604
▁দ্বিধা	-11.5604
▁মুনাফা	-11.5604
▁নূহ	-11.5604
▁নবরত্ন	-11.5604
▁প্ৰথম	-11.5604
▁পৌত্র	-11.5604
▁গুণাবলী	-11.5604
▁কম্পানি	-11.5604
▁সুদূর	-11.5604
▁এইচএসসি	-11.5604
▁রিপাবলিকান	-11.5605
▁পাপুয়া	-11.5605
▁শরৎচন্দ্র	-11.5605
▁ভালবেসে	-11.5605
▁ক্রীড়াশৈলী	-11.5605
▁এক্সপ্রেসওয়ে	-11.5605
▁প্রাইজ	-11.5605
▁বুড়িগঙ্গা	-11.5605
▁বর্ডার	-11.5605
▁দশরথ	-11.5605
▁লেকচার	-11.5605
▁শপিং	-11.5605
োৎসব	-11.5605
▁পরিকাঠামো	-11.5605
▁টমটম	-11.5605
▁চিত্তরঞ্জন	-11.5605
▁জিনিসপত্র	-11.5605
▁দেখলো	-11.5605
▁স্থানাংক	-11.5605
▁টহল	-11.5606
▁মিহি	-11.5606
▁ভাসানী	-11.5606
▁সার্বজনীন	-11.5606
▁দৌলা	-11.5606
▁রূপালী	-11.5606
▁ভার্জিনিয়া	-11.5606
▁সিংহভাগ	-11.5606
▁মরিস	-11.5606
▁অয়লার	-11.5606
▁কুপার	-11.5606
▁নির্জন	-11.5607
▁সহচর	-11.5607
▁ক্যারিবী	-11.5607
▁চোপড়া	-11.5607
▁যাজক	-11.5607
▁মীম	-11.5607
▁আরোগ্য	-11.5607
▁ডিউটি	-11.5608
▁ঢোকা	-11.5608
▁নিশ্বাস	-11.5608
▁স্লোগান	-11.5608
▁আইইই	-11.5609
▁বললাম	-11.5609
▁থিওরি	-11.5609
▁ধূমপান	-11.5609
▁সুদৃঢ়	-11.561
▁উপক্রান্ত	-11.561
▁বাংলো	-11.5611
▁পুজো	-11.5611
▁কমিশনারেট	-11.5611
নিয়াম	-11.5611
▁চখা	-11.5611
▁হরিপুর	-11.5611
▁মণিপুরী	-11.5612
▁ভিক্টর	-11.5612
▁নগাঁও	-11.5612
▁আদিগঙ্গা	-11.5613
▁পাণি	-11.5613
▁সহজাত	-11.5614
▁জলিল	-11.5614
▁১৮৪১	-11.5615
▁এবিসি	-11.5615
▁মধ্যপ্রদেশ	-11.5615
▁থেরবাদ	-11.5615
▁ধোপা	-11.5616
▁ভানু	-11.5616
▁বললো	-11.5616
▁্যাম্বো	-11.5617
▁পিস	-11.5617
▁শেখানো	-11.5617
▁পরিহিত	-11.5617
▁বার্বাডোস	-11.5618
▁চিতা	-11.5618
▁কোশী	-11.5618
▁দায়িত্বভার	-11.5618
▁সিমা	-11.5619
▁সামবেদ	-11.5619
▁গনু	-11.5619
▁উলুম	-11.5619
▁লিপিড	-11.5619
▁১৮৬৩	-11.5619
▁জায়েদ	-11.5619
▁and	-11.562
▁দলপতি	-11.562
▁পৌছানো	-11.5621
▁রাজ্যপাল	-11.5621
▁বলছেন	-11.5621
▁চঞ্চল	-11.5621
▁গণপতি	-11.5622
ফেটে	-11.5622
▁হানিফা	-11.5622
▁ভরপুর	-11.5623
সাম	-11.5623
▁সামাদ	-11.5625
শী	-11.5626
▁জাগরণ	-11.5626
▁শ্রুতি	-11.5627
▁বোয়াল	-11.5627
▁দেশসমূহে	-11.5628
▁বসবাসরত	-11.5628
▁ট্রয়	-11.5628
▁উত্তরপ্রদেশ	-11.5628
▁দিওয়ান	-11.5629
সেস	-11.5629
▁গণ্ডার	-11.5631
▁নদীগুলো	-11.5631
▁দক্ষিণমুখী	-11.5632
▁অনুরাগী	-11.5632
▁বসরা	-11.5633
▁অহংকার	-11.5633
▁ইহুদিদের	-11.5633
▁ওয়াট	-11.5633
▁চালাতেন	-11.5635
মতো	-11.5635
▁প্রকাশ্যে	-11.5636
▁আইএসও	-11.5637
▁হীরা	-11.5637
▁ক্লে	-11.5638
▁বিবরণী	-11.564
▁১৩৬	-11.5642
▁১৮৩৭	-11.5644
দহ	-11.5644
▁নাইজেরিয়া	-11.5646
▁খোয়া	-11.5648
▁ক্ষ	-11.5648
▁চক্ষু	-11.5649
▁কল্যাণী	-11.5649
▁এগারোটি	-11.5649
▁আজান	-11.565
▁হালিমা	-11.5651
▁১৪২	-11.5652
▁ঝুলে	-11.5652
▁মোক্ষ	-11.5655
▁কক্	-11.5656
▁টেবিলে	-11.5659
▁ঘটনাস্থলে	-11.5662
▁জেনেটিক	-11.5664
▁বাজারটি	-11.5666
▁পড়েছেন	-11.5667
▁পতাকাটি	-11.5668
▁মেন	-11.5671
▁অবস্থানকালে	-11.5673
▁ইলিনয়	-11.5673
▁ঝোপ	-11.5674
ুরে	-11.5676
▁জেরি	-11.5681
▁ইলেকট্রনিক	-11.5681
▁২১২	-11.5681
▁চিত্রকর্মটি	-11.5681
জ্ঞ	-11.5681
বিজ্ঞানী	-11.5683
▁ডাকটিকিট	-11.5684
▁রাবেয়	-11.5685
▁কানাডাতে	-11.5686
▁সুপারিশ	-11.5687
▁রাশিয়ায়	-11.5688
▁বাগদা	-11.5692
▁স্ক	-11.5692
▁করিয়া	-11.5693
▁ধার্য	-11.5694
▁জাগ	-11.5697
▁মুছ	-11.5697
▁ঢিবিটি	-11.5698
▁বরো	-11.5698
▁পদ্ধতিটি	-11.5699
▁অক্ষয়	-11.57
োল	-11.5702
▁আমলা	-11.5705
▁সীমাবদ্ধতা	-11.5706
▁ছেলেরা	-11.5709
▁কোরে	-11.5709
▁বরিশালে	-11.571
▁বিজ্ঞানীদের	-11.5713
▁প্রীতি	-11.5715
▁পোতাশ্রয়টি	-11.5715
ভাল	-11.5715
▁গ্রেই	-11.5716
▁১৬২	-11.5716
▁মালি	-11.5716
▁পরিভাষাটি	-11.5721
▁বলটি	-11.5722
▁লোপ	-11.5722
▁ইংরেজীতে	-11.5725
▁স্পিড	-11.5728
▁পরিস্থিতিতে	-11.5729
▁লোহাগ	-11.5731
▁সৈনিকদের	-11.5732
িডিয়াম	-11.5732
▁শাসনে	-11.5733
নিয়া	-11.5737
▁চমক	-11.5738
▁প্রান	-11.5741
ুম	-11.5744
▁প্রাঙ্গণে	-11.5744
দিক	-11.5747
▁মুদ্রায়	-11.5751
▁সহঃ	-11.5752
াতব্য	-11.5752
▁৩০০টি	-11.5753
▁ভিন	-11.5756
আরএনএ	-11.5756
▁কোর্টে	-11.5757
ন্দ্র	-11.576
িম	-11.5763
▁যোগে	-11.5763
ম্প	-11.5773
▁উপরিতল	-11.5773
D	-11.5779
▁উঠত	-11.5788
▁দ্বিতীয়টি	-11.5791
▁বক্সার	-11.5792
▁গ্রীস	-11.5795
▁সিন্ধ	-11.5795
▁জমিদারী	-11.5797
▁নাগপুর	-11.5802
▁মানি	-11.5806
লাইন	-11.5807
▁৫৫০	-11.5808
চাপ	-11.5809
▁ভুক্ত	-11.5821
▁ধাঁচের	-11.5824
▁জনগন	-11.5825
▁কৌশলগত	-11.5827
▁এন্ট্রা	-11.583
▁কবিতাগুলি	-11.5831
▁ইয়েল	-11.5836
▁বেরার	-11.5838
ষা	-11.5841
বীর	-11.5841
পথে	-11.5842
▁মধ্যপ্রাচ্য	-11.5842
▁প্রথ	-11.5843
▁নারদ	-11.5849
▁অনার	-11.585
▁সদৃশ	-11.5851
▁রোমের	-11.5854
▁কাঞ্চন	-11.5856
▁বিকেল	-11.5861
ছড়া	-11.5862
idae	-11.5862
▁১৬৩	-11.5863
নুসারে	-11.5867
▁কয়	-11.5869
N	-11.5869
▁১৭৩	-11.5874
▁অংশগুলো	-11.5875
▁রসদ	-11.5882
▁গৃহযুদ্ধে	-11.5882
▁হ্	-11.5883
▁ঘরটি	-11.5883
▁মকর	-11.5884
▁সবশেষ	-11.5889
▁কনস্টান্টিনোপল	-11.589
▁হাদিসে	-11.5891
▁জামাতের	-11.5891
▁বারী	-11.5892
▁শিবসাগর	-11.5893
▁খ্রিস্টধর্ম	-11.5895
▁হ্রদটির	-11.5896
পল	-11.5897
▁জুলাইয়ে	-11.5897
বিল	-11.5898
ঘাটা	-11.5899
▁অর্জনে	-11.5902
▁ফাঁস	-11.5904
▁অর্থায়ন	-11.5909
▁বেইলি	-11.5909
▁রোদ	-11.592
ংগ	-11.5922
▁কম্পাঙ্ক	-11.5923
▁সারাদেশে	-11.5925
▁বর্ষপঞ্জি	-11.5927
▁পাস্তুর	-11.5927
▁ব্যবহারে	-11.5927
▁খোঁজা	-11.5929
▁বারি	-11.5931
▁দীপ	-11.5942
▁প্রতিষ্ঠায়	-11.5944
▁এতো	-11.5947
▁ঢালে	-11.5951
▁ফটোগ্রাফি	-11.5951
▁গল্পগুলি	-11.5952
পর্ব	-11.5957
▁হিন্দুধর্ম	-11.5958
▁রূপটি	-11.5958
▁১৫১	-11.596
▁জাতিতে	-11.5962
▁ঝাঁকে	-11.5963
▁ইভ	-11.5964
▁স্বাদের	-11.597
▁বার্ন	-11.5973
কল্পে	-11.5975
ছা	-11.5976
পাতা	-11.5976
▁ঘাটি	-11.5977
▁২৩০	-11.5978
▁গরীব	-11.5985
▁পায়রা	-11.5989
▁অভ	-11.5989
▁খেলোয়াড়কে	-11.599
▁সম্পূর্ণভাবে	-11.599
▁আগম	-11.5995
নিং	-11.5996
▁ইসরাইল	-11.5996
▁বাইবেলের	-11.5999
্যান্ট	-11.6001
▁রিক	-11.6002
▁দাঁড়	-11.6006
▁হায়দ্রাবাদের	-11.6007
▁ফ্লোর	-11.6009
▁আশি	-11.6013
▁জন্তু	-11.6013
▁পূ	-11.6014
▁বিস্ম	-11.6015
▁দিনই	-11.6017
▁রাণীর	-11.6018
▁টস	-11.6022
কিং	-11.6024
▁মতান্তর	-11.6025
নোর	-11.6026
ছিলো	-11.6028
▁ফোর	-11.6031
▁মৌমাছি	-11.6037
▁পপি	-11.6038
াঙ্গু	-11.6041
▁সিঁদুর	-11.6044
▁প্রত্ন	-11.6049
▁পাতাল	-11.6055
▁পুনরাবৃত্তি	-11.6056
▁উক্তি	-11.6058
▁যুদ্ধটি	-11.6062
▁মঞ্জুর	-11.6063
পট	-11.6063
সীমা	-11.6072
বৃত্ত	-11.6074
▁কয়েকশ	-11.6076
▁একধরণে	-11.6076
▁মৃৎশিল্প	-11.6082
▁দোল	-11.6088
▁শ্রোতাদ	-11.6096
বাচক	-11.6097
▁নম	-11.6097
ব্রত	-11.6098
াসের	-11.6099
ওয়ান	-11.6105
▁আস্	-11.6107
▁জরিমানা	-11.6111
▁দক্ষিণপূর্ব	-11.6114
▁মুসলমানের	-11.6117
▁in	-11.6117
▁ফ্যান	-11.6118
কিশোর	-11.6124
চালিত	-11.6125
▁কোনটি	-11.6127
গোতে	-11.6128
▁কাস	-11.6128
▁২৩৫	-11.6131
মন্দির	-11.6132
▁অসফল	-11.6135
পান	-11.6141
▁চাদর	-11.6145
▁সুগন্ধ	-11.6149
▁অপমান	-11.6153
▁সাম্যবাদ	-11.6155
▁পান্ডুলিপি	-11.6155
▁মর্ম	-11.6157
▁নারীকে	-11.6158
▁সোডা	-11.6159
▁আশ	-11.6159
▁প্রধানতম	-11.6165
▁খুঁটি	-11.6166
▁ধাওয়া	-11.6168
▁খোল	-11.6168
্রা	-11.6176
▁আকা	-11.6178
▁পশতু	-11.6178
▁পুর্বে	-11.6178
৯০৯	-11.6179
▁পরোক্ষ	-11.6182
▁বর্জন	-11.6185
তিহাসিক	-11.6186
▁অমল	-11.6187
▁ছাঁচ	-11.6188
▁ল্যাবরেটরি	-11.619
▁প্রামাণ্য	-11.6191
▁হাব	-11.6192
▁আড়াআড়ি	-11.6192
▁উৎখনন	-11.6192
▁এলএমজি	-11.6192
▁ক্যাথরিন	-11.6192
▁ডাউনলোড	-11.6192
▁ডাম্বলডোর	-11.6192
▁তেন্ডুলকর	-11.6192
▁পর্বতারোহী	-11.6192
▁পাকস্থলী	-11.6192
▁পিঁপড়া	-11.6192
▁পিরোজপুর	-11.6192
▁পুনর্ভবা	-11.6192
▁পূর্বসূরী	-11.6192
▁প্রবীণ	-11.6192
▁মুইজউদ্দিন	-11.6192
▁মূকাভিনয়	-11.6192
▁শাব্দিক	-11.6192
▁সংরক্ষন	-11.6192
▁সাংকেতিক	-11.6192
▁সাম্প্রদায়িক	-11.6192
▁সুদীর্ঘ	-11.6192
▁আচ্ছাদন	-11.6192
▁উদ্বাস্তু	-11.6192
▁উভচর	-11.6192
▁ঝিনুক	-11.6192
▁দমদম	-11.6192
▁নেত্রকোনা	-11.6192
▁বিঠোবা	-11.6192
▁হাইড্রোকার্বন	-11.6192
▁তেভাগা	-11.6192
▁মাদারীপুর	-11.6192
▁লেখালিখি	-11.6192
▁অগ্রদূত	-11.6192
▁অসহায়	-11.6192
▁ডগলাস	-11.6192
▁অলংকৃত	-11.6192
▁সালাহউদ্দিন	-11.6192
▁হারিকেন	-11.6192
▁মুয়াবিয়া	-11.6192
▁ফিলিপিনো	-11.6192
▁অনানুষ্ঠানিক	-11.6192
▁কণিকা	-11.6192
▁ডাটাবেজ	-11.6192
▁ইমোজি	-11.6192
▁দেওঘর	-11.6192
▁আলেক্সান্ডার	-11.6192
▁গোঁফ	-11.6192
▁রশীদ	-11.6192
▁সচেষ্ট	-11.6192
▁ভূপ্রকৃতি	-11.6192
▁নববর্ষ	-11.6192
▁ভয়ঙ্কর	-11.6192
▁ভালোবাসি	-11.6192
▁সারাবিশ্বে	-11.6192
▁অন্ধ্রপ্রদেশ	-11.6192
▁ইউরেনিয়াম	-11.6192
▁ব্লেড	-11.6192
▁আশঙ্কাজনক	-11.6192
▁উপাস্য	-11.6192
▁ওয়ারউইকশায়ার	-11.6192
▁কেলভিন	-11.6192
▁ডার্ক	-11.6192
▁অ্যান্ড্রু	-11.6192
▁মুন্না	-11.6192
▁বিকিনি	-11.6192
▁সম্রাজ্য	-11.6192
▁লরি	-11.6192
▁প্রামাণ্যচিত্র	-11.6192
▁কলাম্বিয়া	-11.6192
▁ভাষাপরিবার	-11.6192
▁আড্ডা	-11.6192
▁উচ্ছেদ	-11.6192
▁ল্যাম্ব	-11.6192
▁উপবৃত্তাকার	-11.6192
▁চেলসি	-11.6193
▁ফেরেন	-11.6193
▁স্তূপ	-11.6193
▁দরুন	-11.6193
▁রায়চৌধুরী	-11.6193
▁ব্যঙ্গ	-11.6193
▁আগরতলা	-11.6193
▁তালেবান	-11.6193
▁সলিল	-11.6193
▁শিখেছিলেন	-11.6193
▁ফ্লোরিডা	-11.6193
▁লক্ষ্যণীয়	-11.6193
▁শর্করা	-11.6193
▁বরুণ	-11.6193
▁বহুপদী	-11.6193
▁তওবা	-11.6193
▁কালীপূজা	-11.6193
▁মানবাধিকার	-11.6193
▁ইলিশ	-11.6193
▁ভঙ্গুর	-11.6194
▁পঙ্গু	-11.6194
▁গোয়ালপাড়া	-11.6194
▁সরদার	-11.6194
▁শাপলা	-11.6194
▁আউশ	-11.6194
▁কুঠি	-11.6194
▁জেদ্দা	-11.6194
▁ধর্মান্তরিত	-11.6194
▁বাল্য	-11.6194
▁এসএসসি	-11.6194
▁বাদুড়	-11.6194
▁রৈখিক	-11.6194
▁আইসোটোপ	-11.6194
▁স্বয়ংক্রিয়	-11.6194
▁পনির	-11.6195
▁ব্রণ	-11.6195
▁কাঞ্জি	-11.6195
▁বিক্ষিপ্ত	-11.6195
▁মেমোরি	-11.6195
মেল	-11.6196
▁শিরোপাধারী	-11.6196
▁স্টক	-11.6196
▁পারছেন	-11.6197
▁পড়বে	-11.6197
▁আলোড়ন	-11.6197
কোলা	-11.6197
▁তালিব	-11.6197
▁মহানন্দা	-11.6197
▁গাউস	-11.6197
▁ডালিম	-11.6198
▁পর্বতময়	-11.6198
▁বসিয়ে	-11.6198
▁দিগন্ত	-11.6198
▁কিলোগ্রাম	-11.6199
▁ডিম্বাকার	-11.6199
▁চন্দ্রনাথ	-11.6199
▁ত্রিবন্ধন	-11.6199
▁মংকে	-11.6199
▁মাওবাদী	-11.62
▁সেলিনা	-11.62
▁পর্ষদ	-11.62
▁বিছানায়	-11.6201
▁বেড়েছে	-11.6201
▁বিষুব	-11.6202
▁আধার	-11.6203
▁আটকানো	-11.6203
▁হারিস	-11.6203
▁ডাকত	-11.6203
▁নবান্ন	-11.6203
▁খোলে	-11.6203
▁বসান	-11.6203
▁লালমন	-11.6203
▁বুধ	-11.6204
▁সময়সূচী	-11.6204
▁দেখেছেন	-11.6204
▁অডিও	-11.6204
▁ডিজেল	-11.6205
▁আল্পস	-11.6206
▁উৎপত্তিস্থল	-11.6206
▁মহিষ	-11.6206
▁ফিল্ডস	-11.6206
▁শার	-11.6207
▁ক্ষমতালাভ	-11.6208
▁সমীর	-11.6208
▁সী	-11.6208
▁কাউন্সিলে	-11.6209
▁উম্মে	-11.621
ধারণ	-11.621
▁প্রখর	-11.6211
▁প্রশিক্ষিত	-11.6211
▁জন্মভূমি	-11.6211
▁বোর্ডিং	-11.6211
▁সর্বজন	-11.6212
▁উইলিয়ামস	-11.6212
▁বিশ্বস্ত	-11.6213
▁হ্যায়	-11.6214
▁রেই	-11.6215
▁গম্ভীরা	-11.6215
▁চাইলেন	-11.6216
▁ভূমিজ	-11.6217
▁বুঝাতে	-11.6218
▁হিমালয়ে	-11.6219
ন্দ	-11.6219
▁মরে	-11.6219
▁বেধে	-11.622
▁বহুদিন	-11.6221
▁পৌছান	-11.6224
▁আলোকিত	-11.6224
▁বলবিদ্যা	-11.6228
▁বিধায়ক	-11.6228
▁মাংসল	-11.6228
গেট	-11.6229
▁ডিভিশন	-11.6229
▁পরীক্ষ	-11.623
▁সংক্ষিপ্তকাল	-11.6231
▁কম্বল	-11.6231
্ন	-11.6234
▁কন্দ	-11.6235
জগতে	-11.6237
▁মেহতা	-11.6238
▁পাবেন	-11.6238
পর	-11.624
▁রূপকার	-11.6241
শ্	-11.6244
▁১৬৬	-11.6244
▁দেশবিভাগ	-11.6245
▁৩১১	-11.6246
▁লেনন	-11.6247
▁কান্না	-11.6249
ডার	-11.6252
▁অমিতা	-11.6258
▁মার্কসবাদ	-11.626
▁ঈসা	-11.6261
▁ওয়াহ	-11.6263
▁বড়দের	-11.6265
▁কায়রোতে	-11.6268
▁ঘুরি	-11.627
▁শাহ্	-11.627
▁জীবনকাল	-11.6271
▁নৃত্যে	-11.6272
▁গ্রামবাসী	-11.6272
ed	-11.6274
▁তালুক	-11.6275
▁বংশীয়	-11.6276
রেন	-11.6277
▁সরকারকে	-11.6277
▁আবির	-11.628
▁লেজার	-11.628
▁ধারাবাহিকের	-11.628
▁থাকবেন	-11.6282
▁মালয়েশিয়ায়	-11.6284
▁বিজয়া	-11.6287
সাই	-11.6287
▁এভারেস্ট	-11.6288
ওয়ার	-11.6289
▁ফাটল	-11.6289
▁মেহের	-11.6291
▁প্রস্তাবিত	-11.6292
▁নির্দেশক	-11.6293
▁অর্থনৈতিকভাবে	-11.6293
▁ইহুদিরা	-11.6295
▁অ্যান্ডি	-11.6297
▁মুহুর্তে	-11.6299
▁ইনকা	-11.6301
▁এটিতে	-11.6304
▁১৪০০	-11.6305
▁পুরি	-11.6305
▁মিডল	-11.6305
▁আপার	-11.631
▁লন	-11.6314
▁ইনস্টিটিউটে	-11.6316
▁৩৮টি	-11.6319
▁খোপ	-11.6319
▁সুন্দরবনে	-11.632
ক্কা	-11.6321
▁স্টোন	-11.6323
▁ক্লা	-11.6325
▁অবগত	-11.6325
▁কোরিয়ান	-11.6326
▁পুকুরে	-11.6327
▁৩৪টি	-11.6327
▁আহোমের	-11.6336
▁ওয়াং	-11.6337
▁মানিকগঞ্জ	-11.6337
▁জনি	-11.6337
▁বহুবচন	-11.6338
▁গড়িয়া	-11.6338
▁খাও	-11.6338
▁১৭তম	-11.6343
▁আলিয়া	-11.6345
▁তরুণদের	-11.6346
▁লাখের	-11.6349
০৮	-11.635
▁ভলি	-11.6353
▁মিটারে	-11.6356
▁ব্রুক	-11.6358
▁এথেন্স	-11.636
▁বোনা	-11.636
▁ওপারে	-11.6361
▁বাংকারে	-11.6363
চেন	-11.6363
▁মহারাজা	-11.6363
িদ	-11.6365
▁বেটা	-11.6369
▁মঞ্চনাটক	-11.6371
▁বাঁশের	-11.6384
▁নিকাশ	-11.6386
▁চাকরী	-11.6388
▁সুধা	-11.6388
থি	-11.6389
▁স্ত্রীদের	-11.639
▁ধীরগতির	-11.639
▁ব্যাপারটি	-11.6393
▁ডাকাতি	-11.6402
১০০	-11.6411
▁ব্র	-11.6415
▁সংস্কৃতে	-11.6415
্সের	-11.6417
▁মারতে	-11.642
▁ভোজন	-11.6423
রো	-11.6424
▁নাগা	-11.6425
▁উৎসবটি	-11.6425
▁আসেনি	-11.6428
▁পরিবারটি	-11.6435
▁অ্যাংল	-11.6435
▁পোষক	-11.6436
▁একাডেমিতে	-11.6439
▁হানা	-11.6442
কোট	-11.6444
▁জুলিয়া	-11.6448
ারের	-11.6451
▁বড়াল	-11.6451
চক্রে	-11.6452
▁ট্রে	-11.6453
▁নবি	-11.6453
▁কামড়ে	-11.6454
৬৭	-11.6458
▁মূলধারা	-11.6459
▁পৃষ্ঠদেশ	-11.646
ুরু	-11.6461
▁নাসা	-11.6467
▁বাঁধটি	-11.6467
▁শীর্ষস্থানে	-11.6467
▁গল্পগুলো	-11.6467
▁থাম	-11.6472
▁২০৫	-11.6474
িংটন	-11.6477
▁বিস্তারে	-11.6479
▁দরজাটি	-11.648
▁রমণীর	-11.6481
▁৩৫টি	-11.6486
▁কিলো	-11.6489
▁মেক	-11.6491
▁আলা	-11.6497
▁ন্যা	-11.65
▁রয়েছেঃ	-11.6501
▁ফিজিক	-11.6508
▁ড্রাইভার	-11.6508
▁১৯৬	-11.6509
সিসি	-11.6509
▁বেগুন	-11.651
▁প্যা	-11.6513
▁ড্রাম	-11.6521
▁বহরমপুর	-11.6523
▁আলোতে	-11.6523
▁শট	-11.6523
▁ফিনল্যান্ডে	-11.6525
▁নিষ্কাশন	-11.6529
▁গদ্যে	-11.653
▁দুর্	-11.6531
ঞ্চ	-11.6532
▁পশ্চাৎ	-11.6536
▁t	-11.6539
▁কুচি	-11.654
▁এপি	-11.654
▁বিতর্কে	-11.6543
▁ঋতুর	-11.6546
▁নাটালি	-11.6547
▁মিশিগান	-11.655
ান্ট	-11.6551
বাই	-11.6553
▁ছোড়া	-11.656
▁এমনি	-11.6561
▁মৌলটি	-11.6565
ভেন	-11.6565
টেন	-11.6568
▁নোয়া	-11.657
▁ডানদিকে	-11.6571
▁১২৭	-11.6572
য়েন	-11.6573
▁শিল্পকলার	-11.6581
▁নিঃসরণ	-11.6582
▁নয়া	-11.6583
▁অকাল	-11.6587
▁এমি	-11.659
▁ঝরা	-11.659
▁অপরাধে	-11.6592
▁জেলাতে	-11.6593
▁মেয়াদকালে	-11.6593
বর্ণ	-11.6595
▁হিন্দিতে	-11.6602
▁মিনা	-11.6603
▁স্থানীয়রা	-11.6603
▁লৌহ	-11.6603
▁শিন	-11.6603
▁ভুটানে	-11.6613
▁উপজাত	-11.6616
▁চারি	-11.6618
▁পুরুষরা	-11.6618
এল	-11.6618
▁২২১	-11.6619
দেবী	-11.6621
▁তত্ত্বাবধান	-11.6627
▁মন্দা	-11.6634
▁রদ	-11.6636
▁অবসরে	-11.6643
▁ববি	-11.6645
▁অথর্ববেদ	-11.6651
▁ফলাফলে	-11.6653
▁হৃদ	-11.6664
▁জৈনধর্ম	-11.6667
ষ্ঠ	-11.6671
ডিং	-11.6673
▁শতাংশের	-11.6673
▁পূর্ববঙ্গ	-11.6677
শের	-11.6677
▁বরফে	-11.6677
কী	-11.6678
▁মাত	-11.668
▁লোকটি	-11.6683
▁ঈশা	-11.6689
▁সিড	-11.669
ue	-11.6691
▁ডিরেক্টর	-11.6693
▁ফরিদ	-11.6694
▁একশ	-11.6697
▁কক্ষপথে	-11.6698
▁বিবর্তনে	-11.67
▁যোগী	-11.6702
▁বাইরেও	-11.6707
▁বাস্তবায়নে	-11.6708
▁বিকাল	-11.6711
▁ধাম	-11.6712
▁নরক	-11.6717
▁কুলি	-11.6724
▁পেয়েছি	-11.6724
▁স্কোয়াড	-11.6726
▁ভিত	-11.6726
▁ত্বকে	-11.6732
▁সুপ্রাচীন	-11.6734
▁আলোয়	-11.6735
▁লেস	-11.6737
▁সিনেটে	-11.6737
ফ্	-11.6738
▁শঙ্করের	-11.6742
▁পিক	-11.6743
গুপ্ত	-11.6744
চর্চা	-11.6746
▁সাবমেরিন	-11.6747
দ্রব্য	-11.6748
▁কামার	-11.6749
সংলগ্ন	-11.6749
▁কাসিম	-11.6752
▁বারাণসী	-11.6754
▁পিউ	-11.6754
▁খাট	-11.6755
▁২৮৫	-11.6755
এস	-11.6756
▁হাশেম	-11.6758
রিক	-11.6758
রফে	-11.6761
▁অস্ট্র	-11.6761
বিন্যাস	-11.6763
গের	-11.6763
▁২৪০	-11.6766
▁নাসিম	-11.6767
▁অনুকরণ	-11.6771
▁বিধায়	-11.6778
▁খাম	-11.678
ুত	-11.678
হাজার	-11.678
▁তারাও	-11.6784
▁গাড়িটি	-11.6785
জিয়া	-11.6785
বাহিত	-11.6786
▁জুতো	-11.6789
▁৩৬৫	-11.6792
▁পুথি	-11.6794
▁২৫৬	-11.6794
▁রাঢ়	-11.6795
▁কায়সার	-11.6796
▁ভগ্ন	-11.68
▁শালবন	-11.6801
▁শুদ্ধ	-11.6802
শাহ	-11.6803
বিধি	-11.6803
জিত	-11.6807
াপন্ন	-11.6813
▁অন্তর্ভুক্তি	-11.6815
▁বিশেষ্য	-11.6815
▁স্বরলিপি	-11.6815
▁তুলেছে	-11.6816
▁নরেন্দ্র	-11.6816
▁স্টিভেন	-11.6816
▁ব্রুস	-11.6816
▁আঁকতে	-11.6816
▁পুণ্য	-11.6817
▁nowiki	-11.6817
▁অপরাজেয়	-11.6817
▁অসম্পৃক্ত	-11.6817
▁আঁকাবাঁকা	-11.6817
▁আইজাক	-11.6817
▁আফরোজ	-11.6817
▁উজবেক	-11.6817
▁ক্রেডিট	-11.6817
▁পুলিৎজার	-11.6817
▁প্রতিনিয়ত	-11.6817
▁ফাতেমীয়	-11.6817
▁ভ্রাম্যমা	-11.6817
▁সুলায়মান	-11.6817
▁স্যাটেলাইট	-11.6817
িধানিক	-11.6817
▁জগদীশ	-11.6817
▁ফৌজদার	-11.6817
▁রেফারী	-11.6817
▁কর্ণফুলি	-11.6817
▁গ্যালারী	-11.6817
▁নিমন্ত্রণ	-11.6817
ww	-11.6817
▁অভিযোজন	-11.6817
▁এলএনজি	-11.6817
▁গাইবান্ধা	-11.6817
▁নূতন	-11.6817
▁আসবাবপত্র	-11.6817
▁ফাঁপা	-11.6817
▁চেঙ্গিস	-11.6817
▁সুরাবায়া	-11.6817
▁ঝিনাইদহ	-11.6817
▁ট্রান্সভাল	-11.6817
▁অব্যহত	-11.6817
▁ডোনাল্ড	-11.6817
▁পৃষ্ঠপাখনা	-11.6817
▁শোভাযাত্রা	-11.6817
▁অগ্রযাত্রা	-11.6817
▁মৃদু	-11.6817
▁শামীম	-11.6817
▁গদাধর	-11.6817
▁গর্ভধারণ	-11.6817
▁ত্রৈ	-11.6817
▁কাশফুল	-11.6817
▁চৈনিক	-11.6817
▁লাইগার	-11.6817
▁মর্গান	-11.6817
▁পথপ্রদর্শক	-11.6817
▁রেচন	-11.6817
▁হনুমান	-11.6817
▁দূর্যোগ	-11.6817
▁ভেন্যু	-11.6817
▁বহিরাগত	-11.6817
▁ডেইলি	-11.6817
▁আলবেনিয়া	-11.6817
▁প্রমিলা	-11.6817
▁রুসো	-11.6817
▁দায়বদ্ধ	-11.6817
▁সলোমন	-11.6817
▁কার্গো	-11.6817
▁ধন্যবাদ	-11.6817
▁টাইটেল	-11.6817
▁কর্মসূচি	-11.6817
▁লাগছে	-11.6817
▁উপস্থাপিত	-11.6817
▁নবাগত	-11.6817
▁বঙ্গভঙ্গ	-11.6817
▁লীলাবতী	-11.6817
▁তরকারী	-11.6817
▁দড়ি	-11.6817
▁জীববৈচিত্র্য	-11.6817
▁কোঠা	-11.6817
▁বলশেভিক	-11.6817
▁দ্বায়িত্ব	-11.6818
▁মাইলফলক	-11.6818
▁নাসিরউদ্দিন	-11.6818
▁বনমুরগী	-11.6818
▁পেঁপে	-11.6818
▁শহরতলি	-11.6818
▁শরণার্থী	-11.6818
▁শাসনকর্তা	-11.6818
▁কৌশিক	-11.6818
▁১৭২	-11.6818
▁রেস্তোরাঁ	-11.6818
▁রাজকন্যা	-11.6818
▁গজনভি	-11.6818
▁নলডাঙ্গা	-11.6818
▁সৃষ্টিকর্তা	-11.6818
▁নরবলি	-11.6818
▁চোল	-11.6818
▁ভাইসরয়	-11.6818
▁কষ্টকর	-11.6818
▁সুয়েজ	-11.6818
▁সার্বিয়া	-11.6818
▁রওশন	-11.6818
▁সাহিব	-11.6818
র্থনা	-11.6819
▁প্ৰতি	-11.6819
▁ওসাকা	-11.6819
▁ধর্মবিশ্বাস	-11.6819
▁কুড়িগ্রাম	-11.6819
▁পোড়ানো	-11.6819
▁পুরুত্ব	-11.6819
▁বলধা	-11.6819
▁ছাউনি	-11.6819
▁পেঁয়াজ	-11.6819
▁মানবজাতি	-11.6819
▁হুসেন	-11.682
▁পুরোধা	-11.682
▁হিশাম	-11.682
▁টিউব	-11.682
▁খননকার্য	-11.682
▁সংবেদী	-11.682
▁নন্দিনী	-11.682
▁রাক্ষস	-11.682
▁রূপকথা	-11.682
▁সংকোচন	-11.682
▁আদমশুমারী	-11.682
▁ঘাটতি	-11.6821
▁সঙ্গীতজ্ঞ	-11.6821
▁সুরক্ষা	-11.6821
▁সীসা	-11.6821
▁পিগমি	-11.6821
▁রুনা	-11.6821
োম	-11.6821
▁পালনকর্তা	-11.6821
▁অর্চনা	-11.6822
▁চাটনি	-11.6822
▁শিমুল	-11.6822
▁ভান্ডার	-11.6822
▁ন্যাটো	-11.6822
▁ইউরোপিয়ান	-11.6823
▁মুখপত্র	-11.6824
▁গর্বিত	-11.6824
▁গ্যারি	-11.6824
▁নিউট্রিনো	-11.6824
▁চৌরঙ্গী	-11.6824
▁কাঠিন্য	-11.6824
▁জীবনযাত্রা	-11.6824
▁আহমাদ	-11.6824
▁ব্যাপ্তি	-11.6825
▁আজিমপুর	-11.6825
▁দৈত্য	-11.6825
▁হুজুর	-11.6825
▁১৮৪৫	-11.6825
▁মতোন	-11.6826
▁ছাত্রলীগের	-11.6826
▁স্যুট	-11.6826
▁নিরীক্ষা	-11.6826
▁সুধীর	-11.6827
▁বাংলামতি	-11.6827
▁কুফা	-11.6827
▁একগুচ্ছ	-11.6827
▁নাম্বারটা	-11.6827
▁জামাইকা	-11.6828
▁নজির	-11.6828
▁গ্যালিলিও	-11.6828
▁পঠিত	-11.6828
▁উরাল	-11.6828
▁কানে	-11.6829
▁পিতল	-11.6829
▁বারুদ	-11.6829
▁স্ট্যান্ড	-11.6829
▁পোলীয়	-11.6829
▁পরজীবী	-11.683
কৌণিক	-11.683
▁টিপু	-11.6831
▁কথ্য	-11.6831
▁রাষ্ট্রভাষা	-11.6831
▁খেলবে	-11.6831
▁৬১৫	-11.6831
▁এফএম	-11.6831
▁প্রহরী	-11.6832
▁চ্যাম্পিয়নশিপে	-11.6832
▁বাঁচাতে	-11.6833
▁জাখসেন	-11.6833
▁দারুন	-11.6833
▁চুখা	-11.6833
▁নদীপথে	-11.6833
▁লজ্জা	-11.6834
▁নির্বিশেষ	-11.6834
▁দৃঢ়তা	-11.6835
▁মঙ্গোলীয়	-11.6836
▁চাননি	-11.6836
▁জাকির	-11.6838
▁নৈতিকতা	-11.6838
▁বেসবল	-11.6838
▁বর্মন	-11.6841
▁নু	-11.6841
▁সেমিস্টার	-11.6842
▁সন্ত্রাসী	-11.6843
▁তির	-11.6843
▁জীবনচক্র	-11.6844
▁রিচি	-11.6844
▁খোলস	-11.6846
▁পাগলা	-11.6846
▁স্ট্রোক	-11.6846
▁ওয়েলসে	-11.6846
▁বাবেল	-11.6848
▁নোড	-11.6848
▁সুত্র	-11.6848
▁অনেকক্ষণ	-11.6849
▁হেপাটাই	-11.6849
সাস	-11.6851
▁খচিত	-11.6851
▁সচেতনতা	-11.6852
▁হুয়াং	-11.6852
os	-11.6855
▁গল্পকার	-11.6856
▁ওসমানী	-11.6856
▁খোলেন	-11.6857
▁১২৯	-11.686
▁উৎপাদনকারী	-11.6861
ক্ষিপ্ত	-11.6864
▁রিচ	-11.6864
▁দমে	-11.6868
নায়ক	-11.6868
▁খুনি	-11.6869
▁চলন	-11.687
▁প্রসন্ন	-11.6871
▁জগত	-11.6874
▁গগনা	-11.6874
▁মেয়াদী	-11.6876
▁পরামর্শে	-11.6876
▁পোহা	-11.6878
▁কাটানো	-11.6879
▁মরুভূমিতে	-11.6881
▁২৪২	-11.6882
▁বাইট	-11.6882
▁আনারস	-11.6886
▁প্রাণকেন্দ্রে	-11.6886
▁বাজনা	-11.6887
ফুল	-11.6888
▁শিঙ	-11.6888
▁ঈ	-11.6889
▁পক্ষী	-11.689
▁নির্ভরযোগ্য	-11.6892
▁গ্রাউন্ডে	-11.6893
▁শব্দটা	-11.6894
▁জেট	-11.6896
▁২৯১	-11.6898
▁জয়নগর	-11.6899
▁গাইড	-11.69
▁ছাত্রজীবন	-11.69
হারে	-11.6902
▁স্তবক	-11.6904
▁ছেলেবেলায়	-11.6904
▁প্রয়োগে	-11.6904
▁মেইল	-11.6906
মিন	-11.6908
▁আসামী	-11.691
▁অলস	-11.6912
▁টোকিওতে	-11.6913
াকৃতি	-11.6914
▁হ্যালি	-11.6917
▁ছায়াছবিতে	-11.692
▁গ্রুব	-11.6921
▁পাইন	-11.6923
▁সম্পৃক্ততা	-11.6923
▁ছবিতেও	-11.6924
▁গ্রেস	-11.6924
থুন	-11.6928
▁অঞ্চলসমূহ	-11.6929
▁একমাস	-11.6931
▁ইউরোর	-11.6934
▁জুলিয়ান	-11.6934
ডিক্যাল	-11.6936
▁জেরুজালেমে	-11.6937
▁তাঁহার	-11.6937
▁ইসলামিয়া	-11.6938
▁বেক	-11.6939
▁ইষ্ট	-11.694
▁জেলাগুলি	-11.694
▁কাটাতে	-11.6941
▁নির্মম	-11.6941
▁লোয়া	-11.6943
▁জায়গাটা	-11.6947
▁তিমুর	-11.6949
▁দেয়ালগুলো	-11.695
▁গ্লুকোজ	-11.6951
▁সায়েন্স	-11.6955
▁ওয়েভ	-11.6955
▁মুজিবনগর	-11.6955
▁দেশী	-11.6956
▁নৈপুণ্য	-11.6957
▁অনুচ্ছেদ	-11.6958
▁রেলপথটি	-11.6958
▁জলযান	-11.6959
▁আজিম	-11.6965
▁আবা	-11.6965
▁ইয়েমেনে	-11.6966
▁ইউনি	-11.697
▁টোল	-11.6972
ক্যাল	-11.6974
▁গল্	-11.6974
▁পিছন	-11.6974
▁উজবেকিস্তানে	-11.6974
▁পৃষ্ঠে	-11.6977
াট	-11.6981
▁টয়ো	-11.6983
▁পোল্যান্ডে	-11.6987
আত	-11.6989
▁বর্ণনায়	-11.6991
▁সুমাত্রা	-11.6992
▁ওঠেনি	-11.6993
▁মহী	-11.6995
ওএস	-11.6995
▁দক্ষিনে	-11.6997
▁সংযোগস্থল	-11.6997
▁রিলে	-11.6997
▁অম্লধর্ম	-11.7003
দায়ক	-11.7004
▁ফেরি	-11.7008
▁সিল	-11.7008
▁সূচক	-11.7009
▁দাতা	-11.701
▁মেস	-11.7012
f	-11.7015
এইচ	-11.7021
▁ভিডিওতে	-11.7023
▁টেন	-11.7025
▁সংগ্রহকারী	-11.7025
পাঁকা	-11.703
▁বিলম্ব	-11.703
▁অরুণ	-11.7034
▁হরিবংশ	-11.7035
ফিক	-11.7041
▁ইনিংসটি	-11.7042
▁যু	-11.7043
দানের	-11.7044
▁পাজ	-11.7045
▁উমরা	-11.7052
▁নাসের	-11.7053
▁মঙ্গোলিয়ার	-11.7053
▁ড্রামার	-11.7055
▁খামারে	-11.7055
▁বাস্তু	-11.7057
▁ইথার	-11.7057
সারি	-11.7058
▁বিহারী	-11.7059
▁হেরাত	-11.706
▁আসি	-11.7064
▁দ্রুততা	-11.7067
▁বাইক	-11.7067
▁১৩৩	-11.7074
গোত্রীয়	-11.7075
▁২১শ	-11.7082
▁পৃষ্ঠার	-11.7086
▁হাঁটত	-11.7087
▁প্রতীকী	-11.7088
মজাদ	-11.7089
▁ফলকে	-11.7095
কারি	-11.7096
▁জামায়াতে	-11.7099
▁উত্তরদিকে	-11.71
▁১৫২	-11.71
▁লাইসিনি	-11.71
ব্যবস্থা	-11.71
▁উচ্চশিক্ষার	-11.71
▁ক্রীড়ায়	-11.7102
▁ব্রজ	-11.7104
▁দপ্তরে	-11.7106
ীত	-11.7115
োগ্রাফি	-11.7118
▁বাড়	-11.7119
▁মিছিলে	-11.712
▁চেঁচাল	-11.712
▁লোককে	-11.7121
to	-11.7122
র্গ	-11.7127
▁আত্মরক্ষা	-11.7128
▁১৩৯	-11.7129
য়াত	-11.7133
▁পরলোক	-11.7138
▁প্রিন্ট	-11.714
বর্ধন	-11.714
▁প্রয়োগের	-11.7142
ালি	-11.7143
▁বোনকে	-11.7152
▁অ্যাস	-11.7153
▁জংগলে	-11.7155
▁কিউব	-11.7159
▁প্রজাপতির	-11.7167
▁বলদ	-11.7167
▁সাইফ	-11.7168
▁সমতা	-11.717
সম	-11.717
▁আনাম	-11.7171
▁ট্রেক	-11.7173
▁গণপরিষদে	-11.7174
▁সেঞ্চুরির	-11.7176
▁শিল্পাঞ্চল	-11.7177
▁গৌরী	-11.7178
▁প্রিন্টার	-11.7178
▁যাবো	-11.7181
▁বিকেলে	-11.7182
▁মিলানে	-11.7184
▁খাস	-11.7184
▁অর্ধেকের	-11.7184
সিং	-11.719
▁বন্দরটিতে	-11.719
▁সিনেটর	-11.7191
▁৩৩৮	-11.7192
টাস	-11.7193
▁আরাম	-11.7194
▁অ্যান্টি	-11.7198
▁অ্যাপ	-11.72
▁থান	-11.72
▁মঙ্গোলিয়া	-11.7201
▁ফ্রন্ট	-11.7201
▁সেভেন	-11.7202
▁নাত	-11.7204
৮১৫	-11.7205
▁১নং	-11.7205
বোন	-11.7206
গোষ্ঠীর	-11.7211
▁দক্ষিণী	-11.7216
ফাদার	-11.7218
▁ঘাসবনে	-11.7219
▁ক্রিম	-11.7219
▁ঝাড়খণ্ড	-11.7221
▁মহাজ	-11.7222
▁ভঙ্গি	-11.7222
্ক্রা	-11.7224
লেট	-11.7225
▁২২৮	-11.7225
▁কথাগুলো	-11.723
▁কাফেলা	-11.723
▁গ্রো	-11.7236
▁কিল	-11.7239
▁তুল	-11.7239
▁আজিজু	-11.7239
▁চতুর	-11.7241
▁তাহার	-11.7242
▁প্রসেস	-11.7243
▁রুমে	-11.7245
▁কাজকর্মে	-11.7247
▁ছাতা	-11.7251
▁ল্যান্ড	-11.7251
▁অগ	-11.7254
▁হাউসে	-11.7255
▁ওয়ার	-11.7258
▁অনা	-11.7259
▁পরিকল্পনার	-11.7263
▁n	-11.7265
ালয়	-11.7266
▁গানই	-11.7267
পু	-11.7268
▁মাক	-11.7269
পৃষ্ঠ	-11.727
▁চরিত্রগুলো	-11.727
প্প	-11.7275
োপ	-11.7281
য়ায়	-11.7281
▁বোকা	-11.7283
▁পুত্রসন্তান	-11.7283
সিয়া	-11.7284
▁ড্রামা	-11.7288
▁কার্যক্রমে	-11.7289
▁রশিদি	-11.7291
▁বৎসরের	-11.7291
▁মুর্শিদাবাদে	-11.7292
▁গ্রাফ	-11.7293
▁গনি	-11.7296
▁হিন্দুধর্মে	-11.7296
গতিশীল	-11.7297
▁বক্ষ	-11.7298
বী	-11.7299
▁শাখাটি	-11.7302
ীরা	-11.7306
ধুয়ে	-11.7309
▁ছাড়েন	-11.7313
ওয়ার্ডটি	-11.7314
প্রান্তে	-11.7315
▁স্তম্ভটি	-11.7316
▁উজবেকিস্তান	-11.7318
▁বনজ	-11.7318
িজম	-11.7322
▁দম	-11.7323
▁বৈদ্য	-11.7323
▁ফেসবুক	-11.7325
▁রোগটি	-11.7326
▁পিছ	-11.7333
▁উপপ্রজাতির	-11.7336
▁রাবার	-11.7337
▁শাসকের	-11.7337
জিয়ান	-11.7339
▁কোকো	-11.7345
▁যৌবনে	-11.7351
্বা	-11.7352
▁বিক্রমপুরে	-11.7357
▁আধ	-11.7358
▁উদ্	-11.7363
▁লক	-11.7363
▁আফ	-11.7365
়	-11.7366
▁মালবাহ	-11.7368
▁নিয়মে	-11.7375
▁একদিকে	-11.7376
▁অ্যাপ্লিকেশন	-11.7376
▁বাব	-11.738
▁সরবরাহের	-11.738
▁রুই	-11.7382
ভেল	-11.7384
▁সামি	-11.7386
▁সংস্থান	-11.7386
▁উটের	-11.7388
ভাস	-11.7388
▁সাইপ্রাস	-11.7389
▁উর	-11.739
এক্স	-11.739
সীন	-11.7394
▁প্রজেক্ট	-11.7394
লাইট	-11.7401
প্রকাশ	-11.7403
▁রশি	-11.7405
ম্ব	-11.7405
▁প্রত্য	-11.7406
▁প্রেমিক	-11.741
▁প্রাণকেন্দ্র	-11.7412
কৃষ্ণ	-11.7412
▁গুরুর	-11.7413
▁g	-11.7413
B	-11.7413
স্বরুপ	-11.7413
▁রাজাকে	-11.7414
সমৃদ্ধ	-11.7417
▁হিউ	-11.7417
▁৫৪০	-11.7417
বাংলা	-11.7417
▁দেখ	-11.7419
চ্চ	-11.7421
▁পড়	-11.7423
ভারতীয়	-11.7424
▁১৫৪	-11.7424
▁বুঝা	-11.7424
▁নিয়ন্ত্রণাধীন	-11.7426
স্মরণীয়	-11.7427
▁পঞ্চাশের	-11.7431
▁ধর্মমত	-11.7432
▁১৩০০	-11.7433
▁আদর	-11.7434
▁ট্যুর	-11.7436
▁ডিপ	-11.7437
▁কৈবর্ত	-11.7437
▁ইপ	-11.7439
▁খোদা	-11.744
ভান	-11.7443
▁কাঠা	-11.7445
▁রাখাল	-11.7446
▁প্যাভিলিয়ন	-11.7446
▁পদকে	-11.7448
▁সাবা	-11.7448
▁বর্নের	-11.745
পক্ষে	-11.745
▁এন্টি	-11.7453
কিয়ে	-11.7455
▁অসুর	-11.7459
জাই	-11.746
▁শান্তিপূর্ণ	-11.7461
▁ধর্মনিরপেক্ষ	-11.7463
▁মুর্শিদ	-11.7465
▁নেদারল্যান্ড	-11.7468
▁তিনদিন	-11.7474
▁দেখিয়েছে	-11.7476
▁ইন্ডাস্ট্রি	-11.7476
▁দাম্পত্য	-11.7477
▁উইকি	-11.7478
▁প্রয়াস	-11.7479
▁দাঁড়ান	-11.7479
▁ঝাও	-11.7479
ক্ষুব্ধ	-11.748
▁ফেলেছি	-11.748
▁হোলি	-11.7481
▁২১৬	-11.7482
▁খাগান	-11.7483
▁অযৌ	-11.7483
▁মীমাংসা	-11.7483
▁প্লুটো	-11.7483
নর্দাম্পটনশায়ার	-11.7484
▁অনবদ্য	-11.7484
▁অনস্বীকার্য	-11.7484
▁অলঙ্করণ	-11.7484
▁আইইউসিএন	-11.7484
▁ইন্টারমিডিয়েট	-11.7484
▁কথোপকথন	-11.7484
▁কর্ণফুলী	-11.7484
▁কার্নেগী	-11.7484
▁ক্যাঙ্গারু	-11.7484
▁ক্যান্টারবারি	-11.7484
▁ছাব্বিশ	-11.7484
▁জাফনা	-11.7484
▁থিয়েনচিন	-11.7484
▁দণ্ডায়মান	-11.7484
▁নিউগিনি	-11.7484
▁নিঝুম	-11.7484
▁পোর্শা	-11.7484
▁প্রযোজিত	-11.7484
▁বঙাইগাঁও	-11.7484
▁রাধারমণ	-11.7484
▁শৌখিন	-11.7484
▁সোয়েটার	-11.7484
▁হিরণ্যকশিপু	-11.7484
▁আগন্তুক	-11.7484
▁চাঁপাইনবাবগঞ্জ	-11.7484
▁পতৌদি	-11.7484
▁অ্যাকুইনো	-11.7484
▁আঁইশ	-11.7484
▁নিবেদন	-11.7484
▁নেতৃবৃন্দ	-11.7484
▁ফেরেশতা	-11.7484
▁মুশফিক	-11.7484
▁আকাশচুম্বী	-11.7484
▁ইয়াহিয়া	-11.7484
▁কুস্তিগীর	-11.7484
▁ডায়োড	-11.7484
▁ইসহাক	-11.7484
▁কার্পেট	-11.7484
▁ঘনবসতিপূর্ণ	-11.7484
▁মুজাহিদ	-11.7484
▁তুলসী	-11.7484
▁পরিচর্যা	-11.7484
▁সংকুচিত	-11.7484
নির্ণায়ক	-11.7484
▁আবরাহা	-11.7484
▁গিলবার্ট	-11.7484
▁ফ্রাংক	-11.7484
▁কনডম	-11.7484
▁সীতাকুণ্ড	-11.7484
▁ভোঁতা	-11.7484
▁অ্যাপোলো	-11.7484
▁হকচকিত	-11.7484
▁উচ্চারিত	-11.7484
▁বহুভুজ	-11.7484
▁হরিশচন্দ্র	-11.7484
▁বিটুমিন	-11.7484
▁হুবাল	-11.7484
▁প্রণাম	-11.7484
▁চ্যাপলিন	-11.7484
▁মুসল্লি	-11.7484
▁দৃষ্টিনন্দন	-11.7484
▁রিক্সা	-11.7484
▁পরিবেষ্টিত	-11.7484
▁আশ্চর্যজনক	-11.7484
▁পাচঁ	-11.7484
▁ভগ্নাংশ	-11.7484
▁ভেজে	-11.7484
▁জগমোহন	-11.7484
▁মহাকাশযান	-11.7484
▁বোতল	-11.7484
▁রেলসেতু	-11.7484
▁স্মৃতিস্তম্ভ	-11.7484
▁পদমর্যাদা	-11.7484
▁সুন্নত	-11.7484
▁কসবা	-11.7484
▁কোচবিহার	-11.7484
▁নোঙ	-11.7484
▁ফ্রাঙ্কলিন	-11.7484
▁সাক্ষ্য	-11.7484
▁ইউরেনাস	-11.7484
▁নীলকণ্ঠ	-11.7484
▁টিস্যু	-11.7484
▁ইন্টেল	-11.7484
▁জাস্টিন	-11.7484
▁হিউয়েন	-11.7484
▁কর্কশ	-11.7484
▁ট্যাগ	-11.7485
▁রেসলিং	-11.7485
▁শিশুশিল্পী	-11.7485
▁নিউট্রন	-11.7485
▁গ্রাফিক্স	-11.7485
▁বাঁটুল	-11.7485
▁কাইদু	-11.7485
▁বৈচিত্র্যময়	-11.7485
▁নির্বাচক	-11.7485
▁উন্মাদ	-11.7485
▁নির্বাক	-11.7485
▁গরুড়	-11.7485
▁গ্রন্থাকারে	-11.7485
▁প্যালেস	-11.7485
▁এ্যালবাম	-11.7485
▁যাকাত	-11.7485
▁সত্যেন্দ্রনাথ	-11.7486
▁টুরিং	-11.7486
▁ছাত্রীনিবাস	-11.7486
▁সিপাহী	-11.7486
▁সিকিম	-11.7486
▁প্ৰকাশ	-11.7486
▁ব্যোমকেশ	-11.7486
▁ঢলে	-11.7486
▁কতক্ষণ	-11.7486
▁প্ৰায়	-11.7486
▁আযম	-11.7487
▁কোহলি	-11.7487
▁সুরেন্দ্রনাথ	-11.7487
▁অনুর্ধ	-11.7487
▁হানাদার	-11.7487
▁নৃত্যশিল্পী	-11.7487
▁বৈদ্যনাথ	-11.7487
▁কামিল	-11.7487
▁প্লাজা	-11.7487
▁কঙ্গো	-11.7487
▁উচ্চাঙ্গ	-11.7487
▁বিএসসি	-11.7488
▁চিত্রকর	-11.7488
▁ইঁট	-11.7489
▁মাজুলী	-11.7489
ভ্	-11.7489
▁হাজং	-11.7489
▁অজ্ঞান	-11.749
▁মরিয়া	-11.7491
▁ঝাড়	-11.7491
▁অবতল	-11.7491
▁বর্জ্য	-11.7491
▁ইমেজ	-11.7491
▁প্রবৃদ্ধি	-11.7491
▁বাড়ার	-11.7492
▁নিচতলায়	-11.7492
▁সমাহার	-11.7492
▁রকিব	-11.7492
▁ধুম	-11.7493
▁দুষ্ট	-11.7493
▁দলবদ্ধভাবে	-11.7494
▁পেত্রা	-11.7494
▁স্থাপত্যে	-11.7494
▁পাচার	-11.7495
▁একইরকম	-11.7495
▁কুইন্স	-11.7495
▁জীবনধারণ	-11.7495
▁পরমাত্মা	-11.7495
▁কর্তব্য	-11.7495
▁যোগসূত্র	-11.7497
▁সরকারপ্রধান	-11.7498
▁স্থানীয়দের	-11.7498
▁ভাঁটা	-11.7498
▁বলল	-11.75
▁আসিফ	-11.75
▁কাই	-11.75
▁শন	-11.75
▁ব্রেট	-11.75
▁ভৌতিক	-11.7501
▁উচ্চতাবিশিষ্ট	-11.7501
▁ফেয়ার	-11.7501
▁১৭৯৭	-11.7501
▁ভঙ্গীমায়	-11.7503
▁উপজাতীয়	-11.7503
▁কামরা	-11.7503
▁স্টেইন	-11.7504
▁মামার	-11.7504
▁করাচী	-11.7505
▁ফাইন	-11.7505
▁মোহিনী	-11.7505
▁এন্ডারসন	-11.7505
▁রূপভেদ	-11.7505
▁ভট	-11.7505
▁উপকার	-11.7507
▁২১৯	-11.7507
▁প্রথাগতভাবে	-11.7507
▁নর্মান	-11.7508
▁চন্দন	-11.7508
▁জামাতা	-11.7509
▁তিলক	-11.751
▁আক্তার	-11.751
▁কর্মস্থল	-11.7512
▁কতটা	-11.7512
ld	-11.7512
▁নারায়ন	-11.7514
▁আটবার	-11.7514
▁রাজকুমারী	-11.7514
▁টার্মিনাস	-11.7515
▁চুম্বক	-11.7515
▁লতি	-11.7515
▁লাইভ	-11.7516
ওয়াইস	-11.7516
▁ডীন	-11.7516
▁ভরত	-11.7516
▁বিবর	-11.7516
▁ঊ	-11.7517
▁কাঁপ	-11.7517
▁হ্যান	-11.7517
পায়া	-11.7518
▁আপেক্ষিকতা	-11.7519
▁স্থিত	-11.7521
▁আজারবাইজানি	-11.7521
▁পোলক	-11.7523
▁হচ্ছেঃ	-11.7524
▁সারাজীবন	-11.7524
▁সেনানিবাস	-11.7524
▁সমর্থিত	-11.7525
▁সত্ব	-11.7526
৮৮৯	-11.7526
▁ফাজিল	-11.7527
▁মহাবিদ্যালয়টি	-11.7527
▁আলোকচিত্রী	-11.7528
ুন্নেসা	-11.7529
▁১৮১	-11.753
মনি	-11.753
▁মনোহরা	-11.7531
▁জাগ্র	-11.7531
▁প্রয়োজনীয়তা	-11.7531
▁১৮২৫	-11.7531
▁কলিন	-11.7536
▁অর্থহীন	-11.7537
▁বর্মী	-11.7538
▁ব্র্যাক	-11.754
▁ব্রহ্মার	-11.7541
▁জুরাস	-11.7544
▁বাহা	-11.7545
▁খে	-11.7547
▁কেয়ার	-11.7547
▁জলদস্যুতা	-11.7548
▁মেরুদণ্ড	-11.7548
▁কিক	-11.7549
▁বিমলা	-11.755
▁বাণিজ্যে	-11.7552
▁৬০টি	-11.7556
▁উনার	-11.756
▁শিরাজ	-11.7566
▁ফ্রুট	-11.7568
▁ওক	-11.757
▁বলত	-11.7573
▁বিদ	-11.7574
▁ওয়েবসাইটে	-11.7576
▁নেসা	-11.7578
▁সকলকে	-11.7581
▁জড়ো	-11.7581
▁হজম	-11.7584
▁সরণি	-11.7586
▁ভূমিহীন	-11.7588
▁হামবুর্গ	-11.759
▁বার্থ	-11.759
▁আলেক্স	-11.7592
▁২২২	-11.7593
বাড়িতে	-11.7594
৪১	-11.7594
▁আং	-11.7595
▁বিকৃতি	-11.7596
▁কর্মীরা	-11.7597
▁হিটে	-11.7597
াকে	-11.7601
▁নেভা	-11.7601
▁অনেকদিন	-11.7603
▁শক	-11.7606
▁পরিবারসহ	-11.7608
ালী	-11.7609
▁বিস্তর	-11.761
▁মওলা	-11.7611
▁সিমি	-11.7612
▁বেড়িয়ে	-11.7613
▁ফুসফুসে	-11.7613
▁সেইসময়	-11.7615
▁স্মৃতিতে	-11.7616
▁ব্যাংকে	-11.7617
▁গেজ	-11.7618
ত্তি	-11.7623
▁বিলটি	-11.7624
▁কেরল	-11.7625
্যে	-11.7626
▁ঘূর্ণন	-11.7627
যা	-11.7628
▁চ্যাম্পিয়নস	-11.763
▁বলব	-11.7632
▁সায়	-11.7635
▁বিষয়গুলো	-11.7636
▁de	-11.7638
▁ভাবতে	-11.764
▁সাঁতারে	-11.764
▁কারন	-11.7641
▁কারখানাটি	-11.7641
▁মানদণ্ড	-11.7647
▁অক্ষরে	-11.7659
▁নেটওয়ার্কে	-11.7661
▁গবেষকের	-11.7661
ফান	-11.7663
▁হোপ	-11.7664
▁সাহায্যকারী	-11.7665
▁নূরু	-11.7666
▁বাড়ীতে	-11.7668
▁সিজদা	-11.7674
▁কালার	-11.7674
▁ঘুঁটে	-11.7676
▁ভিয়েতনামে	-11.7676
▁দেবদেবী	-11.7678
▁চিনে	-11.768
▁উঠান	-11.7682
▁সুভা	-11.7683
মক	-11.7685
▁দেশগুলোতে	-11.7687
▁জন্যেই	-11.7689
▁হর্ন	-11.769
d	-11.7692
ab	-11.7695
▁প্রতিবার	-11.7696
কান	-11.7698
▁নেতার	-11.7698
▁পরিবর্তনশীল	-11.7702
▁অফিসের	-11.7703
▁জী	-11.7704
▁বাসভবনে	-11.7706
▁ভীতি	-11.7706
▁অ্যাডা	-11.7712
বিট	-11.7712
▁শাহি	-11.7712
▁আক্রমন	-11.7712
ান্তরে	-11.7713
▁অনেকাংশ	-11.7714
▁গ্য	-11.7717
ানু	-11.7721
▁ফিতরে	-11.7721
▁৫০টি	-11.7727
▁ডেট্রয়েট	-11.773
▁প্রশিক্ষণে	-11.773
▁খুল	-11.7734
▁ভূখন্ড	-11.7735
▁১৩৭	-11.7737
শনের	-11.7739
িফ	-11.7741
▁মাখা	-11.7744
▁চেং	-11.7744
ation	-11.7747
▁দারু	-11.775
ar	-11.7752
▁শাসনামল	-11.7754
বলে	-11.7754
যোগ	-11.776
িপিআই	-11.776
▁রাজী	-11.776
▁মন্দার	-11.776
▁উচ্চবিদ্যালয়	-11.7766
▁গাজা	-11.7767
▁প্রতিরোধে	-11.7767
ুয়াল	-11.7768
▁পজিশন	-11.7768
▁স্মার্টফোন	-11.7771
▁ক্রি	-11.7773
▁বেলুন	-11.7773
৮৮৫	-11.7774
▁গলি	-11.7777
▁হোস	-11.7779
▁চার্চে	-11.7782
▁নদীসমূহ	-11.7791
▁উপরিভাগে	-11.7792
▁খার	-11.7801
▁প্রাণীরা	-11.7801
▁জায়	-11.7803
পন্ন	-11.7804
▁টার্ন	-11.7805
▁কবিতাগুলো	-11.7806
▁২৫৮	-11.7809
▁চাঁদা	-11.781
▁মেঘালয়	-11.7812
িত্ব	-11.7817
ন্দি	-11.7822
লান	-11.7824
▁১৩২	-11.7825
েইন	-11.7829
▁ভাষাসমূহ	-11.7832
▁হুল	-11.7842
করণের	-11.7842
▁সমাধির	-11.7844
▁২৭১	-11.7851
▁রহমানকে	-11.7851
▁ব্রান্ড	-11.7854
গেল	-11.7855
▁ঢালা	-11.7856
কান্দা	-11.7862
▁২৮টি	-11.7862
▁মতাদর্শ	-11.7863
▁আটটা	-11.7863
▁রিডল	-11.7864
▁সেনাবাহিনীকে	-11.7865
▁মূলা	-11.7868
িণী	-11.787
▁কন্যাকে	-11.7872
▁শিখর	-11.7876
পদ্ধতি	-11.7877
▁খোলার	-11.7877
নির্মাণ	-11.7879
▁সম্পাদনায়	-11.7881
▁লগ	-11.7882
▁জামি	-11.7887
▁সৌন্দর্যে	-11.7895
▁ব্যাংকটি	-11.7896
▁পৌঁছেন	-11.7903
হু	-11.7912
▁বিক্রেতা	-11.7912
▁১২ই	-11.7913
p	-11.7914
▁২১১	-11.7915
▁পর্যব	-11.7916
▁খল	-11.7924
▁৩৮০	-11.7924
▁পারদ	-11.7924
্বে	-11.7927
▁২৩টি	-11.793
▁মঞ্জিল	-11.7933
▁সিলভা	-11.7933
▁যম	-11.7934
▁ট্রি	-11.7934
▁সঃ	-11.7935
▁লিথুয়ানিয়া	-11.7935
▁নামগুলো	-11.7942
ডলফ	-11.7943
▁বীজে	-11.7945
▁কচু	-11.7945
টেক	-11.7955
টিও	-11.7956
কাম	-11.7957
▁বাথ	-11.7957
সূত্র	-11.7959
দুর	-11.7961
▁উন	-11.7961
▁ধাঁচে	-11.7966
▁চ্যাপেল	-11.7966
ত্ত্ব	-11.7967
▁স্বদেশ	-11.797
াগার	-11.797
মণ্ডলী	-11.7973
▁চট	-11.7974
য়ার্ড	-11.7977
▁ওভাল	-11.7978
▁ঘোরে	-11.7978
▁প্রদানে	-11.7979
▁কীর্তন	-11.7981
র্ন	-11.7989
রাশি	-11.799
িরপুর	-11.799
▁ট্রান্স	-11.7991
▁বাসনা	-11.7992
▁ভবনগুলো	-11.7994
▁ছবিটা	-11.7996
▁স্ত্রীকে	-11.7998
▁রটেন	-11.8
▁মন্ত্রীর	-11.8007
▁লেবাননে	-11.8009
it	-11.801
▁মক্তব	-11.8012
▁মিট	-11.8013
▁ডাইনি	-11.8014
ুশ	-11.8015
▁হাসানের	-11.8021
▁সিদ্ধান্তে	-11.8021
▁২৩৬	-11.8022
▁গ্যু	-11.8024
▁সদা	-11.8025
▁এভ	-11.8028
▁ওয়াকা	-11.8028
▁অক্ষম	-11.8028
ময়ী	-11.8031
েন্ড	-11.8036
▁বেত	-11.8038
▁কোমরে	-11.804
▁নির্মাণকাল	-11.8041
৮৮৪	-11.8043
▁রাজশাহীতে	-11.8044
▁১৫৮	-11.8046
▁ম্যাট	-11.8047
োরা	-11.8048
▁অ্যানা	-11.8054
▁শৈলীর	-11.8058
▁চাষী	-11.806
▁তেজ	-11.8062
▁কট	-11.8064
র্ক	-11.8065
▁বেঁ	-11.8065
▁ব্যবধান	-11.8069
▁অঞ্চলগুলো	-11.8069
▁ডেনমার্কে	-11.8071
সখ	-11.8071
▁আহল	-11.8073
ল্লু	-11.8075
▁লিডস	-11.8082
▁৪৩০	-11.8085
বাব	-11.8086
▁বেড	-11.8089
বাক	-11.8092
▁মার্কেট	-11.8093
▁বাঁকে	-11.81
জোয়া	-11.8101
▁পূর্বাংশে	-11.8102
▁চ্যানেলে	-11.8104
um	-11.8108
▁কেনে	-11.8111
অ	-11.8112
দত্ত	-11.8112
খাল	-11.8115
বিশ্বাস	-11.8115
▁গণ্ড	-11.8115
মাথা	-11.8118
তাত্ত্বিক	-11.812
বিবি	-11.8123
সমতল	-11.8123
▁রাখত	-11.8125
▁সংবেদনশীল	-11.8125
▁মাখ	-11.8126
ভুমি	-11.8127
▁হুক	-11.8128
বন্ধু	-11.813
বেঁধে	-11.813
▁খুর	-11.813
বৃষ্টি	-11.8131
▁সালেহ	-11.8131
▁লেনে	-11.8131
▁সংগীতে	-11.8132
কথিত	-11.8134
▁এদিক	-11.8134
হেড	-11.8136
▁বৃহস্পতির	-11.8136
▁হৈ	-11.8138
▁পড়েনি	-11.814
মিডিয়া	-11.814
বু	-11.8141
্যান্ড	-11.8143
▁হ্যালো	-11.8144
▁টি২০আই	-11.8144
▁ড্যানিয়েল	-11.8146
▁অসন্তুষ্ট	-11.8148
▁গ্রিল	-11.8151
স্তম্ভ	-11.8152
ত্রিক	-11.8152
▁প্লেয়ার	-11.8155
য়ী	-11.8158
▁গগন	-11.816
▁যৌনকর্মী	-11.816
▁যশোরে	-11.8163
▁কর্	-11.8163
▁কোস্টা	-11.8163
াজুর	-11.8163
▁রাজ্যগুলি	-11.8169
▁দ্রব	-11.8172
▁ধুবড়	-11.8174
▁হেসেন	-11.8174
▁পুষ্টিগু	-11.8177
▁পাব	-11.8178
▁খাদ	-11.818
▁বার্বাডোসে	-11.818
▁নকশ	-11.8181
▁লেভ	-11.8182
▁লিঙ্ক	-11.8184
▁২২৫	-11.8187
▁সন্মান	-11.8188
▁সুরারোপ	-11.8188
য়োন	-11.8188
▁স্ট্যাম্প	-11.8192
▁বলরাম	-11.8193
▁পাল্ট	-11.8194
পুষ্পক	-11.8195
▁অ্যাম	-11.8196
▁হালনাগাদ	-11.8196
▁কেশব	-11.8196
▁রঘুনাথ	-11.8196
ভর	-11.8197
▁রিপাবলিক	-11.8197
▁রাঙামাটি	-11.8197
▁রঘু	-11.8197
▁খড়্গ	-11.8198
▁প্রহ্লাদ	-11.8198
▁অক্টোপাস	-11.8198
▁অদিতি	-11.8198
▁অমুসলিম	-11.8198
▁অর্কিড	-11.8198
▁অর্ণব	-11.8198
▁আখাউড়া	-11.8198
▁উৎকর্ষ	-11.8198
▁এহতেশাম	-11.8198
▁ওরচেস্টারশায়ার	-11.8198
▁কর্মধারয়	-11.8198
▁কাঞ্চীপুরম	-11.8198
▁ক্যাবিনেট	-11.8198
▁ক্যারোটিন	-11.8198
▁ক্ষুধা	-11.8198
▁ছিনতাই	-11.8198
▁ডিক্যাপ্রিও	-11.8198
▁তৃষ্ণা	-11.8198
▁তেঁতুল	-11.8198
▁ত্রিপিটক	-11.8198
▁দ্বিতীয়ার্ধে	-11.8198
▁পঠন	-11.8198
▁প্রকম্পিত	-11.8198
▁প্রাদুর্ভাব	-11.8198
▁বায়েজীদ	-11.8198
▁মরিয়ম	-11.8198
▁রক্তকণিকা	-11.8198
▁শোয়ার্জনেগার	-11.8198
▁হাম্বানটোটা	-11.8198
▁কাজুবাদাম	-11.8198
▁টুটুল	-11.8198
▁মার্গারেট	-11.8198
▁সান্তিয়াগো	-11.8198
▁অনুদিত	-11.8198
▁আয়েশা	-11.8198
▁ফাতিমা	-11.8198
▁সন্দীপ	-11.8198
▁আর্যভট্ট	-11.8198
▁গাত্রবর্ণ	-11.8198
▁মোতায়েন	-11.8198
▁বিপর্যস্ত	-11.8198
▁প্রকোপ	-11.8198
▁রাজেন্দ্র	-11.8198
▁শশাঙ্ক	-11.8198
▁সমতট	-11.8198
▁টেলিগ্রাফ	-11.8198
▁টেলিস্কোপ	-11.8198
▁দুর্ভাগ্য	-11.8198
▁নাতিশীতোষ্ণ	-11.8198
▁বাগচী	-11.8198
▁ব্যবহূত	-11.8198
▁প্রোডাকশন	-11.8198
▁নূরজাহান	-11.8198
▁সোলায়মান	-11.8198
▁পাবলিশ	-11.8198
▁উস্তাদ	-11.8198
▁চীফ	-11.8198
▁ভিজুয়াল	-11.8198
▁স্থায়িত্ব	-11.8198
▁হ্যালাইট	-11.8198
▁ছিঁড়	-11.8198
▁ডানকুনি	-11.8198
▁কুঁড়ি	-11.8198
▁ক্যাফেইন	-11.8198
▁আমেনা	-11.8198
▁এফবিআই	-11.8198
▁বিসিবি	-11.8198
▁আউটপুট	-11.8198
▁বঙ্কিমচন্দ্র	-11.8198
▁তীর্থযাত্রা	-11.8198
▁হার্ডিঞ্জ	-11.8198
▁নারকেল	-11.8198
▁প্রতিচ্ছবি	-11.8198
▁বিদ্বান	-11.8198
▁রথযাত্রা	-11.8198
▁লতাপাতা	-11.8198
▁শ্রবণ	-11.8198
▁উপবিষ্ট	-11.8198
▁সূর্যোদয়	-11.8198
▁ক্রুদ্ধ	-11.8198
▁টপ্পা	-11.8198
▁বেহুলা	-11.8198
▁শিকদার	-11.8198
▁বুৎপত্তি	-11.8198
▁হাবিবউল্লাহ	-11.8198
▁সামুরাই	-11.8198
▁মাকড়শা	-11.8198
▁দ্রুজ	-11.8198
▁দুপচাঁচিয়া	-11.8198
▁উগান্ডা	-11.8198
জিয়ার্স	-11.8198
▁ব্যুরো	-11.8198
▁হুমায়ূন	-11.8198
▁প্রস্তুতকারক	-11.8198
▁কৌরব	-11.8198
▁স্কন্দ	-11.8199
▁শুঙ্গ	-11.8199
▁এমটিভি	-11.8199
▁রামধনু	-11.8199
▁ইউনিফর্ম	-11.8199
▁কামদেব	-11.8199
▁অনুকূল	-11.8199
▁হালুয়া	-11.8199
▁পরিসীমা	-11.8199
▁মহাবীর	-11.8199
▁ওয়াসিম	-11.8199
▁পশুপালন	-11.8199
▁অন্তর্বর্তী	-11.8199
▁উপাসক	-11.8199
▁শিশুতোষ	-11.8199
▁তাকাতে	-11.8199
▁লাথি	-11.8199
▁অগ্রগামী	-11.8199
▁সংক্রাম	-11.8199
▁কমরেড	-11.8199
▁ব্র্যাডম্যান	-11.8199
▁কবুল	-11.8199
▁হিরো	-11.8199
▁সাতপুরা	-11.8199
▁গৃহিনী	-11.8199
▁ঝুড়ি	-11.8199
▁যুদ্ধবিরতি	-11.82
▁পদচ্যুত	-11.82
▁রসালো	-11.82
▁ঘটবে	-11.82
▁দুপাশে	-11.82
▁দেখাশুনা	-11.82
▁পদচারণা	-11.82
▁স্থানাঙ্ক	-11.82
▁অকাদেমি	-11.82
▁অক্ষুণ্	-11.82
▁সুরেশ	-11.82
▁ইউয়ান	-11.8201
▁লঙ্ঘন	-11.8201
▁বলবৎ	-11.8201
▁মহামায়া	-11.8201
▁আস্তরণ	-11.8201
▁গুঁড়ো	-11.8201
▁রসগোল্লা	-11.8201
▁মহাপরিচালক	-11.8201
▁বৃহস্পতিবার	-11.8201
▁ওয়াহিদ	-11.8201
▁মান্না	-11.8202
▁আউলিয়া	-11.8202
▁তথাপি	-11.8202
▁কলিঙ্গ	-11.8202
▁গ্রন্থপঞ্জি	-11.8202
▁স্বাদুপানি	-11.8202
▁দ্রুতগামী	-11.8202
▁সুত্ত	-11.8202
▁দেওবন্দ	-11.8202
▁লবণাক্ততা	-11.8202
▁শাখানদী	-11.8202
▁ছুঁড়ে	-11.8202
▁চালিকা	-11.8203
▁ভালবাসতেন	-11.8203
▁রণবীর	-11.8203
▁কবিয়াল	-11.8203
▁রাডার	-11.8203
▁মিচেল	-11.8203
▁রিভস	-11.8203
▁রঙ্গিন	-11.8203
▁রসবোধ	-11.8203
▁বাণিজ্যকেন্দ্র	-11.8203
▁শেরপা	-11.8204
▁মহাশক্তি	-11.8205
▁সেলুলা	-11.8205
▁মানবতাবাদী	-11.8205
▁উড়িয়ে	-11.8205
▁অন্যরকম	-11.8206
▁দ্রুতগতিতে	-11.8206
▁মার্ক্স	-11.8206
▁ভাইপো	-11.8206
▁অভিবাসন	-11.8206
▁পীড়ন	-11.8206
▁কল্লো	-11.8207
▁রাঙ্গা	-11.8207
▁যাদবপুর	-11.8207
▁দরিয়া	-11.8207
▁ব্যারন	-11.8208
▁ধীরগতি	-11.8208
▁খালেক	-11.8209
▁ইউনান	-11.8209
▁অব্দি	-11.821
▁রাখলেন	-11.8211
▁সওদাগর	-11.8211
▁সব্জি	-11.8211
▁সিনহা	-11.8211
▁তিহার	-11.8211
রিস	-11.8211
▁হিজলি	-11.8211
▁আগামী	-11.8212
▁সাফল্যে	-11.8212
▁কেলাস	-11.8212
▁অধিনে	-11.8212
▁খান্না	-11.8213
▁এলাকাজুড়ে	-11.8213
জিন	-11.8215
▁আর্	-11.8216
▁অতপ	-11.8216
▁বহির্	-11.8216
▁যেভাবে	-11.8216
▁জেমি	-11.8217
▁উঠেছিলেন	-11.8218
▁ওড়ানো	-11.8219
▁রোমান্স	-11.8219
▁শারীর	-11.8219
▁গোলার	-11.8219
▁কুরি	-11.8219
▁ব্যতি	-11.8219
▁প্যাঁচা	-11.822
▁পারল	-11.8221
▁রুনি	-11.8222
▁গাঁজা	-11.8222
▁দিলো	-11.8222
▁শান্তিনিকেতন	-11.8222
ক্ষমতা	-11.8222
▁দশজন	-11.8223
▁করিনি	-11.8224
▁ধানবাদ	-11.8225
▁সড়কপথে	-11.8225
▁অর্পিত	-11.8226
▁কভার	-11.8226
▁ভঙ্গিতে	-11.8226
▁লুনা	-11.8227
▁দস্তা	-11.8227
▁পরিপ্রেক্ষিত	-11.8229
▁শুভ্র	-11.8229
▁রঞ্জিত	-11.823
▁ব্যাজ	-11.823
▁গেছিল	-11.8231
▁নলিনী	-11.8231
▁সফটওয়ার	-11.8232
▁রুপা	-11.8232
▁ফ্রিডম	-11.8232
▁শব্দদুটি	-11.8232
▁মাদ্রিদে	-11.8234
▁উডি	-11.8235
য়েজ	-11.8236
▁২১৫	-11.8237
তুন	-11.8239
▁লিঙ্কন	-11.824
▁গৃহিত	-11.824
▁আসবেন	-11.824
▁কনফারেন্স	-11.8243
▁এইজন্য	-11.8243
▁দুর্গম	-11.8244
▁ব্যাপ	-11.8244
▁নিষ্ঠা	-11.8245
▁হয়েছি	-11.8246
▁মগধে	-11.8246
▁বিশুদ্ধতা	-11.8246
▁২৪৬	-11.8247
▁আকরিক	-11.8247
▁সাদী	-11.8249
▁পরী	-11.8251
▁স্টোর	-11.8252
▁বস্তি	-11.8254
▁গোঁড়া	-11.8255
▁জিমি	-11.8255
নায়	-11.8255
▁পার্কার	-11.8256
▁সোনারগাঁও	-11.8256
▁দক্ষিণাঞ্চলে	-11.8258
▁কাগ	-11.826
তলায়	-11.826
িউর	-11.8261
▁রমনা	-11.8262
▁ডেটা	-11.8264
▁স্টপ	-11.8265
▁সচল	-11.8265
▁চিত্রটি	-11.8269
▁খনিতে	-11.8269
▁201	-11.8274
▁ঊর্ধ্বে	-11.8275
▁রইস	-11.8277
ুষ	-11.8277
▁কাদির	-11.828
হাটা	-11.8282
▁জাক	-11.8282
▁মোড	-11.8283
▁যোদ্ধারা	-11.8284
▁ভূখণ্ডে	-11.8285
▁শনি	-11.829
▁কষ্টে	-11.8292
▁প্রত্যেকের	-11.8294
▁আমন্ত্র	-11.8295
▁পোশাকের	-11.8295
▁সঙ্গীদের	-11.8297
▁পিচে	-11.8297
▁ছানারা	-11.8299
▁কওম	-11.8299
▁তিরিশ	-11.83
▁কল্যাণে	-11.83
▁ক্রোধ	-11.8301
▁অ্যানি	-11.8301
▁ব্লাড	-11.8301
▁নিউক্লিয়া	-11.8301
▁মথ	-11.8302
▁প্রকাশকাল	-11.8303
[...]
