<unk>	0
<s>	0
</s>	0
<sep>	0
<cls>	0
▁the	-2.90029
▁of	-3.34649
▁in	-3.59704
▁is	-3.68954
▁The	-4.05075
,	-4.11343
▁a	-4.13536
▁was	-4.14548
▁and	-4.2024
s	-4.20601
▁to	-4.21916
▁He	-4.53763
▁are	-4.86634
▁this	-5.0761
▁	-5.14787
▁he	-5.22051
'	-5.23521
▁on	-5.252
▁his	-5.25272
▁In	-5.37455
▁It	-5.40167
▁has	-5.40938
▁for	-5.42216
▁from	-5.53302
▁as	-5.54745
▁by	-5.59983
▁This	-5.60653
ing	-5.61579
-	-5.64651
▁at	-5.65588
ed	-5.70581
▁with	-5.71505
▁that	-5.8005
▁also	-5.80816
.	-5.80861
▁were	-5.96437
▁an	-5.96488
▁it	-5.97547
▁first	-5.9844
▁be	-6.00811
▁There	-6.04289
▁not	-6.06772
▁time	-6.07225
d	-6.12617
▁one	-6.13942
▁His	-6.14286
▁A	-6.15882
▁name	-6.16928
▁have	-6.17654
▁two	-6.19594
ly	-6.23805
▁They	-6.29631
▁team	-6.31463
▁been	-6.3349
▁or	-6.34572
y	-6.42315
▁At	-6.45059
▁called	-6.52029
▁can	-6.5247
▁But	-6.55308
al	-6.56655
▁about	-6.59451
▁film	-6.60226
▁there	-6.64877
▁used	-6.66019
▁Bangladesh	-6.66153
▁city	-6.67204
▁India	-6.67583
▁located	-6.68516
e	-6.68675
▁year	-6.69154
▁known	-6.69685
▁area	-6.70195
▁district	-6.70766
▁became	-6.73033
▁part	-6.73034
▁then	-6.75182
▁him	-6.75838
▁father	-6.76855
▁made	-6.7732
▁As	-6.7884
▁I	-6.79507
▁all	-6.80626
▁their	-6.82114
th	-6.83903
▁people	-6.84971
▁However	-6.86001
▁years	-6.88131
▁river	-6.88247
▁more	-6.89019
▁after	-6.89788
▁main	-6.90007
▁other	-6.90542
▁life	-6.90544
▁here	-6.92924
▁started	-6.93395
▁many	-6.93499
▁three	-6.93903
a	-6.94379
ok	-6.94695
▁later	-6.95045
se	-6.95082
▁they	-6.98039
▁had	-6.98129
▁result	-6.98536
very	-6.98757
▁these	-6.98878
m	-6.99194
▁into	-7.02647
▁born	-7.04173
t	-7.04266
▁than	-7.05179
▁under	-7.06043
▁cricket	-7.07241
▁its	-7.079
▁them	-7.094
▁total	-7.09869
i	-7.10152
▁world	-7.10191
▁number	-7.1085
▁After	-7.11982
▁played	-7.12497
n	-7.13783
▁only	-7.13964
▁won	-7.14281
▁will	-7.18117
▁day	-7.18253
▁mother	-7.19165
ous	-7.20863
▁no	-7.20992
▁most	-7.22065
▁country	-7.22479
▁school	-7.25601
▁named	-7.26228
▁some	-7.2869
▁long	-7.28715
▁Its	-7.28955
▁different	-7.296
▁died	-7.29961
▁1	-7.31305
▁runs	-7.31552
l	-7.31883
▁family	-7.3227
▁up	-7.32484
▁km	-7.32703
▁Al	-7.33055
ir	-7.33518
▁established	-7.33589
er	-7.33676
▁second	-7.35531
▁Then	-7.35549
▁place	-7.36246
▁score	-7.36308
▁current	-7.37022
▁Bengali	-7.37288
▁did	-7.37326
▁book	-7.37737
▁same	-7.38
▁On	-7.39047
▁age	-7.40371
▁game	-7.4061
▁3	-7.41349
▁came	-7.41458
▁like	-7.41744
▁found	-7.42107
▁end	-7.42297
▁Bengal	-7.42476
▁four	-7.42705
▁days	-7.42868
▁B	-7.43368
▁word	-7.43489
▁5	-7.43622
▁language	-7.44375
▁left	-7.44476
▁state	-7.44957
▁war	-7.44977
▁Khan	-7.45135
▁region	-7.48084
▁built	-7.48768
▁work	-7.49151
▁present	-7.49379
▁government	-7.49704
▁published	-7.49715
▁Dhaka	-7.50041
▁10	-7.50756
▁out	-7.51924
▁temple	-7.51934
▁Indian	-7.52237
▁4	-7.52256
▁seen	-7.52307
▁2	-7.52609
▁C	-7.53134
▁population	-7.53864
▁joined	-7.54446
▁According	-7.54552
▁dur	-7.54754
▁She	-7.55067
▁you	-7.56671
▁her	-7.56694
▁small	-7.56744
▁against	-7.56937
▁water	-7.57205
▁And	-7.57215
▁vari	-7.5746
▁over	-7.58168
▁Union	-7.58212
▁century	-7.5926
▁So	-7.59422
▁son	-7.61645
▁means	-7.61677
▁released	-7.61733
▁season	-7.61908
mong	-7.62337
▁house	-7.63731
▁through	-7.64315
▁since	-7.66191
▁education	-7.67107
▁member	-7.67166
?	-7.67211
▁road	-7.68112
▁last	-7.68926
▁South	-7.69155
▁World	-7.69363
▁famous	-7.69781
▁E	-7.70013
▁Test	-7.70093
▁English	-7.70385
▁right	-7.70924
▁between	-7.71031
▁began	-7.71675
▁rate	-7.71789
▁6	-7.71943
▁University	-7.72513
▁largest	-7.73281
▁members	-7.73437
▁usually	-7.73918
r	-7.74322
▁new	-7.74634
▁union	-7.74839
▁Pakistan	-7.75135
▁body	-7.75778
▁Tom	-7.76204
▁species	-7.76215
▁five	-7.7679
▁College	-7.77438
▁which	-7.7755
▁village	-7.7833
▁popular	-7.7856
▁Later	-7.78682
▁station	-7.78683
▁That	-7.79143
▁sever	-7.79859
▁written	-7.79946
▁12	-7.80002
▁upazila	-7.80198
▁held	-7.80286
▁average	-7.8138
▁both	-7.81797
▁School	-7.82146
▁building	-7.82525
▁play	-7.82622
▁well	-7.84304
▁music	-7.8534
▁death	-7.85363
▁S	-7.85476
▁divided	-7.85758
▁Many	-7.85787
▁but	-7.85855
▁History	-7.86106
▁role	-7.86219
▁times	-7.86722
▁got	-7.86752
o	-7.8712
▁West	-7.87599
▁capital	-7.87698
▁Dur	-7.87818
▁One	-7.88037
▁series	-7.8808
▁b	-7.88471
▁Fro	-7.88985
▁national	-7.8926
▁white	-7.8972
▁15	-7.89792
▁married	-7.89846
▁college	-7.8989
▁do	-7.90241
▁get	-7.9051
▁system	-7.90798
▁meters	-7.90804
▁any	-7.91203
▁England	-7.91377
though	-7.91461
▁said	-7.91636
▁when	-7.91769
▁mainly	-7.92046
▁Of	-7.92303
▁black	-7.92414
▁All	-7.92417
an	-7.9254
▁head	-7.93073
▁formed	-7.93079
▁high	-7.93243
▁British	-7.94142
▁police	-7.94505
▁River	-7.94796
▁large	-7.95122
▁old	-7.95157
▁feet	-7.95326
▁considered	-7.95501
▁story	-7.95745
▁Ali	-7.95982
▁history	-7.96004
▁New	-7.96063
▁Calcutta	-7.96266
▁wickets	-7.96735
▁few	-7.97082
▁army	-7.97506
▁next	-7.97629
▁before	-7.9805
▁song	-7.98107
▁home	-7.98493
▁9	-7.99328
▁received	-7.99459
▁ancient	-7.99911
▁important	-8.00131
▁again	-8.00816
▁color	-8.00862
▁given	-8.01027
▁mosque	-8.01064
▁7	-8.01411
▁take	-8.01663
▁countries	-8.01692
▁hand	-8.01803
▁When	-8.01982
▁debut	-8.02065
▁For	-8.02202
▁around	-8.02217
▁live	-8.02395
▁11	-8.02409
▁movement	-8.02959
▁Cup	-8.03254
▁side	-8.03262
▁who	-8.03458
▁songs	-8.03528
▁20	-8.0367
▁freedom	-8.03714
in	-8.04353
▁best	-8.04368
▁due	-8.04508
▁land	-8.04566
▁went	-8.0475
▁lost	-8.05035
▁killed	-8.06138
▁wife	-8.06376
▁United	-8.07131
▁group	-8.07163
▁way	-8.07523
▁T	-8.07881
▁8	-8.08685
▁Some	-8.0871
▁Most	-8.10198
▁females	-8.10272
▁back	-8.10435
▁children	-8.10661
▁sq	-8.11667
▁13	-8.11917
▁16	-8.11952
▁14	-8.12177
▁port	-8.1232
▁own	-8.12788
▁males	-8.12889
▁tree	-8.13483
▁moved	-8.14218
▁power	-8.14293
▁now	-8.14332
▁directed	-8.14543
▁million	-8.1533
▁title	-8.15367
▁fish	-8.15616
▁still	-8.15628
▁Islam	-8.16263
▁parts	-8.16514
▁use	-8.16573
▁fighters	-8.16678
▁form	-8.16878
▁could	-8.16952
▁May	-8.17199
▁types	-8.17331
▁AD	-8.17476
▁food	-8.17518
▁lot	-8.17718
▁six	-8.18175
▁so	-8.18603
▁class	-8.1873
▁north	-8.18765
▁make	-8.19123
▁films	-8.19555
▁size	-8.19658
▁M	-8.19779
▁length	-8.19847
▁third	-8.20191
▁books	-8.20613
▁Shah	-8.20657
▁battle	-8.2076
▁March	-8.21037
▁go	-8.21082
▁every	-8.21083
▁such	-8.21205
▁Chittagong	-8.2139
▁center	-8.22193
▁women	-8.22604
ic	-8.22854
▁daughter	-8.22892
▁June	-8.23143
▁each	-8.23673
▁No	-8.23687
▁special	-8.23828
▁activities	-8.2408
▁National	-8.24551
▁match	-8.24572
▁career	-8.24579
▁2008	-8.25305
▁returned	-8.25383
▁company	-8.25645
▁birds	-8.25665
▁another	-8.25927
▁much	-8.2601
▁competition	-8.26358
▁come	-8.26852
▁Pakistani	-8.26876
▁child	-8.27653
▁near	-8.27663
▁2014	-8.28037
▁full	-8.28231
▁D	-8.28539
▁consist	-8.28594
▁students	-8.28703
▁brother	-8.29394
▁headquarters	-8.29914
▁kilometers	-8.30472
▁she	-8.30631
▁short	-8.30795
▁leaves	-8.31518
▁town	-8.31543
ul	-8.3171
▁does	-8.31977
▁half	-8.32024
▁playing	-8.32035
▁common	-8.32214
asically	-8.32281
▁belong	-8.32285
▁U	-8.32326
▁January	-8.32801
handed	-8.33001
▁Education	-8.33189
▁China	-8.33205
▁original	-8.33266
▁worked	-8.3337
▁female	-8.33677
▁18	-8.33805
▁30	-8.34348
▁south	-8.3485
▁Muhammad	-8.35367
▁passed	-8.3543
▁includ	-8.35489
▁party	-8.35611
▁Which	-8.35971
▁unti	-8.36497
▁level	-8.36524
▁Sri	-8.36592
▁East	-8.36768
▁square	-8.36982
▁August	-8.37
▁17	-8.37157
▁attack	-8.37305
▁construction	-8.37596
▁taken	-8.37712
▁Besides	-8.37799
▁position	-8.38173
▁gain	-8.3822
▁top	-8.38227
▁literacy	-8.38623
▁early	-8.3905
▁2006	-8.39249
▁December	-8.3925
ar	-8.39329
▁War	-8.3935
▁m	-8.39822
▁October	-8.3988
▁being	-8.39994
▁light	-8.40074
▁good	-8.40285
▁addition	-8.40713
▁acted	-8.40774
▁why	-8.41136
es	-8.41349
▁2012	-8.41413
▁help	-8.41424
est	-8.41545
▁studied	-8.41561
▁July	-8.41582
▁middle	-8.41988
▁Muslim	-8.42021
▁Australia	-8.42122
▁led	-8.42275
▁period	-8.43026
▁25	-8.43395
▁highest	-8.43533
▁awarded	-8.43547
▁look	-8.43568
▁set	-8.43576
▁April	-8.43738
on	-8.4403
▁Because	-8.44156
▁distance	-8.44422
▁Hindu	-8.44865
▁2010	-8.45479
pur	-8.45558
▁man	-8.45636
▁Earl	-8.45751
▁king	-8.45828
▁himself	-8.45915
▁involved	-8.4595
▁organization	-8.45992
▁field	-8.46072
▁P	-8.46514
▁Asia	-8.46589
▁North	-8.47033
▁novel	-8.47118
▁love	-8.47209
▁Description	-8.47258
▁batsman	-8.47259
▁working	-8.47556
▁force	-8.47929
▁innings	-8.47938
▁November	-8.47942
▁2011	-8.48102
▁areas	-8.48522
▁acres	-8.48945
▁huge	-8.4908
▁red	-8.49104
▁great	-8.49499
▁spread	-8.49666
▁night	-8.49667
▁almost	-8.49968
u	-8.49977
▁etc	-8.50234
▁spent	-8.50234
▁comes	-8.50478
▁island	-8.50521
▁success	-8.50657
▁case	-8.50855
▁able	-8.50907
▁sea	-8.51189
ur	-8.51228
st	-8.51282
▁international	-8.51357
▁R	-8.51717
▁east	-8.5173
▁railway	-8.51804
▁type	-8.51826
▁birth	-8.51871
▁would	-8.52346
▁Chowdhury	-8.52584
▁appointed	-8.52603
▁give	-8.52695
▁stage	-8.52793
▁High	-8.53301
▁2009	-8.53303
▁24	-8.53378
▁wrote	-8.53543
▁brown	-8.54024
▁final	-8.54025
▁2013	-8.54508
▁games	-8.54513
▁while	-8.54747
▁To	-8.55141
▁Assam	-8.55242
▁elected	-8.55296
▁completed	-8.55341
▁football	-8.55407
▁per	-8.55569
▁ground	-8.55956
▁Administrative	-8.5597
▁even	-8.56009
▁50	-8.56009
▁list	-8.56093
▁quite	-8.5647
▁just	-8.56958
▁literature	-8.56959
▁served	-8.5698
▁Cricket	-8.57121
▁French	-8.57457
▁young	-8.57636
▁Abdul	-8.57725
▁introduced	-8.57746
▁run	-8.57819
▁21	-8.58211
▁Rahman	-8.58714
▁childhood	-8.58715
▁according	-8.58726
▁may	-8.595
▁rule	-8.59529
▁plays	-8.59604
▁major	-8.59723
▁September	-8.59732
▁post	-8.59951
▁Upazila	-8.59985
▁front	-8.59988
▁tour	-8.60028
▁far	-8.60138
h	-8.60195
▁law	-8.60326
▁whole	-8.6053
▁Here	-8.6078
▁away	-8.61036
▁teams	-8.61381
▁places	-8.61503
▁medium	-8.61534
▁magazine	-8.61608
▁municipality	-8.61795
▁official	-8.61931
▁poet	-8.62366
▁fruit	-8.62685
▁bowling	-8.63209
▁student	-8.63483
▁Sen	-8.6366
▁director	-8.63756
ach	-8.63792
▁23	-8.63897
▁Area	-8.63919
▁created	-8.63964
▁modern	-8.6416
▁n	-8.64433
▁month	-8.64663
▁award	-8.65211
▁following	-8.65304
▁sons	-8.65363
▁2015	-8.65515
▁down	-8.65518
▁States	-8.65623
▁seven	-8.65685
▁2007	-8.65788
▁local	-8.65999
▁writing	-8.66217
ra	-8.66277
le	-8.66288
▁lead	-8.6644
▁months	-8.66469
▁Prize	-8.66602
▁beginning	-8.66602
▁gav	-8.66619
▁political	-8.66679
▁L	-8.66848
▁character	-8.67042
ever	-8.67303
▁1971	-8.67703
▁see	-8.67723
▁round	-8.67769
▁Her	-8.67977
▁composed	-8.68016
▁cm	-8.68021
▁22	-8.68358
▁Sinc	-8.68373
▁Africa	-8.68458
▁Japan	-8.68535
▁H	-8.68814
▁League	-8.68819
▁Such	-8.69007
▁living	-8.69097
▁without	-8.69142
▁2005	-8.69378
▁along	-8.69557
▁example	-8.69862
▁based	-8.69939
▁eggs	-8.69999
ary	-8.70059
▁yellow	-8.7023
▁movie	-8.70447
▁successful	-8.70601
bout	-8.70744
cause	-8.70773
▁An	-8.70867
▁me	-8.71028
▁F	-8.71177
▁till	-8.71365
▁off	-8.71458
▁west	-8.71995
▁male	-8.72492
▁dynasty	-8.72519
▁bird	-8.72795
▁office	-8.73024
▁100	-8.73034
▁human	-8.73055
▁Minister	-8.73101
▁Kolkata	-8.73105
▁often	-8.73278
▁height	-8.73394
▁if	-8.73431
▁eight	-8.73519
▁club	-8.73669
▁Location	-8.73688
▁market	-8.73851
▁forest	-8.73892
▁less	-8.73976
▁brought	-8.73982
▁ruled	-8.74275
▁Tests	-8.74625
▁wide	-8.74645
k	-8.74949
▁record	-8.75066
▁defeated	-8.75267
▁19	-8.75348
▁leap	-8.75465
▁Care	-8.75618
▁sent	-8.75776
▁thought	-8.75781
▁bowler	-8.75799
▁re	-8.75811
▁Road	-8.76055
▁Jatiya	-8.76065
▁February	-8.76065
▁album	-8.76082
▁method	-8.76083
▁lived	-8.76262
▁London	-8.76365
▁Award	-8.76417
▁done	-8.76448
▁become	-8.76712
▁26	-8.76753
▁Shiva	-8.768
▁Muslims	-8.7696
▁Nobel	-8.76972
▁If	-8.77093
▁Chandra	-8.77175
▁business	-8.77238
▁terms	-8.77276
▁Also	-8.77277
▁cause	-8.77338
▁reason	-8.77371
▁above	-8.77386
▁face	-8.77539
▁Ahmed	-8.77569
▁al	-8.77751
▁Sangsad	-8.77885
▁admitted	-8.77953
▁green	-8.78189
▁show	-8.78478
▁former	-8.78664
▁research	-8.78666
▁source	-8.7919
▁continued	-8.79501
▁religion	-8.79503
▁higher	-8.79583
▁2001	-8.79763
▁acting	-8.80152
▁liberation	-8.80369
▁festival	-8.80454
▁Sadar	-8.80687
▁branch	-8.80945
▁eat	-8.80964
▁president	-8.81025
▁participated	-8.81409
▁flowers	-8.81416
▁thousand	-8.81737
▁brothers	-8.81899
▁military	-8.81951
▁batting	-8.8201
▁line	-8.82166
▁2004	-8.82316
▁President	-8.82588
▁trees	-8.82651
▁sister	-8.82721
▁men	-8.82897
▁administrative	-8.8291
▁Empire	-8.82911
▁Bazar	-8.82911
▁general	-8.83136
▁Roy	-8.83148
▁lower	-8.83272
▁rest	-8.83527
▁Club	-8.83556
▁Arabic	-8.83901
▁banks	-8.83968
▁real	-8.84375
▁You	-8.84376
▁fell	-8.84532
▁possible	-8.85191
▁want	-8.85387
▁captain	-8.85557
▁block	-8.85668
▁works	-8.85672
▁G	-8.85887
▁wicket	-8.86035
▁tail	-8.86061
c	-8.86093
▁once	-8.86156
▁King	-8.8628
▁style	-8.86333
▁American	-8.86439
▁information	-8.86517
▁believe	-8.86524
▁charge	-8.86705
▁interest	-8.86822
▁worship	-8.87067
▁inside	-8.87204
▁parents	-8.87204
▁fast	-8.87425
▁poetry	-8.87532
▁With	-8.87536
▁O	-8.8767
▁big	-8.87859
▁your	-8.87862
g	-8.87893
▁40	-8.88069
▁religious	-8.88201
▁northern	-8.88206
▁rivers	-8.884
▁2003	-8.88465
▁Buddhist	-8.88768
wards	-8.88791
▁university	-8.88885
▁2016	-8.88887
▁independence	-8.88905
▁Mohammad	-8.89112
▁Government	-8.89224
▁languages	-8.89335
▁60	-8.89367
▁eyes	-8.89479
▁Chinese	-8.89568
▁player	-8.89652
▁miles	-8.89699
▁call	-8.89798
▁dark	-8.89839
▁wings	-8.89843
▁mentioned	-8.90108
▁control	-8.90159
▁taught	-8.90264
▁fourth	-8.90382
▁science	-8.90617
▁available	-8.90631
▁produced	-8.9067
▁daughters	-8.90735
▁changed	-8.90775
▁kind	-8.90871
▁forces	-8.91141
▁leader	-8.91305
ya	-8.91426
▁America	-8.91452
▁low	-8.91584
▁t	-8.9167
▁matches	-8.91702
nother	-8.91899
▁Europe	-8.91975
▁Both	-8.92021
▁Army	-8.92022
▁cover	-8.92084
▁know	-8.92184
en	-8.9223
▁division	-8.92307
▁John	-8.92355
▁together	-8.9236
na	-8.92459
▁point	-8.92722
▁Biograph	-8.92821
▁Even	-8.92985
▁band	-8.93084
class	-8.93202
▁little	-8.93428
▁nature	-8.93428
▁developed	-8.93476
▁founded	-8.93504
▁groups	-8.93711
▁France	-8.93791
▁declared	-8.93806
▁plant	-8.94162
▁stay	-8.94173
▁City	-8.94174
▁Sanskrit	-8.94507
▁branches	-8.94542
▁what	-8.9486
▁teacher	-8.94867
▁Delhi	-8.9487
▁2000	-8.94889
▁learn	-8.95232
▁where	-8.9562
▁constituency	-8.95964
▁What	-8.95967
▁production	-8.95977
▁amount	-8.9599
▁person	-8.96141
▁my	-8.96151
ni	-8.96392
▁winter	-8.96659
▁version	-8.96691
▁degree	-8.96696
▁money	-8.96701
▁domestic	-8.96701
▁Begum	-8.96703
▁term	-8.96734
▁flow	-8.96924
man	-8.97037
▁reign	-8.97076
▁central	-8.97079
▁marriage	-8.9743
▁entire	-8.97443
▁politics	-8.97444
▁percent	-8.97813
▁industry	-8.97816
▁stories	-8.97816
▁disease	-8.97827
▁Party	-8.97855
la	-8.98086
▁included	-8.98365
▁strong	-8.98477
▁We	-8.98562
▁2002	-8.98574
▁event	-8.98729
▁nominated	-8.98949
▁kingdom	-8.98966
▁names	-8.99304
▁K	-8.99328
▁communication	-8.99333
▁words	-8.99519
b	-8.99879
▁contains	-8.99938
▁soldiers	-8.99953
▁goal	-9.00536
▁28	-9.00788
▁dance	-9.00851
▁District	-9.01239
▁surface	-9.01239
▁development	-9.01243
▁poems	-9.01244
▁Devi	-9.01414
▁open	-9.01539
▁Krishna	-9.01652
▁course	-9.01691
ta	-9.01733
ion	-9.01748
▁coast	-9.02012
▁border	-9.02083
▁picture	-9.02094
ial	-9.02268
▁Nepal	-9.0231
▁31	-9.02458
▁ball	-9.02506
▁reached	-9.02569
▁public	-9.02577
▁Lanka	-9.02719
re	-9.02745
▁Two	-9.03192
▁kept	-9.03192
▁1990	-9.03195
▁ten	-9.03235
ia	-9.03407
▁shape	-9.03447
▁close	-9.03512
▁represent	-9.0358
▁project	-9.03593
2	-9.03783
▁27	-9.03804
▁N	-9.03907
▁southern	-9.0399
us	-9.0401
▁calendar	-9.04382
▁outside	-9.04396
▁bridge	-9.04502
▁remaining	-9.04869
▁Only	-9.05006
▁rice	-9.05184
▁St	-9.05543
1	-9.05559
▁Hossain	-9.05587
▁houses	-9.0563
▁1,	-9.05745
▁seat	-9.0575
▁35	-9.05846
▁Life	-9.05914
▁oldest	-9.06059
▁Germany	-9.06122
▁incident	-9.06129
▁increased	-9.06129
ve	-9.06366
▁References	-9.0642
▁centuries	-9.0644
▁rich	-9.06444
▁woman	-9.06811
▁service	-9.06963
▁blue	-9.07227
▁speak	-9.07345
▁base	-9.07572
▁cities	-9.07629
▁animals	-9.07786
▁social	-9.07813
▁sides	-9.08119
▁location	-9.08456
▁cases	-9.08594
▁Persian	-9.08652
▁mass	-9.08857
▁idol	-9.09061
▁continues	-9.09069
▁everyone	-9.093
▁hundred	-9.09517
▁philosophy	-9.09711
▁television	-9.09711
▁buried	-9.09711
▁community	-9.09712
▁active	-9.09715
▁retired	-9.09737
▁lake	-9.09931
▁study	-9.10192
▁co	-9.10231
▁Man	-9.10308
ka	-9.10331
▁de	-9.10439
▁gold	-9.10545
▁arrested	-9.10677
▁Arab	-9.10691
▁opposite	-9.10983
▁launched	-9.11071
▁idea	-9.11126
▁job	-9.11184
um	-9.1121
▁room	-9.11256
▁External	-9.1141
▁process	-9.11452
▁symbol	-9.11491
▁practice	-9.11831
▁villages	-9.11864
▁districts	-9.11873
▁structure	-9.12069
▁today	-9.12151
▁Egypt	-9.1226
▁previous	-9.1227
▁captured	-9.12338
▁1996	-9.12705
▁II	-9.12829
▁similar	-9.12921
▁goals	-9.12978
▁1980	-9.1314
▁oil	-9.13148
▁failed	-9.13178
▁Sultan	-9.13198
▁relationship	-9.13364
nd	-9.13487
▁speed	-9.1362
▁fire	-9.13762
▁late	-9.1382
▁value	-9.13833
▁attacked	-9.13894
▁1999	-9.14015
▁Kumar	-9.14071
▁park	-9.14284
▁un	-9.14333
▁flows	-9.14452
▁Haque	-9.14454
▁injured	-9.14455
▁lives	-9.14571
▁single	-9.14733
▁province	-9.14764
▁discovered	-9.14925
▁culture	-9.14945
▁going	-9.14957
▁airport	-9.15626
▁Zealand	-9.15787
▁economy	-9.15787
▁flower	-9.15808
ian	-9.15911
▁floor	-9.16096
▁writer	-9.16138
▁results	-9.16189
▁temples	-9.16229
▁separate	-9.1627
▁added	-9.16298
▁era	-9.16381
▁bin	-9.16462
▁editor	-9.16541
▁department	-9.16554
▁stone	-9.16598
▁Singh	-9.1674
▁destroyed	-9.16773
▁change	-9.16792
▁bank	-9.1697
▁fall	-9.16999
▁r	-9.17152
▁Film	-9.17405
ri	-9.17427
▁widely	-9.17438
▁0	-9.17464
▁train	-9.17504
▁Dr	-9.17518
▁script	-9.17578
▁test	-9.17623
▁links	-9.17706
▁29	-9.17784
▁relative	-9.17931
f	-9.17945
▁US	-9.17948
▁those	-9.18055
▁sub	-9.18202
▁significant	-9.18309
▁always	-9.18508
▁legs	-9.18598
▁sports	-9.1864
▁lips	-9.18844
▁census	-9.18969
▁Sylhet	-9.18971
▁goddess	-9.19408
▁1960	-9.19419
▁Academy	-9.19432
▁How	-9.19538
▁Kali	-9.1959
▁buildings	-9.1968
▁Olympic	-9.19813
▁covered	-9.1992
▁70	-9.20004
▁us	-9.20037
▁Mr	-9.20065
▁Rabindranath	-9.20368
▁nine	-9.20396
▁45	-9.20715
▁gray	-9.20835
▁popularity	-9.20863
▁say	-9.2091
▁car	-9.21165
▁purpose	-9.21735
▁translated	-9.21815
▁model	-9.2182
▁Australian	-9.21961
rd	-9.22014
▁should	-9.22184
▁library	-9.22256
▁morning	-9.22256
▁Rajshahi	-9.22256
▁Indies	-9.22257
▁1970	-9.22258
▁performed	-9.22395
▁beautiful	-9.22529
ical	-9.22545
▁mountain	-9.22612
▁cost	-9.22686
▁think	-9.22686
▁past	-9.22888
▁Bihar	-9.22973
▁Do	-9.232
▁People	-9.23215
▁goes	-9.23282
or	-9.23522
▁author	-9.23645
▁saw	-9.23709
▁Islamic	-9.23853
▁actual	-9.2403
ive	-9.24057
able	-9.24083
▁Sea	-9.24155
▁Department	-9.24183
▁Mosque	-9.24184
▁find	-9.24196
▁schools	-9.24216
▁slightly	-9.24216
▁Personal	-9.24466
▁Games	-9.24482
▁90	-9.24605
▁win	-9.24623
▁medal	-9.24658
▁letter	-9.24661
▁actress	-9.24665
▁below	-9.24701
▁Olympics	-9.24759
▁commercial	-9.2494
20	-9.25043
▁poem	-9.25155
▁troops	-9.25162
▁daily	-9.25162
▁1998	-9.25163
▁behind	-9.25165
▁plants	-9.25213
▁Ib	-9.25235
sually	-9.2526
▁International	-9.25447
▁write	-9.25612
▁collection	-9.25615
▁lay	-9.25621
▁Greek	-9.25639
▁drama	-9.25641
▁skin	-9.25663
▁hands	-9.25815
▁deep	-9.25919
▁coach	-9.25937
▁non	-9.26008
▁training	-9.26049
▁court	-9.26132
▁subject	-9.26143
▁1972	-9.26151
▁data	-9.26152
ma	-9.26181
▁keep	-9.26194
▁met	-9.26502
▁mouzas	-9.26542
▁32	-9.26624
▁1930	-9.26652
▁revolutionary	-9.26662
I	-9.26671
▁spots	-9.26717
▁fort	-9.26845
▁meaning	-9.26846
▁free	-9.26987
▁BC	-9.27078
▁twice	-9.27147
▁80	-9.2764
▁associate	-9.27662
p	-9.27669
▁actor	-9.27683
▁Day	-9.2781
▁By	-9.27951
▁German	-9.28012
▁hard	-9.2806
▁Abu	-9.28172
▁Mughal	-9.28189
▁date	-9.28218
▁meeting	-9.28416
ti	-9.28453
nath	-9.28491
▁society	-9.28662
▁caught	-9.28662
▁Go	-9.28662
▁Central	-9.28663
▁recognized	-9.28704
▁soil	-9.28717
▁heart	-9.28786
▁hit	-9.28845
▁Asian	-9.2901
▁Hindi	-9.29186
▁Arabia	-9.29255
▁ended	-9.29277
▁completely	-9.29305
▁God	-9.29622
▁fought	-9.29687
▁1947	-9.29688
▁1975	-9.29689
▁Where	-9.2969
▁flag	-9.29734
▁support	-9.29794
▁players	-9.2987
▁throughout	-9.30215
▁decided	-9.3025
▁wall	-9.30283
▁star	-9.30424
▁sisters	-9.30515
▁theory	-9.30527
▁reasons	-9.30644
▁sometimes	-9.30719
▁especially	-9.30721
▁earth	-9.30723
▁couple	-9.30739
▁ship	-9.30753
▁celebrated	-9.30756
▁wood	-9.30784
▁starr	-9.30936
▁traditional	-9.31117
ish	-9.31156
▁1995	-9.31242
▁organized	-9.31289
▁we	-9.31372
▁Wikipedia	-9.31762
▁1997	-9.31766
▁Hall	-9.31797
▁stadium	-9.31829
▁Roman	-9.31896
▁build	-9.31925
▁air	-9.31975
▁33	-9.32251
▁rare	-9.32291
▁Lord	-9.32291
▁upper	-9.32302
at	-9.3231
▁graduated	-9.32321
▁situation	-9.32352
▁neck	-9.32375
▁Railway	-9.32384
▁news	-9.32587
▁Hat	-9.32622
▁art	-9.32773
▁literary	-9.32819
▁Nawab	-9.32905
▁Act	-9.32913
▁entered	-9.32971
▁See	-9.32986
▁mind	-9.331
▁Iran	-9.33285
▁Japanese	-9.33363
▁making	-9.33381
▁Who	-9.33422
▁shot	-9.33463
▁tribe	-9.3348
▁turned	-9.33581
▁Das	-9.3368
▁primar	-9.33696
▁wing	-9.33737
▁seeds	-9.33748
▁studying	-9.3381
▁Sheikh	-9.33884
▁probabl	-9.33885
▁better	-9.33885
▁Death	-9.33886
▁1989	-9.33886
▁balls	-9.34305
▁natural	-9.34352
▁1991	-9.34427
▁how	-9.34427
▁Geograph	-9.345
▁Raj	-9.34502
▁J	-9.3451
▁hold	-9.34576
▁eye	-9.34578
▁western	-9.3463
▁Ghosh	-9.34819
▁husband	-9.34956
▁capacity	-9.34964
▁1992	-9.34965
▁List	-9.34971
▁Other	-9.35092
▁younger	-9.35104
▁election	-9.35176
day	-9.35223
▁origin	-9.35415
▁easily	-9.35507
▁genus	-9.35507
▁Khatun	-9.35507
▁Music	-9.35508
▁Like	-9.35515
▁moon	-9.35534
▁palace	-9.35616
▁states	-9.35634
▁shown	-9.35648
▁broke	-9.359
▁Syed	-9.35934
▁Assembly	-9.36053
▁Uddin	-9.36055
▁alone	-9.3606
▁design	-9.36065
▁wanted	-9.36071
▁TV	-9.3609
▁e	-9.36175
▁Bangla	-9.36406
▁General	-9.36442
▁independent	-9.36454
▁Congress	-9.36593
▁Prime	-9.36603
▁1984	-9.36605
▁Vishnu	-9.36607
▁cannot	-9.36613
▁status	-9.36641
am	-9.3689
less	-9.36905
▁Ma	-9.3696
▁announced	-9.37175
▁ICC	-9.37183
▁V	-9.37297
▁highway	-9.37324
▁Island	-9.3734
▁dry	-9.37342
▁connected	-9.37382
▁Russian	-9.37385
▁minutes	-9.37534
▁gradually	-9.37716
▁Pa	-9.37871
▁lakh	-9.37889
▁don	-9.38147
▁1979	-9.38271
▁1948	-9.38272
▁sun	-9.38303
▁Ram	-9.38348
▁trade	-9.38451
▁regularly	-9.38453
▁grow	-9.38477
▁prison	-9.38759
▁Park	-9.38783
▁stars	-9.38785
▁events	-9.38793
▁36	-9.38818
▁opportunity	-9.38831
▁grandfather	-9.38869
▁artist	-9.39026
▁feathers	-9.39048
▁Bangladeshi	-9.39111
▁numbers	-9.39138
▁journey	-9.39396
▁Election	-9.39403
tic	-9.39693
▁Awards	-9.39695
▁blood	-9.39836
▁Division	-9.39973
▁soon	-9.40038
▁chief	-9.40194
▁travel	-9.40332
▁La	-9.40429
▁FIFA	-9.40536
▁Population	-9.40536
▁silver	-9.40536
▁House	-9.40543
da	-9.40555
▁read	-9.40926
▁difficult	-9.40937
ce	-9.40949
▁foreign	-9.41035
▁renamed	-9.41111
▁55	-9.41284
▁Geographical	-9.41492
▁sold	-9.41712
▁quickly	-9.41713
▁Due	-9.41717
▁start	-9.42027
▁hat	-9.42043
▁pictures	-9.42153
▁opened	-9.42185
▁My	-9.42235
▁York	-9.4227
▁bottom	-9.42275
▁obtained	-9.42278
▁edit	-9.42461
▁75	-9.4253
▁condition	-9.42588
ton	-9.42656
▁carrie	-9.4282
▁summer	-9.42855
▁least	-9.42855
▁Earlier	-9.42857
▁rupees	-9.42921
▁girls	-9.42981
▁formula	-9.43107
▁eldest	-9.43443
▁Father	-9.43444
▁Raja	-9.43445
▁ODI	-9.43734
▁Unti	-9.43767
▁European	-9.43826
▁regions	-9.43841
▁ruler	-9.43846
▁monastery	-9.44035
▁regular	-9.44434
▁Air	-9.44468
▁Medina	-9.4463
▁Surah	-9.44633
▁1982	-9.44633
▁1950	-9.44638
▁museum	-9.44919
▁notable	-9.44924
▁closed	-9.44963
▁ways	-9.45088
▁56	-9.45208
▁1993	-9.45231
▁Thus	-9.45234
▁originated	-9.45259
▁return	-9.45437
li	-9.45488
▁crore	-9.45526
▁State	-9.45559
▁episode	-9.45579
▁Hindus	-9.45664
▁opening	-9.45793
▁inches	-9.45848
▁adopted	-9.4585
▁revealed	-9.45903
▁join	-9.46016
▁eastern	-9.46069
▁surround	-9.46071
▁sense	-9.46116
▁draw	-9.46292
▁1962	-9.46442
▁fifth	-9.46474
▁ago	-9.46917
arm	-9.46935
▁walls	-9.46965
▁tall	-9.47003
▁stopped	-9.47047
▁Municipality	-9.47048
▁1986	-9.47049
▁grew	-9.47056
▁weight	-9.47124
▁friend	-9.47201
▁hours	-9.47287
▁Lake	-9.47312
▁garden	-9.47397
▁fruits	-9.47432
ting	-9.47468
▁personal	-9.47686
▁move	-9.47778
▁growth	-9.47784
▁verses	-9.4779
▁c	-9.47855
ha	-9.47962
▁mention	-9.47966
▁temperature	-9.48006
▁leave	-9.48033
espite	-9.48087
▁Afghanistan	-9.48278
▁1994	-9.48281
▁200	-9.48287
▁bat	-9.48308
▁range	-9.48409
▁secondary	-9.48418
▁others	-9.48419
▁34	-9.48433
ural	-9.48527
▁rooms	-9.48567
▁fly	-9.48609
▁entrance	-9.48647
▁animal	-9.4866
▁dead	-9.48712
▁sex	-9.48872
▁Mumbai	-9.48899
▁unit	-9.49133
▁hospital	-9.49211
▁institution	-9.49508
▁Brazil	-9.49513
▁Again	-9.49529
▁knowledge	-9.49533
▁forests	-9.49565
▁described	-9.49569
▁tried	-9.49575
▁refer	-9.49885
▁cut	-9.49902
▁Saudi	-9.49947
ought	-9.50018
▁Russia	-9.50072
▁More	-9.50121
▁maximum	-9.50153
▁Police	-9.50153
▁imprisoned	-9.50162
▁52	-9.50326
▁teaching	-9.5068
▁Qur	-9.50753
▁1969	-9.50788
▁quality	-9.50795
▁gas	-9.50837
▁teachers	-9.50841
ness	-9.50974
▁48	-9.51252
il	-9.51273
▁begins	-9.51328
▁complex	-9.51403
▁canal	-9.51416
▁professor	-9.51422
▁vehicles	-9.515
▁profession	-9.51649
▁mouth	-9.51853
▁release	-9.51853
▁Buddha	-9.51997
▁victory	-9.52063
▁equal	-9.52072
▁depth	-9.52073
▁hill	-9.52229
▁49	-9.52417
▁novels	-9.52434
▁civilization	-9.52488
▁Ottoman	-9.52507
▁problem	-9.52517
▁rock	-9.52525
▁bright	-9.52634
▁descent	-9.52709
▁ambiguity	-9.52709
▁1985	-9.52711
▁65	-9.53008
▁chance	-9.53125
▁Red	-9.53292
ganj	-9.5331
efore	-9.53319
▁rail	-9.53383
▁youngest	-9.53416
ong	-9.5362
▁Male	-9.53686
▁emperor	-9.53818
▁section	-9.53837
to	-9.53997
▁however	-9.54032
▁Italy	-9.54038
▁wear	-9.54051
ang	-9.54133
▁selected	-9.54133
S	-9.54181
▁route	-9.54394
▁1973	-9.54672
▁county	-9.54701
▁observed	-9.54753
▁pre	-9.54938
▁wards	-9.55144
▁Under	-9.55334
▁secretary	-9.55344
▁mixed	-9.55414
▁god	-9.55513
▁collected	-9.55557
▁influence	-9.5567
▁founder	-9.5578
▁boy	-9.55864
▁p	-9.55925
▁unbeaten	-9.55998
▁density	-9.55999
▁1987	-9.56001
▁1956	-9.56002
▁space	-9.56032
▁annual	-9.56108
3	-9.56239
▁accepted	-9.5627
▁islands	-9.56272
▁wants	-9.56325
ity	-9.56525
▁statue	-9.56529
▁economic	-9.56532
▁energy	-9.5667
▁include	-9.56728
▁agricultural	-9.56961
▁Mo	-9.57174
▁Bay	-9.57175
▁Iraq	-9.57203
▁matter	-9.57207
▁resident	-9.57232
▁thick	-9.57278
▁Women	-9.57345
▁reputation	-9.57345
▁basis	-9.57347
▁variety	-9.57347
▁1974	-9.57348
▁1958	-9.57351
▁identified	-9.57359
▁1920	-9.57367
▁converted	-9.57395
▁fled	-9.57396
▁overs	-9.57413
▁fair	-9.57686
▁Padma	-9.5789
▁First	-9.58025
▁Tagore	-9.58026
▁Group	-9.58026
▁1963	-9.5806
▁leaders	-9.58201
▁within	-9.58207
▁fight	-9.58273
▁characters	-9.58292
▁girl	-9.58601
▁twenty	-9.5871
▁Comilla	-9.5871
▁1965	-9.58716
▁Hasan	-9.58734
referred	-9.58866
A	-9.59049
▁46	-9.59133
▁seats	-9.59171
▁nation	-9.59192
▁private	-9.592
▁effect	-9.59285
ies	-9.59338
▁Professor	-9.594
▁dropped	-9.594
▁Everyone	-9.59403
▁educated	-9.59422
▁self	-9.59536
▁42	-9.59546
▁bring	-9.59582
▁De	-9.59676
▁James	-9.59743
▁longer	-9.60057
▁1983	-9.60087
▁Company	-9.60094
▁studies	-9.60094
▁1976	-9.60098
▁1946	-9.60098
ll	-9.60107
ally	-9.60124
▁Birth	-9.60182
▁protected	-9.60305
▁1966	-9.60325
te	-9.60618
▁Dev	-9.60628
▁agriculture	-9.60794
▁families	-9.60794
▁PhD	-9.60794
▁Khulna	-9.60795
▁County	-9.60808
▁Puja	-9.60813
▁Latin	-9.60817
▁promoted	-9.60866
▁care	-9.61261
▁edition	-9.61432
▁Economy	-9.61498
▁throne	-9.61498
▁Middle	-9.61499
▁Soviet	-9.61517
▁architecture	-9.61577
▁expressed	-9.61585
▁pair	-9.61774
▁Don	-9.61778
▁cell	-9.62102
▁industrial	-9.62111
▁Magh	-9.62123
▁tiger	-9.62143
▁Barcelona	-9.62207
▁Parliament	-9.62207
▁Moreover	-9.62208
▁row	-9.62215
▁attended	-9.62289
ism	-9.62301
ry	-9.6242
▁understand	-9.62461
▁Whi	-9.62466
▁tomb	-9.62543
▁week	-9.62684
▁professional	-9.62742
▁sweet	-9.6285
▁paper	-9.62877
▁Three	-9.62922
▁environment	-9.62949
▁multiple	-9.62971
▁prey	-9.63098
▁object	-9.63222
▁47	-9.63414
▁historical	-9.63509
▁feature	-9.63601
▁folk	-9.63641
▁tournament	-9.63641
▁Canada	-9.63642
▁told	-9.63681
▁site	-9.63693
▁comrades	-9.63712
▁basic	-9.63896
▁-	-9.63977
▁clear	-9.64092
▁hair	-9.64209
▁path	-9.64358
▁Black	-9.64365
▁1954	-9.64367
▁Abdullah	-9.64371
▁Spanish	-9.64372
▁points	-9.64491
▁directly	-9.6451
▁African	-9.64575
▁Nam	-9.64913
▁roof	-9.65013
▁heavy	-9.65096
▁importance	-9.65097
▁1978	-9.65097
▁Spain	-9.65098
z	-9.65108
▁Currently	-9.65134
▁door	-9.65154
▁Not	-9.65189
▁51	-9.65202
▁finished	-9.65223
▁eating	-9.65274
▁signed	-9.65329
▁Note	-9.65466
▁participate	-9.65581
▁cultural	-9.65629
▁uncle	-9.65733
▁translation	-9.65797
▁subdivision	-9.65816
▁worshiped	-9.65824
▁Court	-9.65831
▁1952	-9.65836
▁occupied	-9.65907
▁d	-9.65923
▁Kazi	-9.66099
▁39	-9.66198
nagar	-9.66227
el	-9.6637
▁hotel	-9.66524
▁Sever	-9.6654
▁identity	-9.66572
▁Board	-9.66572
▁Durga	-9.66576
▁1981	-9.66577
▁medals	-9.66596
▁sung	-9.66596
▁hall	-9.66599
▁tea	-9.66635
ation	-9.66684
▁appeared	-9.66698
▁anti	-9.67015
▁increase	-9.67109
▁except	-9.67305
▁Tamil	-9.67319
▁am	-9.67327
▁royal	-9.67379
ers	-9.67464
▁problems	-9.6754
para	-9.67663
▁complete	-9.67713
▁element	-9.67749
ji	-9.67837
▁becomes	-9.67991
▁particular	-9.6807
▁Great	-9.6807
▁Buddhism	-9.68072
▁governor	-9.68076
▁Christian	-9.68099
▁eaten	-9.68102
▁sky	-9.68175
year	-9.68247
▁Royal	-9.68401
▁ODIs	-9.68453
▁Station	-9.68462
▁insects	-9.68508
▁zero	-9.68827
▁certain	-9.68827
▁technology	-9.68829
▁scientific	-9.6883
▁1932	-9.68831
▁Council	-9.68834
▁Barisal	-9.68844
▁Force	-9.68883
▁cells	-9.68893
▁exists	-9.69142
▁meet	-9.69235
▁fact	-9.69508
▁zamindar	-9.69541
▁league	-9.69568
▁Bar	-9.69578
▁worldwide	-9.69597
▁newspaper	-9.69636
▁pond	-9.69636
▁true	-9.69647
▁White	-9.69649
▁turn	-9.69726
▁visited	-9.69887
▁need	-9.69983
▁starts	-9.70014
▁transport	-9.70035
▁bus	-9.70047
▁rank	-9.70151
land	-9.70262
▁program	-9.70276
▁Emperor	-9.7036
▁Sometimes	-9.7036
▁Sabha	-9.70361
▁resistance	-9.70361
▁Born	-9.70365
▁Purana	-9.70421
▁winning	-9.70422
▁rain	-9.70446
▁38	-9.70553
▁54	-9.70727
▁sang	-9.70806
▁San	-9.70904
▁smaller	-9.70914
▁radio	-9.71135
▁yet	-9.71136
▁1967	-9.71137
▁simple	-9.7115
rounder	-9.71159
▁computer	-9.71198
▁singer	-9.71225
▁awards	-9.71271
ist	-9.71385
▁helped	-9.71575
▁sixth	-9.71654
▁constitution	-9.71656
▁tak	-9.7168
▁rules	-9.71774
▁increases	-9.71904
▁extreme	-9.71916
▁cultivation	-9.71917
▁1968	-9.71919
▁stations	-9.7192
▁martyred	-9.71955
is	-9.72021
▁movies	-9.72082
▁poor	-9.72501
▁pressure	-9.72704
▁native	-9.72705
▁Myanmar	-9.72711
▁1964	-9.72719
▁kill	-9.72739
j	-9.72757
▁cultivated	-9.72793
▁Re	-9.72794
▁conducted	-9.72846
▁Paris	-9.73213
▁honor	-9.73292
▁order	-9.7344
▁Bollywood	-9.73497
▁Urdu	-9.73498
▁running	-9.73499
▁1955	-9.73502
▁Mymensingh	-9.73509
▁code	-9.73603
▁difference	-9.73629
▁remained	-9.73656
▁instead	-9.73695
▁reach	-9.73703
▁Dutt	-9.73748
▁writings	-9.73845
▁Every	-9.7402
▁Football	-9.74297
▁milk	-9.74298
▁sugar	-9.74298
▁1953	-9.74301
▁mid	-9.74337
▁camp	-9.74388
00	-9.74411
▁larger	-9.74566
ullah	-9.74847
▁physical	-9.74902
▁Brahma	-9.74932
un	-9.74962
▁Bank	-9.75002
▁contract	-9.75034
▁workers	-9.75044
▁drive	-9.75057
▁Meanwhile	-9.75104
▁paddy	-9.75104
▁Cox	-9.75111
▁Rangpur	-9.75113
▁related	-9.75127
▁golden	-9.75129
▁Basu	-9.75157
▁minister	-9.75213
▁affected	-9.75225
▁medicine	-9.75257
▁followed	-9.7527
▁signal	-9.7534
▁43	-9.75372
4	-9.75491
▁break	-9.75508
▁jump	-9.75621
▁mean	-9.75718
▁David	-9.75912
▁Society	-9.75917
▁Pradesh	-9.75917
▁naming	-9.75917
▁orange	-9.76024
▁changes	-9.76145
▁64	-9.76256
▁Through	-9.7631
▁connect	-9.76327
▁things	-9.76375
▁accept	-9.7639
▁leg	-9.76469
▁financial	-9.76536
▁Port	-9.76663
▁Republic	-9.76699
▁1938	-9.76741
▁unknown	-9.76745
▁table	-9.76762
▁aircraft	-9.76782
▁breeding	-9.76928
di	-9.76973
▁box	-9.77112
▁jail	-9.77222
▁kings	-9.77286
ng	-9.77364
▁responsible	-9.77564
▁further	-9.77564
▁treatment	-9.77565
▁300	-9.7766
▁recorded	-9.77672
▁standard	-9.7769
▁channel	-9.77719
▁sound	-9.77719
▁text	-9.7773
▁contribution	-9.77738
ne	-9.77884
▁plan	-9.78254
▁attract	-9.78373
▁semi	-9.78394
▁Zimbabwe	-9.78396
▁juice	-9.78396
▁occasion	-9.78408
▁suitable	-9.78429
▁approved	-9.78468
▁assistant	-9.78683
▁search	-9.7887
sh	-9.78944
▁37	-9.79
▁salt	-9.79081
▁campus	-9.79224
▁Mukherjee	-9.79237
▁Britain	-9.79237
▁Jessore	-9.79237
▁baby	-9.79237
▁1945	-9.79242
▁kg	-9.79244
▁ability	-9.79316
▁Mary	-9.79411
▁committee	-9.79411
▁Har	-9.79507
▁too	-9.79579
id	-9.79699
▁fighting	-9.79719
▁board	-9.79835
▁normal	-9.79883
▁happy	-9.80084
▁responsibility	-9.80084
▁Makkah	-9.80084
▁Year	-9.80086
▁headquartered	-9.80105
ibn	-9.80126
▁Allah	-9.80137
▁sentenced	-9.80203
▁youth	-9.80238
▁Anwar	-9.80386
▁older	-9.805
▁designed	-9.80602
▁ancestr	-9.80759
▁leaf	-9.80781
▁must	-9.80938
▁Bridge	-9.8094
▁arranged	-9.81004
▁Pakistanis	-9.81039
▁visit	-9.81098
▁Robert	-9.81108
▁empire	-9.81124
▁peak	-9.81164
▁direction	-9.8117
▁69	-9.81211
▁traveled	-9.81439
▁Bir	-9.81533
▁enough	-9.81801
▁coming	-9.81913
▁i	-9.81918
▁pay	-9.81921
▁secret	-9.81935
▁concept	-9.82021
▁view	-9.82071
ready	-9.82097
▁W	-9.82139
▁claim	-9.82331
▁1959	-9.82349
▁44	-9.8249
▁sit	-9.82521
▁Sun	-9.82666
▁Association	-9.82672
▁favorite	-9.82672
▁Chief	-9.8273
▁across	-9.82733
▁Shahee	-9.82802
▁says	-9.82802
▁managed	-9.82849
▁products	-9.82982
hi	-9.83221
▁Nazrul	-9.83548
▁Short	-9.83549
▁specific	-9.83552
▁1961	-9.83553
▁Mother	-9.83553
▁Western	-9.8356
▁meat	-9.83578
▁pale	-9.83578
▁tell	-9.83595
▁issue	-9.83605
▁put	-9.83605
▁crops	-9.83682
▁spring	-9.83799
▁1988	-9.83808
as	-9.83832
▁63	-9.83891
▁metal	-9.84065
▁associat	-9.84397
▁policy	-9.84433
▁abroad	-9.84433
▁suicide	-9.84435
▁Kingdom	-9.84435
▁cold	-9.84438
▁George	-9.84443
▁Revolution	-9.84451
▁Sam	-9.84482
▁conquered	-9.84509
▁replaced	-9.84513
▁originates	-9.84629
▁altitude	-9.8466
▁voice	-9.84674
▁price	-9.84702
▁permanent	-9.85128
▁chest	-9.85318
▁Twenty	-9.85325
▁Gupta	-9.85334
▁Apart	-9.85356
▁respectively	-9.85361
▁inaugurated	-9.85373
▁Amir	-9.85392
▁Char	-9.85472
▁officer	-9.85774
▁hills	-9.85808
▁talk	-9.85825
▁Lok	-9.85878
▁sources	-9.86025
▁Punjab	-9.86103
▁72	-9.86121
▁demand	-9.8619
▁fame	-9.86226
▁combination	-9.86235
▁estimated	-9.86244
▁features	-9.86277
▁operation	-9.86405
▁1942	-9.86431
▁Ray	-9.86499
storey	-9.86539
▁description	-9.86539
▁colors	-9.86613
▁Thos	-9.86625
▁habitat	-9.86648
▁hot	-9.86815
▁weapons	-9.86876
▁tribes	-9.86933
▁41	-9.87097
▁eleven	-9.87135
onstruction	-9.87171
▁Alam	-9.87389
▁examination	-9.87437
▁contain	-9.8744
▁establishment	-9.87446
▁friends	-9.87522
ch	-9.87701
▁organizations	-9.87732
▁remains	-9.87949
▁59	-9.87962
▁prayers	-9.88028
▁Chakraborty	-9.88053
▁Infrastructure	-9.88053
▁enemy	-9.88053
▁1951	-9.88056
▁2017	-9.88059
▁Eastern	-9.88066
▁broken	-9.88189
▁tourist	-9.8844
▁boat	-9.88442
▁53	-9.88621
▁sector	-9.88624
▁founding	-9.88626
ba	-9.88686
ak	-9.88747
▁nickname	-9.88753
▁Differen	-9.8897
▁Mahmud	-9.88977
▁controversy	-9.88979
▁Mecca	-9.88979
▁monsoon	-9.88979
▁leadership	-9.88983
▁1940	-9.88984
▁1957	-9.88984
▁1937	-9.88986
▁BA	-9.89208
▁Vari	-9.89247
,000	-9.89308
shaped	-9.89327
▁theater	-9.89354
x	-9.89396
▁regional	-9.89482
▁bowl	-9.89551
▁ends	-9.89596
▁El	-9.89823
▁Museum	-9.89913
▁bodies	-9.89914
▁prominent	-9.89915
▁Highway	-9.89925
▁1924	-9.8996
▁spoken	-9.90006
va	-9.90229
▁action	-9.90416
▁host	-9.90519
▁Now	-9.9083
▁Committee	-9.90857
▁chairman	-9.9086
▁Banu	-9.90876
▁Azad	-9.90881
red	-9.90897
▁Madrasa	-9.90906
▁limited	-9.90961
▁Dar	-9.90987
▁occurs	-9.91031
▁doctor	-9.9111
▁seasons	-9.91198
▁tide	-9.91258
▁Main	-9.91287
ment	-9.91388
▁thing	-9.91447
ga	-9.91469
▁religions	-9.91582
▁media	-9.91718
▁fierce	-9.91809
▁Poush	-9.91809
▁presence	-9.91809
▁Pabna	-9.9181
▁Mitra	-9.91812
▁1936	-9.91813
▁1949	-9.91815
▁Akbar	-9.91865
▁pairs	-9.91897
▁mountains	-9.91902
mi	-9.92015
▁tradition	-9.92064
▁levels	-9.92107
▁bowled	-9.9215
▁creation	-9.92177
▁agreement	-9.92207
ki	-9.92467
▁Nagar	-9.92469
▁Mahabharata	-9.92771
▁ceremony	-9.92771
▁memory	-9.92771
▁Temple	-9.92771
▁reddish	-9.92771
▁1921	-9.92779
▁billion	-9.92804
▁invented	-9.92834
▁raised	-9.92851
▁determined	-9.92934
▁injury	-9.92947
▁survived	-9.92993
▁gods	-9.93012
▁2,	-9.93166
▁decision	-9.93188
▁expedition	-9.93206
▁tourists	-9.93362
▁Play	-9.93372
▁meter	-9.93416
▁accident	-9.93477
▁Rashid	-9.93558
▁visible	-9.93742
▁Eventually	-9.93742
▁Ramakrishna	-9.93742
▁Aziz	-9.93745
▁partition	-9.93771
▁Ch	-9.93787
▁printed	-9.93809
▁defeat	-9.93816
▁divisions	-9.93929
▁Ka	-9.93961
▁heard	-9.94061
▁seem	-9.94071
▁William	-9.94176
▁video	-9.94206
▁collect	-9.94353
▁width	-9.94722
▁chess	-9.94722
▁Medal	-9.94725
▁prevalent	-9.94725
▁effective	-9.94729
▁Ganesha	-9.94737
▁1977	-9.94748
▁Hinduism	-9.94752
▁direct	-9.94768
▁weeks	-9.94797
▁classes	-9.94863
▁150	-9.95419
bi	-9.95467
▁Is	-9.95612
▁1000	-9.95613
▁elements	-9.95686
long	-9.95687
▁Michael	-9.95712
▁category	-9.95712
▁lack	-9.95713
▁1939	-9.95717
▁subcontinent	-9.95746
▁conflict	-9.95753
▁preserved	-9.95785
▁Abul	-9.95853
▁boys	-9.95934
▁catch	-9.96054
▁Le	-9.96151
▁basin	-9.96195
▁race	-9.96198
▁Mir	-9.963
▁Men	-9.96325
▁consider	-9.96363
▁Veda	-9.96514
▁Korea	-9.96632
▁Language	-9.96712
▁Italian	-9.96714
▁Center	-9.96714
▁Zia	-9.96721
▁assembly	-9.96723
▁attention	-9.96747
▁counter	-9.96753
▁nineteenth	-9.96754
▁500	-9.96954
▁extended	-9.97017
▁continue	-9.97032
▁includes	-9.97038
▁tons	-9.97102
▁needed	-9.97148
▁85	-9.97211
▁articles	-9.97481
▁dense	-9.97525
▁grass	-9.9769
▁subjects	-9.97713
▁CNG	-9.97722
▁Hooghly	-9.97722
▁Winter	-9.97723
▁anything	-9.97725
▁existence	-9.97744
▁nothing	-9.97755
▁abandoned	-9.97796
▁MA	-9.97866
▁58	-9.98015
ram	-9.98068
known	-9.98143
▁shrine	-9.98227
▁champion	-9.98257
▁71	-9.98293
▁forward	-9.98315
▁thin	-9.98728
▁boundaries	-9.98743
▁1931	-9.98749
▁degrees	-9.98755
up	-9.98806
▁foot	-9.98843
ja	-9.98865
▁roads	-9.98914
▁seventh	-9.99151
▁Can	-9.99285
▁performance	-9.99291
▁image	-9.99303
▁journalist	-9.99313
▁services	-9.99382
▁painting	-9.99383
▁Islands	-9.99437
▁issues	-9.99447
ke	-9.99602
▁Abdu	-9.99671
▁ranks	-9.997
▁alphabet	-9.99762
▁mathematics	-9.99773
▁pillars	-9.99823
▁latest	-9.99827
▁Pal	-9.9984
▁prepared	-9.99859
▁transfer	-9.9994
ine	-9.99946
▁provided	-9.99974
▁singing	-10.0005
▁Ra	-10.0006
▁architect	-10.001
▁income	-10.0028
▁passengers	-10.0028
▁climate	-10.0029
▁mm	-10.0031
▁sign	-10.0054
ah	-10.0059
▁elder	-10.0061
▁Bara	-10.0065
▁differences	-10.0067
▁Four	-10.007
▁Jagannath	-10.0079
▁Argentina	-10.0082
▁Valley	-10.0082
▁evidence	-10.0082
▁twentieth	-10.0082
▁Institute	-10.0083
▁principal	-10.0084
▁legal	-10.0096
▁succeeded	-10.0096
▁Lankan	-10.0103
▁drink	-10.0104
▁exist	-10.0106
lal	-10.0106
▁broadcast	-10.0107
▁4,	-10.0111
kar	-10.0126
▁hole	-10.0151
▁classic	-10.0154
▁elections	-10.0159
it	-10.0159
▁receive	-10.016
lo	-10.0167
▁Sa	-10.0177
▁Indonesia	-10.0179
▁Out	-10.0185
▁extinct	-10.0185
▁Dinajpur	-10.0187
▁Gradually	-10.0187
▁contemporary	-10.0187
▁future	-10.0187
▁everything	-10.0187
▁executive	-10.0187
▁captained	-10.0188
▁Turkish	-10.0188
▁chemical	-10.0188
▁deity	-10.0189
▁settled	-10.019
▁Bose	-10.0194
▁Thana	-10.02
▁agreed	-10.0204
▁pass	-10.0217
gram	-10.022
▁tip	-10.0253
▁hour	-10.0256
▁Bal	-10.0267
▁ships	-10.0278
▁pace	-10.0288
▁Primary	-10.0293
▁beauty	-10.0293
▁universe	-10.0293
▁rainfall	-10.0293
▁Wikipedians	-10.0293
▁Family	-10.0293
▁goods	-10.0298
▁paved	-10.0299
▁Initially	-10.0313
ful	-10.0324
-19	-10.0331
▁mosques	-10.0337
▁step	-10.0338
▁followers	-10.0349
▁key	-10.0356
▁disciple	-10.0359
▁grows	-10.0362
▁hero	-10.0364
▁decades	-10.038
uddin	-10.038
▁health	-10.0386
▁turns	-10.0394
▁records	-10.0398
▁Earth	-10.0398
▁Metro	-10.0401
▁Ahmad	-10.0401
▁Orissa	-10.0401
▁widespread	-10.0401
▁Political	-10.0401
▁management	-10.0401
▁our	-10.0402
▁factory	-10.0403
▁Narayan	-10.0407
▁defense	-10.0416
▁Babu	-10.0434
▁Bell	-10.0445
▁doctrine	-10.0466
▁taste	-10.0466
▁legend	-10.0467
▁reading	-10.047
son	-10.0479
▁Be	-10.0481
▁shows	-10.0489
ina	-10.0499
▁400	-10.0508
▁ethnic	-10.0509
▁Chemistry	-10.0509
▁Goddess	-10.0509
▁Mexico	-10.0509
▁Trophy	-10.0509
▁lawyer	-10.0509
▁Irish	-10.051
▁Imam	-10.051
▁Sydney	-10.051
▁medical	-10.0511
▁letters	-10.0513
▁relations	-10.052
▁advanced	-10.0526
▁experience	-10.0553
▁Ki	-10.0563
iya	-10.0564
▁Su	-10.0571
▁Ashar	-10.0573
▁Guru	-10.0574
▁Work	-10.0576
▁guru	-10.058
▁depend	-10.058
▁edge	-10.0581
▁protect	-10.0583
▁extend	-10.0586
▁fighter	-10.0592
▁Victoria	-10.0611
▁Ibrahim	-10.0619
▁companies	-10.0619
▁Wildlife	-10.0619
▁software	-10.0619
▁Bogra	-10.062
▁uses	-10.0622
▁arrived	-10.0626
▁audience	-10.0626
▁Baghdad	-10.063
▁removed	-10.0632
▁planet	-10.0634
▁parties	-10.0639
time	-10.0641
bari	-10.0652
▁walk	-10.0652
ized	-10.0668
▁Jain	-10.0676
▁boats	-10.0686
me	-10.069
most	-10.0703
▁Ver	-10.0722
▁church	-10.0729
▁Ocean	-10.0729
▁unique	-10.073
▁Water	-10.073
▁bronze	-10.073
▁deriv	-10.073
▁ninth	-10.073
▁Turkey	-10.073
▁Big	-10.0736
▁bill	-10.0737
▁authorities	-10.0742
ara	-10.0748
▁reduced	-10.0753
▁2011,	-10.0757
▁Na	-10.0766
▁separated	-10.0787
like	-10.0796
7	-10.0811
▁grams	-10.0814
▁nest	-10.0816
▁geographical	-10.0822
9	-10.0828
▁Hari	-10.0836
▁Gandhi	-10.0838
▁revolution	-10.0841
▁Portuguese	-10.0843
▁Corporation	-10.0843
▁Google	-10.0843
▁Parishad	-10.0843
▁Manchester	-10.0843
▁Charles	-10.0843
▁electricity	-10.0843
▁Communist	-10.0843
▁1933	-10.0843
▁1918	-10.0843
▁1919	-10.0844
▁dependent	-10.0845
▁adult	-10.0847
▁heads	-10.0848
▁Navy	-10.0849
▁attached	-10.0852
▁Get	-10.0857
▁owned	-10.0857
ani	-10.0891
▁Am	-10.0904
0	-10.0905
▁narrow	-10.0914
sa	-10.0916
raj	-10.0926
▁Mia	-10.0927
▁deal	-10.0929
▁save	-10.0936
age	-10.0946
▁soft	-10.095
▁constant	-10.0956
▁response	-10.0956
▁Bibi	-10.0957
▁Assamese	-10.0957
▁eighteen	-10.0957
▁1926	-10.0957
▁peace	-10.0958
▁urban	-10.0961
▁bar	-10.0962
▁Summer	-10.0964
▁suffered	-10.0969
▁skilled	-10.0974
▁maintained	-10.0981
▁Lama	-10.0986
▁keeper	-10.0988
▁longest	-10.0993
▁institutions	-10.0999
▁perform	-10.1002
▁Kamal	-10.1004
▁escape	-10.1009
▁evening	-10.1012
po	-10.1021
▁caliph	-10.1028
▁weigh	-10.1028
▁sport	-10.1038
▁product	-10.1039
▁volume	-10.104
6	-10.1046
▁bad	-10.1048
▁cricketer	-10.1054
▁weak	-10.1062
▁heat	-10.1064
▁scriptures	-10.1065
▁62	-10.1071
▁Kapoor	-10.1071
▁leaving	-10.1071
▁sixteen	-10.1071
▁Sangeet	-10.1071
▁Governor	-10.1071
▁1929	-10.1072
▁winners	-10.1072
▁something	-10.1072
▁Shekhar	-10.1072
▁autorickshaw	-10.1072
▁Green	-10.1073
▁discovery	-10.1075
▁tongue	-10.1077
▁Eid	-10.1078
▁laid	-10.1079
▁flat	-10.1083
▁allowed	-10.1089
▁Ganges	-10.1092
▁falls	-10.1103
▁dream	-10.1107
▁writers	-10.1107
▁coal	-10.111
▁Or	-10.1111
▁campaign	-10.1118
▁bit	-10.1124
▁act	-10.1143
▁vegetables	-10.1146
▁material	-10.1154
▁contact	-10.1154
▁risk	-10.117
▁Paul	-10.1172
▁ever	-10.1187
▁Moscow	-10.1188
▁Bhattacharya	-10.1188
▁literal	-10.1188
▁Airport	-10.1188
▁property	-10.1188
▁sitting	-10.1189
▁Ashes	-10.1189
▁wounded	-10.1191
▁61	-10.1191
▁commander	-10.1192
▁constructed	-10.1192
▁foundation	-10.1197
ai	-10.1201
ley	-10.1204
▁asked	-10.1207
▁earned	-10.1209
▁residents	-10.121
▁flooded	-10.1213
▁Lee	-10.1239
8	-10.1243
▁Ved	-10.1244
▁unions	-10.1247
K	-10.1259
▁composition	-10.1272
▁horse	-10.1273
▁rise	-10.1278
▁slow	-10.1279
ty	-10.1293
▁pain	-10.1296
▁Saud	-10.1304
▁Culture	-10.1305
▁Ireland	-10.1305
▁legislature	-10.1305
▁EPR	-10.1305
▁Sahitya	-10.1305
▁cancer	-10.1305
▁Match	-10.1305
▁Bhutan	-10.1307
▁Over	-10.1308
▁Gaur	-10.1314
▁either	-10.1322
▁Un	-10.1322
▁departments	-10.134
▁Li	-10.134
▁Burma	-10.135
w	-10.1376
▁lines	-10.1382
▁strike	-10.1384
▁cap	-10.1389
▁sexual	-10.1406
▁Sat	-10.142
▁Bahadur	-10.1424
▁ratio	-10.1424
▁Street	-10.1424
▁affiliate	-10.1424
▁diameter	-10.1424
▁inhabitants	-10.1424
▁Greece	-10.1424
▁Secretary	-10.1425
▁Sector	-10.1425
▁1935	-10.1425
▁acquired	-10.1433
▁Java	-10.1434
▁Sports	-10.1444
▁Notabl	-10.1445
▁engineer	-10.1479
co	-10.1485
ini	-10.1496
▁watch	-10.1504
▁formal	-10.151
▁acid	-10.1512
▁Member	-10.1516
▁stop	-10.1518
▁votes	-10.1522
▁planted	-10.1536
▁Hussein	-10.1538
▁council	-10.1541
▁Prophet	-10.1545
▁Howrah	-10.1545
▁Jewish	-10.1546
▁Battle	-10.1546
shi	-10.155
▁formation	-10.155
▁Habib	-10.1557
▁happened	-10.1564
▁enter	-10.1569
war	-10.1578
▁inspired	-10.1581
ant	-10.1587
▁holes	-10.1595
▁25,	-10.16
chi	-10.1601
▁fired	-10.1606
▁website	-10.1633
▁trans	-10.1637
▁74	-10.1638
▁Science	-10.1639
▁warm	-10.1641
▁egg	-10.1641
▁verse	-10.1652
▁reduce	-10.1665
▁Lal	-10.1665
▁numer	-10.1665
▁spiritual	-10.1666
▁Participat	-10.1667
▁bamboo	-10.1667
▁excell	-10.1668
▁endangered	-10.1668
▁Story	-10.1668
▁banned	-10.1668
▁eighth	-10.1675
ab	-10.1682
B	-10.1689
▁contacted	-10.1702
▁stones	-10.1703
▁depends	-10.171
▁influenced	-10.1711
▁cross	-10.1721
M	-10.1731
khali	-10.1735
▁flying	-10.1739
ho	-10.1741
east	-10.1751
▁Tibetan	-10.1767
ari	-10.1782
▁Syria	-10.1783
▁Young	-10.1786
▁Captain	-10.179
▁Shravan	-10.179
▁Tokyo	-10.179
▁dried	-10.179
▁Maulana	-10.179
▁Sarkar	-10.179
▁1928	-10.1791
▁residence	-10.1792
▁Originally	-10.1792
scended	-10.1794
▁forms	-10.1794
▁decorated	-10.1795
▁Kong	-10.1796
▁Nations	-10.1803
▁controlled	-10.1805
▁fins	-10.1811
▁tax	-10.1815
G	-10.1815
▁Himalayas	-10.1834
▁arch	-10.1836
▁artists	-10.1869
▁Sharif	-10.1879
▁prevent	-10.1879
▁regard	-10.1882
▁device	-10.1891
▁teenager	-10.1891
▁snake	-10.1892
▁occur	-10.1892
▁Upanishad	-10.1892
▁scholar	-10.1892
5	-10.1898
bar	-10.1909
▁Hajj	-10.1915
▁California	-10.1915
▁recognition	-10.1915
▁Wales	-10.1916
▁1943	-10.1916
▁Has	-10.1916
▁1922	-10.1916
iterary	-10.1918
▁Canal	-10.1933
▁scholars	-10.1938
▁57	-10.1944
▁layer	-10.1945
▁Ku	-10.1981
based	-10.1997
▁poets	-10.1998
▁valley	-10.2018
▁sculpture	-10.2019
▁doing	-10.2024
▁refuge	-10.2027
▁Jesus	-10.2042
▁siblings	-10.2042
▁jute	-10.2042
▁copper	-10.2042
▁donated	-10.2045
▁roles	-10.2049
▁respect	-10.2055
▁soul	-10.206
▁drawn	-10.2069
▁Rama	-10.2077
▁surrounding	-10.2092
▁SR	-10.2097
▁Rani	-10.2107
▁practiced	-10.2118
ro	-10.2125
▁supported	-10.2125
▁thousands	-10.2127
▁Pak	-10.2137
▁epic	-10.2145
▁phase	-10.2146
▁application	-10.2147
▁damage	-10.2148
▁expert	-10.2149
▁crop	-10.215
▁flowing	-10.2168
▁Mount	-10.217
▁Damascus	-10.217
▁Peninsula	-10.217
▁Sweden	-10.217
▁abdomen	-10.217
▁proposal	-10.217
▁Tripura	-10.217
▁context	-10.217
▁facilities	-10.217
▁security	-10.217
▁Church	-10.2171
▁moving	-10.2173
▁manager	-10.2176
▁ice	-10.2177
▁Sir	-10.2184
▁suffering	-10.2185
▁slowly	-10.2191
▁Kar	-10.2193
▁owner	-10.2198
▁Mohan	-10.2207
▁paintings	-10.2227
▁Students	-10.223
▁idols	-10.2241
▁120	-10.2242
▁generally	-10.2249
▁skills	-10.2257
▁spot	-10.2259
▁initiative	-10.2278
▁monk	-10.2281
▁causes	-10.2286
▁Ko	-10.229
▁73	-10.2293
▁advice	-10.23
▁purple	-10.23
▁tributary	-10.23
▁mound	-10.23
▁Route	-10.23
▁Gulf	-10.23
▁lyricist	-10.23
▁iron	-10.2301
▁1934	-10.2301
▁bark	-10.2302
▁suddenly	-10.2308
▁didn	-10.2309
▁improved	-10.2309
▁sell	-10.2311
▁raw	-10.2312
▁Jews	-10.2319
▁musical	-10.2322
▁damaged	-10.2322
ad	-10.2331
▁Code	-10.2343
▁Kabir	-10.2363
ten	-10.2372
▁99	-10.238
law	-10.2388
▁starring	-10.2392
▁carry	-10.2397
ung	-10.2405
▁rhythm	-10.2407
▁vehicle	-10.2415
▁follows	-10.2421
▁Persia	-10.2424
▁Prince	-10.2428
▁prisoner	-10.2429
▁mango	-10.243
▁Bombay	-10.2431
▁Lahore	-10.2431
▁Qatar	-10.2431
▁Stadium	-10.2431
▁administration	-10.2431
▁aquatic	-10.2431
▁Alexander	-10.2431
▁Jamuna	-10.2432
▁Therefore	-10.2432
▁DNA	-10.2432
▁UK	-10.2434
▁understood	-10.2438
▁Po	-10.2441
▁competitions	-10.2444
▁divorced	-10.2444
▁grade	-10.2446
▁discussed	-10.2449
▁11,	-10.2466
▁calls	-10.2471
▁MS	-10.2479
▁g	-10.2489
▁descendants	-10.2519
▁agree	-10.2523
▁looking	-10.2525
▁hatch	-10.253
▁revolt	-10.2531
▁dome	-10.2532
ua	-10.2541
▁truth	-10.2542
▁conference	-10.2545
▁genre	-10.2548
▁scientist	-10.255
▁Israel	-10.255
▁attraction	-10.2551
▁needs	-10.2556
▁inscription	-10.2558
▁carbon	-10.256
▁Rabindra	-10.2564
▁Major	-10.2565
▁Feluda	-10.2565
▁Festival	-10.2565
▁Literature	-10.2565
▁pilgrimage	-10.2565
▁Tintin	-10.2565
▁Vivekananda	-10.2565
▁definition	-10.2565
▁operating	-10.2565
▁Faridpur	-10.2566
▁Six	-10.2566
▁Feni	-10.2566
▁Tangail	-10.2566
▁throat	-10.2566
▁registered	-10.2571
▁resigned	-10.2572
▁majority	-10.2574
▁Barua	-10.2574
▁required	-10.2577
▁achieved	-10.2577
▁deer	-10.2585
▁rainy	-10.2593
▁engineering	-10.2606
do	-10.2617
▁listed	-10.2618
▁doesn	-10.2621
▁84	-10.2621
▁Th	-10.2629
▁Pala	-10.2633
▁29,	-10.2644
side	-10.2648
▁fields	-10.2653
▁Per	-10.2654
one	-10.2669
▁ring	-10.268
▁pseudonym	-10.2682
▁pieces	-10.2682
▁ran	-10.2683
ological	-10.2687
▁producer	-10.269
▁Tibet	-10.2696
▁68	-10.2697
▁glass	-10.2699
▁Physics	-10.27
▁queen	-10.27
▁themselves	-10.27
▁Constituency	-10.27
▁Medical	-10.27
▁1923	-10.27
▁Pasha	-10.2701
▁Dutch	-10.2701
▁Harry	-10.2701
▁appearance	-10.2703
▁Province	-10.2708
▁tigers	-10.2712
▁Punjabi	-10.2718
▁grown	-10.2722
▁Martin	-10.2727
▁sing	-10.273
break	-10.275
de	-10.2768
▁Z	-10.2785
▁pioneer	-10.2798
▁desert	-10.2803
▁Ja	-10.2808
▁Di	-10.2809
▁joint	-10.2818
▁phone	-10.2823
▁opinion	-10.2825
▁publication	-10.2826
▁Egyptian	-10.2828
▁courage	-10.2828
▁Represent	-10.2837
▁Cambridge	-10.2837
▁ideology	-10.2837
▁firing	-10.2837
▁angry	-10.2837
▁Joseph	-10.2837
▁Karachi	-10.2837
▁Former	-10.2838
▁compared	-10.2839
naval	-10.2841
▁invaded	-10.2842
▁coup	-10.2842
▁painted	-10.2845
▁afternoon	-10.2845
▁Minar	-10.2847
▁noticed	-10.2847
▁Hill	-10.2861
har	-10.2865
▁20,	-10.2873
▁Uttar	-10.2886
et	-10.2887
▁boundary	-10.289
▁Ro	-10.2906
▁talent	-10.2925
ika	-10.2935
▁designs	-10.2935
▁root	-10.2937
▁send	-10.2942
▁Y	-10.2942
▁9,	-10.2944
▁establish	-10.2945
▁inner	-10.2955
▁substance	-10.2965
▁multi	-10.2966
▁installation	-10.2966
▁Malaysia	-10.2968
▁behavior	-10.2975
▁Faisal	-10.2976
▁applied	-10.2976
▁Thailand	-10.2976
▁Prior	-10.2976
▁upgrade	-10.2976
▁clothes	-10.2978
▁butterflies	-10.2979
▁rights	-10.298
▁Five	-10.2981
▁planned	-10.2983
▁objects	-10.2985
▁increasing	-10.2986
▁Mar	-10.2989
▁tied	-10.299
▁marked	-10.2992
▁Rs	-10.2994
▁tenth	-10.3015
▁Bu	-10.3021
▁Radha	-10.3026
▁Biswas	-10.3026
▁critics	-10.3037
▁Gar	-10.3049
▁Math	-10.3053
abad	-10.3063
T	-10.307
ol	-10.3076
▁climb	-10.3078
▁waves	-10.3083
old	-10.3088
▁Ahom	-10.3106
▁Summ	-10.3106
▁presented	-10.3107
▁pillar	-10.311
▁brick	-10.311
▁diseases	-10.3113
▁Chand	-10.3116
▁Public	-10.3116
▁Siraj	-10.3116
▁fifty	-10.3117
▁mythology	-10.3117
▁curved	-10.3119
▁Blue	-10.312
▁Old	-10.3125
▁ideal	-10.3127
▁lifetime	-10.313
▁Philippines	-10.3139
▁Star	-10.314
▁academic	-10.3142
D	-10.315
▁Me	-10.316
▁drinking	-10.3166
▁95	-10.3188
v	-10.3195
▁chapters	-10.3202
▁devotees	-10.3204
▁cloth	-10.3221
▁advance	-10.3237
▁Tu	-10.3239
▁murder	-10.3241
si	-10.3244
▁ill	-10.3256
▁Ministry	-10.3259
▁Singapore	-10.3259
▁necessary	-10.3259
▁ordinary	-10.3259
▁siege	-10.3259
▁smooth	-10.3259
▁fifteen	-10.3259
▁learning	-10.326
▁Vaishnava	-10.326
▁1941	-10.326
▁1914	-10.326
▁Chile	-10.326
▁Jordan	-10.3261
acent	-10.3261
▁criticized	-10.3262
▁bricks	-10.3267
▁br	-10.3267
▁Call	-10.3267
▁3,	-10.3268
▁10,000	-10.3269
▁Car	-10.3271
▁meant	-10.3277
▁camera	-10.3281
dar	-10.3294
▁Mi	-10.3298
ov	-10.3304
▁30,	-10.3307
▁Ben	-10.3346
▁dedicat	-10.3357
▁Up	-10.3365
▁spend	-10.3367
▁shell	-10.3369
▁feel	-10.337
▁offer	-10.3372
▁Chi	-10.3379
▁survive	-10.3381
▁create	-10.3383
▁honors	-10.3385
▁lion	-10.34
▁accompani	-10.3404
▁Agriculture	-10.3404
▁influential	-10.3404
▁properties	-10.3404
▁cousin	-10.3404
▁heaven	-10.3404
▁budget	-10.3405
▁puja	-10.3405
▁visitors	-10.3405
▁pink	-10.3405
▁Hazrat	-10.3405
▁proposed	-10.3406
▁Sultanate	-10.3406
▁dramas	-10.3406
▁Player	-10.3406
▁Peter	-10.3407
▁powerful	-10.3408
▁Time	-10.3411
▁plane	-10.3412
▁autumn	-10.3415
ance	-10.3416
▁spin	-10.342
▁shoes	-10.3432
▁spectators	-10.3436
▁stages	-10.3437
▁weekly	-10.3445
▁Md	-10.3449
▁shores	-10.3456
▁Nur	-10.3458
▁Mountains	-10.3468
pa	-10.3469
▁locals	-10.3471
▁farmers	-10.3475
▁trained	-10.3515
▁master	-10.3516
▁Nag	-10.3528
▁sharp	-10.3531
▁exact	-10.3532
▁Catholic	-10.3543
▁Co	-10.3545
▁Championship	-10.3549
▁Politics	-10.3551
▁Sundarbans	-10.3551
▁cemetery	-10.3551
▁controversial	-10.3551
▁easy	-10.3551
▁tennis	-10.3552
▁Thomas	-10.3552
▁winner	-10.3552
▁metro	-10.3553
▁1900	-10.3554
▁Iranian	-10.3556
▁alive	-10.3557
line	-10.3558
▁Bari	-10.3559
▁copies	-10.3559
▁Korean	-10.3563
▁AH	-10.3574
▁corner	-10.3574
▁varies	-10.3591
▁Ban	-10.3591
▁floors	-10.3598
▁Love	-10.36
▁fine	-10.361
30	-10.3617
▁historians	-10.3618
▁episodes	-10.3621
▁Arabs	-10.3624
wa	-10.3635
▁export	-10.365
▁aired	-10.3657
▁saying	-10.3667
▁newly	-10.3671
▁safe	-10.3675
▁sand	-10.3684
▁Baishakh	-10.3692
▁Rome	-10.3697
▁favor	-10.3699
▁Deput	-10.37
▁bloom	-10.37
▁Guwahati	-10.3701
▁Taylor	-10.3701
▁knew	-10.3701
▁Religious	-10.3701
▁Federation	-10.3701
▁playground	-10.3701
▁twelve	-10.3701
▁1917	-10.3701
ko	-10.3702
▁Jahan	-10.3704
▁yellowish	-10.3706
▁approximate	-10.3719
bazar	-10.3725
▁dam	-10.3728
▁Upanishads	-10.3729
▁shaped	-10.3731
eme	-10.3732
▁fishing	-10.3734
▁Se	-10.374
▁600	-10.3749
ner	-10.3753
▁Sha	-10.3755
ther	-10.376
▁Sufi	-10.3762
▁genes	-10.377
▁sol	-10.3784
▁officers	-10.38
▁Dal	-10.3805
▁pages	-10.3814
▁mental	-10.3832
▁compete	-10.3832
▁historic	-10.3837
▁instrument	-10.3841
▁Christians	-10.3848
▁Queen	-10.3852
▁cinema	-10.3852
▁Burdwan	-10.3852
▁Doraemon	-10.3852
▁Regiment	-10.3852
▁Colonel	-10.3852
▁Premier	-10.3852
▁petals	-10.3852
▁Organization	-10.3852
▁overall	-10.3852
▁representative	-10.3852
▁Human	-10.3854
▁cave	-10.3855
▁achievement	-10.3855
▁angle	-10.3855
elow	-10.3857
▁Mu	-10.3858
▁prayer	-10.3858
▁Ara	-10.3867
▁architectur	-10.3869
▁Legislati	-10.3875
way	-10.3876
▁hectares	-10.3879
▁crosse	-10.388
ru	-10.3894
▁decreases	-10.3897
ory	-10.3902
▁o	-10.3904
tu	-10.3922
eastern	-10.3923
▁Sher	-10.3941
▁sole	-10.3948
▁ward	-10.3949
▁Par	-10.3952
▁festivals	-10.3963
▁76	-10.3971
▁double	-10.3987
▁positive	-10.3987
lu	-10.3988
▁fiction	-10.3994
▁DE	-10.3996
▁buy	-10.3999
▁strength	-10.4003
▁Bo	-10.4006
▁industries	-10.4006
▁supply	-10.4006
▁serving	-10.4006
▁evergreen	-10.4006
▁weather	-10.4006
▁Dasgupta	-10.4006
▁Ashraf	-10.4007
▁terrible	-10.4007
▁1944	-10.4007
▁composer	-10.4007
▁1911	-10.4007
▁1927	-10.4007
▁Golden	-10.4007
▁Vietnam	-10.4007
▁infrastructure	-10.4008
▁Medicine	-10.401
▁flight	-10.4012
▁mayor	-10.4012
▁drug	-10.4013
▁prose	-10.4014
▁struggle	-10.4038
▁anyone	-10.4043
▁bomb	-10.4075
western	-10.4076
endranath	-10.4086
be	-10.4096
boundary	-10.4104
▁Sub	-10.4105
ut	-10.4111
▁monthly	-10.412
▁dress	-10.4121
▁provides	-10.4138
▁answer	-10.4138
▁sentence	-10.4145
▁stand	-10.4151
▁alcohol	-10.4159
▁Introduction	-10.4162
▁giving	-10.4162
▁straight	-10.4162
▁revenue	-10.4162
▁NY	-10.4163
▁Indus	-10.4163
▁participating	-10.4163
▁immediately	-10.4163
▁Salman	-10.4164
▁Eat	-10.4164
▁Swami	-10.4165
▁session	-10.4165
▁Finally	-10.4165
▁cycle	-10.4166
▁paid	-10.4166
▁Long	-10.4167
▁compound	-10.417
▁scene	-10.4171
▁holy	-10.4171
▁scripture	-10.4172
akaria	-10.4173
▁kilometer	-10.4173
▁Namely	-10.4175
▁82	-10.4175
▁humans	-10.4176
▁recently	-10.4178
▁Let	-10.418
▁maintain	-10.4181
▁Baul	-10.4182
▁Land	-10.4182
▁effects	-10.4186
▁Types	-10.4197
▁hilly	-10.4202
▁Us	-10.4208
hildhood	-10.4208
▁steps	-10.4223
▁Mark	-10.4231
▁rulers	-10.4245
▁hundreds	-10.4247
▁flood	-10.4259
▁stems	-10.4278
▁Jack	-10.4283
▁try	-10.4288
▁Ages	-10.4291
▁bears	-10.4299
▁Los	-10.4303
▁10,	-10.4304
▁stayed	-10.4309
▁danger	-10.4314
▁function	-10.4317
▁speech	-10.4319
▁Mirza	-10.4319
▁enjoy	-10.432
▁Beijing	-10.4321
▁Switzerland	-10.4321
▁Telugu	-10.4321
▁Wisden	-10.4321
▁thirteen	-10.4321
▁Mukti	-10.4321
▁Foundation	-10.4321
▁similarities	-10.4321
▁Karim	-10.4322
▁solid	-10.4322
▁melody	-10.4322
▁1910	-10.4322
▁Director	-10.4323
▁background	-10.4325
▁alliance	-10.4325
▁Hamid	-10.4326
▁occasionally	-10.4327
▁association	-10.4328
▁madrasa	-10.4332
▁patient	-10.4332
▁250	-10.4332
▁adj	-10.4333
▁praised	-10.4336
▁statement	-10.4339
▁musician	-10.4343
▁pot	-10.4348
▁premises	-10.4354
▁Inter	-10.4357
▁fear	-10.4373
han	-10.4375
ik	-10.4381
trick	-10.4392
▁researchers	-10.4413
▁follow	-10.4418
▁pure	-10.4422
▁cow	-10.4426
▁Malay	-10.4431
▁96	-10.4443
▁breed	-10.4453
ide	-10.4455
▁capture	-10.4464
▁Origin	-10.4467
▁Azam	-10.447
▁Kenya	-10.4474
em	-10.4476
os	-10.448
▁illness	-10.448
▁Civil	-10.4482
▁Cairo	-10.4482
▁Information	-10.4482
▁physics	-10.4482
▁subspecies	-10.4482
▁gross	-10.4482
▁longitude	-10.4484
▁accused	-10.4484
▁Christianity	-10.4484
▁Nadia	-10.4484
▁catches	-10.4486
▁mine	-10.4488
▁rejected	-10.449
▁roots	-10.4494
▁guest	-10.4494
▁elephant	-10.4495
▁shop	-10.4496
▁mantra	-10.4496
▁settlement	-10.4497
▁expanded	-10.4501
▁Holy	-10.4502
▁dollars	-10.4503
▁gate	-10.4504
▁hunting	-10.4507
▁electrical	-10.4508
mohan	-10.4514
▁efforts	-10.4526
▁evolution	-10.4529
▁6,	-10.4539
▁Inside	-10.4539
▁provinces	-10.4542
▁colleges	-10.4584
ura	-10.4586
▁arm	-10.4602
▁bi	-10.4607
▁engag	-10.4617
▁Kabul	-10.4632
▁newspapers	-10.4637
▁ponds	-10.4637
▁spoke	-10.4638
▁bowlers	-10.4639
▁ready	-10.464
ern	-10.4642
▁1925	-10.4646
▁wild	-10.4646
▁Chatterjee	-10.4646
▁Hyderabad	-10.4646
▁essential	-10.4646
▁survey	-10.4646
▁swimming	-10.4646
▁Liberation	-10.4646
▁everywhere	-10.4647
▁1906	-10.4647
▁SA	-10.4649
▁becoming	-10.4649
▁Golam	-10.4655
▁message	-10.4657
▁cooking	-10.4658
▁gift	-10.4661
▁Ho	-10.4663
ana	-10.4668
▁Book	-10.4669
▁Gold	-10.4673
▁resources	-10.4678
▁kinds	-10.4689
▁greater	-10.4693
▁Shri	-10.4698
▁Musa	-10.4712
▁26,	-10.472
▁sat	-10.4724
▁photo	-10.4729
▁bowls	-10.4745
▁ducks	-10.4753
▁remain	-10.4762
▁report	-10.4775
▁Pan	-10.4787
im	-10.4792
▁immense	-10.4792
▁Are	-10.4793
▁indicate	-10.4799
▁Kashmir	-10.4802
stood	-10.4804
▁Gazi	-10.4813
▁Library	-10.4813
▁conventional	-10.4813
▁studio	-10.4813
▁conquest	-10.4813
▁Breed	-10.4813
▁Brahmaputra	-10.4813
▁brain	-10.4813
▁Paddy	-10.4813
▁Bankura	-10.4814
▁1908	-10.4814
▁Block	-10.4814
▁rebellion	-10.4814
▁Secondary	-10.4814
▁negative	-10.4814
▁Jail	-10.4815
▁colony	-10.4816
▁Model	-10.4816
▁priest	-10.483
▁reaction	-10.4831
▁opponent	-10.4831
▁Song	-10.4833
▁retreated	-10.4839
▁attacks	-10.4856
▁tower	-10.4856
fa	-10.4863
▁ahead	-10.4864
▁rocks	-10.4864
▁Basically	-10.4865
▁claimed	-10.4899
▁Economics	-10.4904
▁98	-10.4913
▁108	-10.4915
▁Bali	-10.4928
cal	-10.493
field	-10.4937
▁Nurul	-10.4942
▁exchange	-10.4962
▁belonging	-10.4963
▁BS	-10.4966
▁Ne	-10.4967
▁Shankar	-10.4973
▁hind	-10.4978
▁83	-10.4978
▁loss	-10.498
▁Colombo	-10.4982
▁Hospital	-10.4982
▁Humayun	-10.4982
▁butterfly	-10.4982
▁nephew	-10.4982
▁teeth	-10.4982
▁fried	-10.4982
▁Scotland	-10.4982
▁destruction	-10.4982
▁Development	-10.4982
▁downstream	-10.4982
▁screenplay	-10.4982
▁womb	-10.4982
▁categories	-10.4982
▁Field	-10.4983
▁Louis	-10.4983
▁1905	-10.4983
▁1913	-10.4984
▁fever	-10.4984
▁larvae	-10.4985
▁grandson	-10.4987
tropical	-10.4989
▁Commissioner	-10.4992
▁recovered	-10.4993
kumar	-10.4993
▁shooting	-10.4994
▁filled	-10.5001
▁tunnel	-10.5001
▁hadith	-10.5003
▁domain	-10.5003
▁connection	-10.5005
jit	-10.5006
▁Records	-10.5008
no	-10.5015
▁positions	-10.5017
▁Ha	-10.5024
▁piece	-10.5024
▁smallest	-10.5024
▁shelling	-10.5026
pped	-10.5035
▁Cricketer	-10.5042
▁tube	-10.5048
ap	-10.5059
▁Bill	-10.5063
▁7,	-10.5064
▁Vedas	-10.5067
lar	-10.5068
▁though	-10.5069
vi	-10.5078
▁j	-10.5091
▁destroy	-10.5102
▁eats	-10.5104
▁attacking	-10.5118
ib	-10.513
▁Indo	-10.5131
C	-10.5132
▁st	-10.5132
▁24,	-10.5133
▁initial	-10.5137
▁account	-10.5139
▁Dam	-10.5147
▁Chitra	-10.5148
▁ripe	-10.5152
▁Habitat	-10.5155
▁Ramayana	-10.5155
▁crisis	-10.5155
▁potential	-10.5155
▁Boston	-10.5155
▁squad	-10.5155
▁wrong	-10.5155
▁introduction	-10.5155
▁naked	-10.5155
▁Food	-10.5155
▁factories	-10.5155
▁Henry	-10.5155
▁Vedanta	-10.5155
▁excellent	-10.5155
▁Sharma	-10.5155
▁communities	-10.5155
▁Press	-10.5156
▁Gopal	-10.5159
▁renowned	-10.5161
▁15,	-10.5163
▁theme	-10.5166
▁arms	-10.517
▁opposed	-10.5171
▁storm	-10.5173
▁target	-10.5174
▁mobile	-10.5175
▁operated	-10.5175
▁tribal	-10.5177
▁caste	-10.5179
▁principle	-10.5179
▁belief	-10.518
▁busy	-10.5192
▁statues	-10.5192
era	-10.5203
eshwar	-10.5204
▁afterwards	-10.5207
▁handed	-10.5213
▁edges	-10.5217
▁ordered	-10.5228
▁88	-10.523
58	-10.5235
▁Ar	-10.5256
▁Bengalis	-10.5265
ge	-10.5269
▁Ganga	-10.5272
▁coins	-10.5273
▁Sur	-10.5274
▁Brahman	-10.5275
▁700	-10.528
ite	-10.5286
▁Maya	-10.5288
▁northeast	-10.5293
▁figures	-10.5299
▁Ananda	-10.5306
idal	-10.5308
▁Ismail	-10.531
▁rescue	-10.5312
▁beach	-10.5316
▁worker	-10.5317
▁patients	-10.5318
▁Sagar	-10.5322
▁Caliph	-10.533
▁Limited	-10.533
▁Madrid	-10.533
▁Magazine	-10.533
▁Majumdar	-10.533
▁absolute	-10.533
▁opposition	-10.533
▁Radio	-10.533
▁Maharashtra	-10.533
▁else	-10.533
▁vast	-10.5331
▁Noakhali	-10.5331
▁mixture	-10.5331
▁therefore	-10.5331
▁provide	-10.5331
▁Theater	-10.5331
▁1902	-10.5332
▁quarter	-10.5332
▁manner	-10.5333
▁Khalid	-10.5336
▁canceled	-10.5336
▁fixed	-10.5338
▁die	-10.5341
▁virus	-10.5341
▁Subhash	-10.5341
men	-10.5342
▁acclaimed	-10.5344
▁voters	-10.5345
▁artificial	-10.5346
▁courtyard	-10.535
ackground	-10.5351
▁surrendered	-10.5354
▁cantonment	-10.5354
▁bear	-10.5354
▁Da	-10.5356
▁trial	-10.5356
▁umpire	-10.5356
gaon	-10.5358
▁content	-10.5365
▁knows	-10.5367
▁enters	-10.537
che	-10.5371
▁issued	-10.5376
▁sections	-10.5379
▁southwest	-10.5383
▁Joe	-10.5384
▁16,	-10.54
▁110	-10.54
▁parliament	-10.5405
▁centers	-10.5408
▁13,	-10.5421
▁snow	-10.5426
▁1912	-10.544
▁operations	-10.5445
▁screen	-10.5458
▁texts	-10.5471
▁92	-10.5473
▁teach	-10.5482
▁seconds	-10.5485
▁torture	-10.5488
▁programs	-10.5496
▁methods	-10.5498
▁bond	-10.55
▁Yu	-10.5503
za	-10.5503
▁Maha	-10.5505
wami	-10.5506
▁popul	-10.5507
▁guitar	-10.5508
▁UNESCO	-10.5509
▁migrate	-10.5509
▁shelter	-10.5509
▁seventeen	-10.5509
▁tributaries	-10.5509
▁Berlin	-10.5509
▁bushes	-10.5509
▁grammar	-10.5509
▁Nobita	-10.5509
▁Scottish	-10.5509
▁Palace	-10.551
▁produce	-10.5511
▁tourism	-10.5514
▁Bhadra	-10.5514
▁inhabited	-10.5517
▁treaty	-10.5517
▁lowest	-10.552
▁solution	-10.5521
▁merged	-10.5522
▁1916	-10.5523
▁ruins	-10.5524
▁moment	-10.5532
▁exactly	-10.5533
▁monks	-10.5535
▁machine	-10.5537
▁satellite	-10.5539
▁figure	-10.554
▁snakes	-10.5543
▁successor	-10.5543
▁zone	-10.5544
▁saved	-10.5544
▁wet	-10.5544
▁begin	-10.5547
▁mission	-10.5551
▁dog	-10.5558
▁Band	-10.5559
▁k	-10.5562
ny	-10.5567
▁crossed	-10.5584
▁fan	-10.5585
af	-10.5596
▁documents	-10.5598
▁internal	-10.5598
sen	-10.5614
▁focus	-10.5617
▁correct	-10.563
▁Was	-10.5631
▁earn	-10.5634
▁particles	-10.5636
▁char	-10.5638
▁plains	-10.5639
▁Arts	-10.5645
▁roam	-10.5653
▁exception	-10.5654
▁select	-10.5654
▁extensive	-10.5671
▁realize	-10.5677
▁Commission	-10.5681
▁Adi	-10.5682
uri	-10.5688
▁Seven	-10.569
▁question	-10.569
▁prefer	-10.5691
▁Oxford	-10.5691
▁harbor	-10.5691
▁trophy	-10.5691
▁Egg	-10.5691
▁civil	-10.5691
▁elevation	-10.5691
▁forbidden	-10.5691
▁Karnataka	-10.5691
▁intact	-10.5691
▁Dighi	-10.5691
▁Bihu	-10.5691
▁marry	-10.5691
▁championship	-10.5692
▁sanctuary	-10.5692
▁dismissed	-10.5692
▁considerable	-10.5692
▁arrival	-10.5693
▁Bakr	-10.5693
▁float	-10.5694
▁Lu	-10.5695
▁reality	-10.5695
▁Umar	-10.5695
▁Hadith	-10.5697
▁pick	-10.5697
▁Daily	-10.5697
▁vote	-10.5698
▁Ke	-10.5698
▁doors	-10.57
▁labor	-10.57
▁partner	-10.5706
▁IA	-10.5706
▁stick	-10.5707
▁domes	-10.5711
▁please	-10.5715
▁crime	-10.572
▁network	-10.5722
▁liquid	-10.5723
▁decade	-10.5727
▁driver	-10.5728
▁rose	-10.5729
ama	-10.5733
▁Beg	-10.5735
▁arena	-10.5739
▁Afghan	-10.574
▁carrying	-10.5744
10	-10.5753
▁aspects	-10.5753
▁Tri	-10.5769
▁northwest	-10.5769
▁visiting	-10.5769
▁Ten	-10.577
▁Wh	-10.5781
ca	-10.5784
▁con	-10.5793
ted	-10.5793
▁severe	-10.58
he	-10.5801
▁growing	-10.5811
▁successfully	-10.5818
▁judge	-10.582
▁conduct	-10.5829
▁clean	-10.584
lmost	-10.5851
O	-10.5852
ali	-10.5857
▁margin	-10.5861
▁Gujarat	-10.5867
▁cool	-10.5871
▁Para	-10.5873
▁Second	-10.5874
▁Behavior	-10.5876
▁Features	-10.5876
▁Mediterranean	-10.5876
▁Swedish	-10.5876
▁honey	-10.5876
▁fuel	-10.5876
▁revolutionaries	-10.5876
▁migratory	-10.5876
▁vocalist	-10.5876
▁vest	-10.5877
▁prime	-10.5878
▁Total	-10.5881
▁procession	-10.5884
▁address	-10.589
▁emerged	-10.5893
▁generation	-10.591
▁saint	-10.5913
▁minaret	-10.5914
▁citizen	-10.5914
▁mouza	-10.5915
▁Maria	-10.5917
▁Cha	-10.5924
▁Patia	-10.5926
▁existed	-10.5936
▁farm	-10.5938
▁molecules	-10.5947
▁Age	-10.5955
cha	-10.5963
▁Baba	-10.5973
▁Real	-10.5974
W	-10.5977
hra	-10.5984
▁lyrics	-10.5991
▁Ni	-10.5996
▁8,	-10.6005
▁Tara	-10.6029
▁86	-10.6035
▁Gu	-10.6036
▁160	-10.6036
▁pro	-10.6039
▁operate	-10.6043
▁Research	-10.6056
▁lose	-10.6059
▁Pra	-10.6059
▁instruments	-10.606
yan	-10.6061
▁Fellow	-10.6064
▁Chicago	-10.6065
▁Ekushey	-10.6065
▁Netherlands	-10.6065
▁mystery	-10.6065
▁Prasad	-10.6065
▁Teesta	-10.6065
▁disagreement	-10.6065
▁matriculation	-10.6065
▁simultaneously	-10.6065
▁Open	-10.6066
▁Surya	-10.6067
▁chemistry	-10.6067
▁super	-10.6067
▁shifted	-10.6074
▁Line	-10.6074
▁Law	-10.608
▁continent	-10.609
▁Yet	-10.6091
▁gathered	-10.6096
▁Garden	-10.6101
▁exhibition	-10.6103
▁palm	-10.6104
▁theories	-10.6104
▁circle	-10.6105
▁infection	-10.6106
▁mineral	-10.6107
▁committ	-10.612
▁ply	-10.6121
▁Brahmin	-10.6125
▁nests	-10.6126
▁Youth	-10.6128
jo	-10.6129
pati	-10.6133
▁18,	-10.6137
▁readers	-10.6141
▁detail	-10.6143
om	-10.6167
az	-10.6204
▁Vice	-10.6212
▁shots	-10.6216
▁Home	-10.6241
finals	-10.6244
▁floods	-10.6245
▁albums	-10.6245
▁determine	-10.6247
▁reform	-10.6255
▁Adult	-10.6257
▁Cemetery	-10.6257
▁Dynasty	-10.6257
▁ambassador	-10.6257
▁biggest	-10.6257
▁bluish	-10.6257
▁Channel	-10.6257
▁Hollywood	-10.6257
▁Probab	-10.6257
▁Washington	-10.6257
▁expelled	-10.6257
▁Presidency	-10.6257
▁Internet	-10.6257
▁Fakir	-10.6257
▁journalism	-10.6257
▁senior	-10.6257
▁comedy	-10.6257
▁retirement	-10.6257
▁vary	-10.6258
▁1901	-10.6258
▁1909	-10.6258
▁monarchy	-10.6259
▁Anglo	-10.6259
bu	-10.6259
▁earlier	-10.626
▁store	-10.6261
▁Joy	-10.6262
▁titles	-10.6262
▁file	-10.6263
▁apply	-10.6264
▁goddesses	-10.6267
▁publisher	-10.6267
▁Rose	-10.6268
▁gone	-10.6269
▁Amin	-10.6276
▁Ghat	-10.6288
▁scholarship	-10.6294
▁discussion	-10.6296
▁66	-10.6299
▁prize	-10.6301
▁protein	-10.6302
▁wave	-10.6303
▁article	-10.6303
▁Pro	-10.6304
▁acts	-10.6312
ization	-10.6313
▁volumes	-10.6314
▁12,	-10.6316
▁critical	-10.6324
▁f	-10.6358
ran	-10.6377
▁map	-10.6393
out	-10.64
▁traffic	-10.6423
▁faces	-10.6426
▁Rivers	-10.6441
▁Yemen	-10.6444
▁Austria	-10.6445
▁zoo	-10.6452
▁Bhairab	-10.6453
▁Harvard	-10.6453
▁Modern	-10.6453
▁Next	-10.6453
▁Structure	-10.6453
▁UEFA	-10.6453
▁humor	-10.6453
▁indigenous	-10.6453
▁Solomon	-10.6453
▁admission	-10.6453
▁republic	-10.6453
▁memorable	-10.6453
▁Fame	-10.6453
▁Hakim	-10.6454
▁Mission	-10.6454
▁Super	-10.6455
▁transportation	-10.6455
▁renovated	-10.6455
▁transformed	-10.6455
▁USA	-10.6456
▁refused	-10.6459
▁businessman	-10.6461
▁rapidly	-10.6461
P	-10.6463
▁FA	-10.6469
▁desire	-10.6472
▁5,000	-10.6476
▁27,	-10.6485
▁81	-10.6489
▁orbit	-10.6491
▁farming	-10.6492
▁advantage	-10.6495
▁politician	-10.6499
▁consonant	-10.6501
▁Sikh	-10.6501
specially	-10.6501
▁armed	-10.6502
▁trains	-10.6506
▁Art	-10.651
▁equally	-10.6514
▁page	-10.6516
▁79	-10.6529
▁commercially	-10.6533
▁batt	-10.6537
▁Han	-10.6538
▁footballer	-10.6547
▁sari	-10.6552
attack	-10.656
▁Manik	-10.6566
▁really	-10.6578
▁finish	-10.6608
▁Pass	-10.6613
▁gram	-10.6614
gan	-10.6615
▁request	-10.6619
▁avoid	-10.662
▁electric	-10.6621
▁holding	-10.6631
▁recent	-10.6634
▁Hejaz	-10.6635
uk	-10.6649
▁minor	-10.6652
▁govern	-10.6652
▁Mal	-10.6653
▁Physical	-10.6653
▁dormitory	-10.6653
▁mathematical	-10.6653
▁opportunities	-10.6653
▁universal	-10.6653
▁participation	-10.6653
▁rebuilt	-10.6653
▁Saeed	-10.6653
▁Murshidabad	-10.6653
▁Bahini	-10.6653
▁1907	-10.6654
▁axis	-10.6654
▁Mohammedan	-10.6654
▁Quraish	-10.6654
▁Rahul	-10.6654
▁Madras	-10.6654
▁Team	-10.666
▁collapsed	-10.6665
▁installations	-10.6667
▁speaking	-10.6667
▁innumerable	-10.6667
▁riots	-10.6679
▁Windows	-10.6682
ita	-10.6682
▁Forest	-10.6684
▁Abd	-10.6686
▁seed	-10.6689
▁Satya	-10.6695
▁standing	-10.67
▁earthquake	-10.6703
▁serial	-10.6703
▁destination	-10.6705
▁stem	-10.6707
▁Lots	-10.6709
▁28,	-10.6711
▁upon	-10.6716
▁Dan	-10.6716
▁stalks	-10.6719
▁hear	-10.6721
▁lip	-10.6722
▁Che	-10.6723
▁w	-10.6729
▁southeast	-10.6737
ie	-10.6753
▁essays	-10.6756
▁21,	-10.6763
▁myth	-10.6764
▁130	-10.6771
▁Dala	-10.6776
hat	-10.6783
▁gather	-10.6786
▁incidents	-10.6788
▁proportion	-10.6791
century	-10.6799
16	-10.6813
▁contributions	-10.6815
gar	-10.6815
▁Brown	-10.6817
▁display	-10.6823
▁di	-10.6825
▁cat	-10.6828
▁access	-10.6846
▁introduce	-10.6847
▁Madan	-10.6853
▁blind	-10.6856
▁patron	-10.6857
▁Rock	-10.6857
▁Bhuiyan	-10.6857
▁Jinnah	-10.6857
▁Portugal	-10.6857
▁Surrey	-10.6857
▁consecutive	-10.6857
▁fourteen	-10.6857
▁staff	-10.6857
▁Mallick	-10.6857
▁calm	-10.6857
▁Movement	-10.6857
▁radiation	-10.6857
▁equivalent	-10.6857
▁Hotel	-10.6857
▁birthplace	-10.6858
▁Frank	-10.6858
▁Narayanganj	-10.6858
▁Bible	-10.6859
▁faith	-10.686
▁Gazipur	-10.686
▁qualified	-10.686
▁bacteria	-10.6861
▁statistics	-10.6862
▁bound	-10.6862
▁parallel	-10.6863
▁thirty	-10.6864
▁Health	-10.6864
▁Today	-10.6864
▁Milan	-10.6871
▁screaming	-10.6873
▁appear	-10.6879
▁180	-10.6893
dev	-10.6898
▁reported	-10.6898
▁trend	-10.6906
60	-10.6908
▁unity	-10.6914
▁weapon	-10.6916
▁plain	-10.6916
▁Gate	-10.6916
mo	-10.6918
▁noon	-10.693
90	-10.6935
▁Girls	-10.6937
▁Mars	-10.6938
▁77	-10.6946
▁feeling	-10.6966
▁lakes	-10.6967
▁hope	-10.6971
ph	-10.6978
▁via	-10.6991
omic	-10.6993
▁22,	-10.6998
▁views	-10.7006
▁details	-10.7019
▁sleep	-10.7028
▁perfect	-10.7042
▁Abdus	-10.7044
▁mines	-10.7048
▁Wood	-10.7049
▁medicin	-10.705
▁provinc	-10.7051
▁protest	-10.7051
▁dates	-10.7053
▁happen	-10.7056
▁actors	-10.7057
▁progress	-10.7063
▁Just	-10.7063
garh	-10.7064
▁Govinda	-10.7065
▁Hungary	-10.7065
▁Kushtia	-10.7065
▁Yellow	-10.7065
▁coffee	-10.7065
▁embassy	-10.7065
▁initiated	-10.7065
▁judo	-10.7065
▁qualify	-10.7065
▁silent	-10.7065
▁technical	-10.7065
▁Russell	-10.7065
▁felt	-10.7065
▁uprising	-10.7065
▁apex	-10.7065
▁defensive	-10.7065
▁Nesha	-10.7066
▁missing	-10.7066
▁somewhat	-10.7066
▁deities	-10.7066
▁friendship	-10.7066
▁Shakti	-10.7066
▁Kuwait	-10.7066
▁Patna	-10.7066
▁extraordinary	-10.7066
▁Ayub	-10.7066
▁1895	-10.7067
▁Brian	-10.7067
▁Rajbari	-10.7067
▁cutting	-10.7068
▁Northern	-10.7068
▁Far	-10.7069
▁Bi	-10.7074
▁someone	-10.7076
▁fastest	-10.7079
▁lands	-10.7083
▁stored	-10.7089
▁23,	-10.7096
▁ghat	-10.71
▁Halim	-10.7104
▁91	-10.7116
▁Km	-10.7117
▁engine	-10.7118
▁junction	-10.7121
▁93	-10.7124
▁practical	-10.7124
▁incarnation	-10.7124
▁materials	-10.7125
ban	-10.7128
▁Series	-10.7131
F	-10.7144
▁ask	-10.715
▁19,	-10.7151
▁colored	-10.7159
▁employees	-10.7166
▁Jaya	-10.7173
lauddin	-10.7182
19	-10.7187
▁serves	-10.7189
37	-10.7195
▁Shia	-10.7213
H	-10.7214
▁Deva	-10.7216
ritage	-10.7223
▁laws	-10.7232
ver	-10.7236
▁arrest	-10.7245
ter	-10.7246
▁94	-10.7253
made	-10.7257
▁shops	-10.726
▁stands	-10.7268
▁Saha	-10.7271
▁chose	-10.7272
▁Lakshmi	-10.7276
▁municipal	-10.7277
▁Technology	-10.7278
▁alternative	-10.7278
▁romantic	-10.7278
▁dawn	-10.7278
▁hydrogen	-10.7278
▁motion	-10.7278
▁rectangular	-10.7278
▁orthodox	-10.7278
▁extra	-10.7278
▁temporary	-10.7278
▁Yorkshire	-10.7278
▁stomach	-10.7278
▁Size	-10.7278
▁1879	-10.7279
▁Bhagavata	-10.7279
▁1896	-10.7279
▁altar	-10.7279
▁Kajal	-10.7279
chandra	-10.7281
▁personality	-10.7281
▁Nadu	-10.7281
▁pilot	-10.7281
▁loved	-10.7283
▁invited	-10.7283
▁Eye	-10.7284
▁colorful	-10.7285
▁burning	-10.7288
▁Grand	-10.7289
▁highlighted	-10.7293
▁cooked	-10.7296
▁Carl	-10.7309
▁intense	-10.7312
io	-10.7322
▁corners	-10.7322
ck	-10.7328
▁pie	-10.7332
▁relatives	-10.7334
▁mistake	-10.7334
▁landed	-10.7337
▁Communication	-10.7339
▁philosopher	-10.7342
▁particle	-10.7345
▁sword	-10.7357
U	-10.7358
▁container	-10.7358
▁minute	-10.7359
▁disciples	-10.7361
▁shoulder	-10.7373
▁images	-10.7375
▁grains	-10.7378
▁Cape	-10.7384
▁Part	-10.7385
gu	-10.7408
▁companions	-10.7414
▁retreat	-10.7425
▁Kala	-10.7426
▁wait	-10.7429
▁Bala	-10.7435
▁thinking	-10.7444
▁Indra	-10.7448
.5	-10.7453
▁Hai	-10.7456
▁flowering	-10.7456
▁97	-10.7461
▁strange	-10.7468
▁Dharma	-10.7475
les	-10.7475
▁Devdas	-10.7475
▁wealth	-10.7479
▁Gautam	-10.7486
▁div	-10.7486
etropolitan	-10.7493
▁Numer	-10.7495
▁Business	-10.7495
▁Elizabeth	-10.7495
▁Jamaat	-10.7495
▁Result	-10.7495
▁academy	-10.7495
▁deciduous	-10.7495
▁territory	-10.7495
▁Television	-10.7495
▁choice	-10.7495
▁latitude	-10.7496
▁folklore	-10.7496
▁outstanding	-10.7496
▁Kerala	-10.7496
▁Shakib	-10.7496
▁terracotta	-10.7496
▁anywhere	-10.7496
▁bigger	-10.7496
▁behalf	-10.7497
▁nearby	-10.7497
▁sacred	-10.7498
▁Omar	-10.7498
▁1878	-10.7501
▁versions	-10.7501
▁creates	-10.7502
▁reserved	-10.7503
▁Newton	-10.7509
▁distinct	-10.751
ually	-10.7515
▁cub	-10.752
▁skill	-10.7534
▁ac	-10.7544
▁controls	-10.7562
▁Service	-10.7562
▁wedding	-10.7564
▁neighbor	-10.7564
▁reservoir	-10.7566
▁chromosomes	-10.7571
ily	-10.7582
▁coin	-10.7585
ors	-10.7589
▁Marie	-10.759
▁supporter	-10.7595
▁Anna	-10.7599
▁Fort	-10.7612
ology	-10.7614
tra	-10.762
▁Ba	-10.7621
▁78	-10.7625
63	-10.7634
▁Vidya	-10.7636
ham	-10.7649
idae	-10.7654
CC	-10.7662
▁debate	-10.7665
▁keeping	-10.7667
▁killing	-10.7667
▁taxi	-10.7673
▁Railways	-10.7678
gi	-10.7682
▁Kashi	-10.7682
▁strict	-10.7698
▁Mujib	-10.7717
▁acquaint	-10.7717
▁Jupiter	-10.7718
▁Pandit	-10.7718
▁cotton	-10.7718
▁vaccine	-10.7718
▁scattered	-10.7718
▁Brahmanbaria	-10.7718
▁Natore	-10.7718
▁Norway	-10.7718
▁Town	-10.7718
▁compiled	-10.7718
▁wheat	-10.7719
▁1904	-10.7719
▁Diana	-10.7719
▁1899	-10.772
▁anthem	-10.772
▁haor	-10.772
▁colonial	-10.7721
▁inventor	-10.7721
▁arches	-10.7722
▁Good	-10.7723
▁useful	-10.7724
▁Ashoka	-10.7724
▁anger	-10.7732
▁Khar	-10.7736
▁analysis	-10.7744
▁sixes	-10.775
▁publishing	-10.7754
▁Oman	-10.776
▁manage	-10.7764
▁Sham	-10.7769
▁dolls	-10.7778
▁creator	-10.7787
▁ocean	-10.7787
▁Richard	-10.7788
▁holiday	-10.7791
▁chariot	-10.7792
▁descendant	-10.7795
▁comic	-10.7796
▁grave	-10.7796
▁soldier	-10.7796
▁broadcasting	-10.7797
▁planets	-10.7797
▁Pir	-10.78
▁naturally	-10.78
▁Him	-10.7804
ium	-10.7809
bala	-10.7816
▁Malik	-10.7823
▁format	-10.7828
▁blocks	-10.7829
▁likely	-10.7832
▁Thai	-10.7844
tha	-10.7845
chhari	-10.7853
▁Honors	-10.7853
▁Kamala	-10.7855
q	-10.7861
▁touch	-10.787
▁103	-10.7881
▁Low	-10.7886
▁complet	-10.7892
▁1500	-10.7903
▁sets	-10.7903
▁courses	-10.7906
27	-10.7921
▁Pali	-10.7924
▁fluent	-10.7924
▁serious	-10.7925
▁Puranas	-10.7929
▁witness	-10.7943
▁sick	-10.7943
▁Ghazi	-10.7945
▁Santiniketan	-10.7945
▁artillery	-10.7945
▁delicious	-10.7945
▁inspiration	-10.7945
▁slender	-10.7945
▁livelihood	-10.7945
▁Small	-10.7945
▁Zafar	-10.7945
▁auditorium	-10.7945
▁poverty	-10.7945
▁failure	-10.7945
▁metropolis	-10.7945
▁Melbourne	-10.7945
▁twelfth	-10.7945
▁batsmen	-10.7945
▁housewife	-10.7945
▁beyond	-10.7945
▁salary	-10.7945
▁caliphate	-10.7945
▁Selim	-10.7946
▁Bikrampur	-10.7946
▁1915	-10.7946
▁underground	-10.7946
▁Mahbub	-10.7946
▁stable	-10.7947
▁adolescence	-10.7947
▁Burmese	-10.7948
▁clay	-10.7949
▁reaches	-10.7952
▁novelist	-10.7953
▁sum	-10.7954
▁Never	-10.7955
▁whatever	-10.7956
▁seedlings	-10.7957
▁Rio	-10.7964
▁hanging	-10.7964
▁proved	-10.7965
▁contribut	-10.7967
▁rows	-10.7968
▁Nu	-10.7968
ble	-10.7986
hap	-10.7988
▁wetlands	-10.7989
▁hearing	-10.7989
▁89	-10.7996
▁permanently	-10.7996
▁secretly	-10.7997
▁trying	-10.7998
hu	-10.7998
▁en	-10.8004
▁crossing	-10.8014
▁Mandal	-10.8014
▁peacock	-10.8019
▁measurement	-10.8019
ow	-10.802
▁14,	-10.8021
▁bell	-10.8022
▁panel	-10.8024
▁Kan	-10.8024
▁task	-10.8024
▁dialogue	-10.8025
▁victim	-10.8026
▁monument	-10.8026
▁terminal	-10.8027
▁duck	-10.8027
▁vegetable	-10.8028
▁Bird	-10.8031
▁describes	-10.8035
▁Abbas	-10.8046
▁67	-10.8048
▁290	-10.8051
▁sin	-10.8064
▁dialect	-10.8066
▁Champa	-10.8076
▁archeolog	-10.8083
▁stripes	-10.8085
▁800	-10.8093
▁Region	-10.8121
▁plans	-10.8127
▁citizens	-10.813
▁Adam	-10.8142
▁Son	-10.8143
▁Chat	-10.8146
sector	-10.8149
▁allow	-10.8156
▁gun	-10.8158
▁honest	-10.816
▁Fair	-10.8163
▁publish	-10.8168
▁Have	-10.8172
▁Thakur	-10.8176
ccasionally	-10.8177
▁Supr	-10.8177
▁Kepler	-10.8178
▁Monastery	-10.8178
▁Saraswati	-10.8178
▁Yusuf	-10.8178
▁advisor	-10.8178
▁meditation	-10.8178
▁Jharkhand	-10.8178
▁Smith	-10.8178
edieval	-10.8178
▁Fruit	-10.8178
▁cabinet	-10.8178
▁duty	-10.8178
▁declining	-10.8178
▁entertainment	-10.8178
▁Chaitra	-10.8178
▁nuclear	-10.8178
▁headmaster	-10.8178
▁Village	-10.8178
▁Hutak	-10.8179
▁Poland	-10.8179
▁platoon	-10.8179
▁atmosphere	-10.8179
▁heroism	-10.8179
lin	-10.8179
▁Angeles	-10.818
▁Senate	-10.818
▁authority	-10.8181
▁1884	-10.8181
▁Brazilian	-10.8182
▁subdivisions	-10.8183
▁Kent	-10.8185
▁Miss	-10.8192
▁hiding	-10.8192
▁organic	-10.8193
▁expected	-10.8196
▁Hills	-10.8197
▁Jamal	-10.8197
▁seriously	-10.8198
▁Q	-10.8198
▁compet	-10.8208
ville	-10.8212
▁busi	-10.8212
go	-10.8216
▁displayed	-10.8216
▁drew	-10.8219
▁Post	-10.8226
▁ports	-10.825
▁brand	-10.8255
▁online	-10.8262
▁banana	-10.8262
▁bazaar	-10.8263
▁attempt	-10.8264
▁Byzantine	-10.8264
▁bullet	-10.8265
▁companion	-10.8265
▁trap	-10.8266
▁marks	-10.8271
▁add	-10.8274
▁Shan	-10.8278
▁seasonal	-10.8291
▁ears	-10.8291
▁Site	-10.8295
▁Nizam	-10.8306
▁Ash	-10.8316
▁speaks	-10.8325
custom	-10.8359
▁Si	-10.8361
mb	-10.8366
▁succeed	-10.8382
▁Pari	-10.8383
lan	-10.8384
▁Mala	-10.8387
▁surprise	-10.8393
▁swor	-10.8394
▁global	-10.8395
dia	-10.84
▁Box	-10.8402
▁Cuba	-10.841
22	-10.8413
▁Locat	-10.8414
▁Canadian	-10.8416
▁Conference	-10.8416
▁Female	-10.8416
▁Friday	-10.8416
▁Najd	-10.8416
▁excess	-10.8416
▁imprisonment	-10.8416
▁olive	-10.8416
▁BNP	-10.8416
▁losing	-10.8416
▁freshwater	-10.8416
▁driving	-10.8416
▁Riaz	-10.8416
▁Large	-10.8416
▁waist	-10.8416
▁Medinipur	-10.8416
▁detective	-10.8416
▁corruption	-10.8416
▁genetic	-10.8416
▁Edward	-10.8417
▁commentary	-10.8417
▁Jainism	-10.8417
▁Taher	-10.8417
▁1897	-10.8418
▁Manasa	-10.8418
▁Body	-10.8419
hari	-10.8423
▁proceeded	-10.8425
round	-10.8427
▁wins	-10.8428
▁17,	-10.8428
▁facing	-10.8434
▁pulses	-10.8436
▁ornaments	-10.844
▁Tk	-10.8442
▁zamindari	-10.8442
▁editions	-10.8444
▁symptoms	-10.8469
▁Dad	-10.8475
▁individual	-10.848
▁Exten	-10.8483
ku	-10.8485
▁swing	-10.8491
▁lyric	-10.8492
▁passing	-10.8499
▁hosted	-10.8501
▁sect	-10.8503
▁heroine	-10.8504
▁devotee	-10.851
▁Ham	-10.8514
▁symbols	-10.8531
▁tails	-10.8532
▁Flowers	-10.8535
▁systems	-10.854
▁pan	-10.854
▁Marathas	-10.8554
▁arrangements	-10.8558
▁02	-10.8564
▁hunt	-10.8587
▁Kal	-10.8592
▁Bang	-10.8603
▁Ras	-10.8607
▁Batt	-10.861
▁beat	-10.8625
▁require	-10.8635
▁ingredients	-10.8636
itially	-10.8639
▁functions	-10.8643
▁Lo	-10.8646
mar	-10.8646
▁remove	-10.8648
ilitary	-10.8648
▁flights	-10.8651
▁Peace	-10.8655
▁firm	-10.8659
▁Ganguly	-10.866
▁Texas	-10.866
▁Uttam	-10.866
▁intelligence	-10.866
▁pronunciation	-10.866
▁strategy	-10.866
▁Nokia	-10.866
▁denied	-10.866
▁erosion	-10.866
▁unmarried	-10.866
▁permission	-10.866
▁programming	-10.866
▁expansion	-10.866
▁DVD	-10.866
▁Hussain	-10.866
▁Weight	-10.866
▁1903	-10.866
▁broad	-10.866
▁Bishwanath	-10.866
▁Apu	-10.866
▁supervision	-10.866
▁Hitler	-10.866
▁somewhere	-10.8661
▁Pacific	-10.8662
▁1890	-10.8662
▁Front	-10.8663
▁Chennai	-10.8663
▁Reza	-10.8664
▁Dewan	-10.8665
▁Mirpur	-10.8665
▁Sangha	-10.8665
▁enroll	-10.8666
▁scoring	-10.8666
▁shells	-10.8666
▁worn	-10.8667
▁yoga	-10.8667
▁birthday	-10.8669
▁Liga	-10.8671
▁combined	-10.8673
▁Peru	-10.8677
▁worth	-10.8677
▁scheduled	-10.868
▁bay	-10.8683
ev	-10.8692
nce	-10.87
▁Rang	-10.8703
▁Free	-10.871
24	-10.8721
▁rumors	-10.8722
▁railways	-10.8733
▁weighs	-10.8734
▁stripe	-10.8739
▁mill	-10.8742
av	-10.8743
ent	-10.8744
▁Buddhists	-10.8749
ek	-10.8751
▁mathematician	-10.8755
▁Van	-10.8759
▁organism	-10.8759
▁Honor	-10.8759
▁canals	-10.876
▁chapter	-10.876
▁Syrian	-10.8765
▁honored	-10.8768
▁bed	-10.8773
▁140	-10.8778
▁conditions	-10.8797
▁scales	-10.8798
su	-10.8804
ot	-10.8809
bo	-10.881
▁supporters	-10.8831
▁Chak	-10.8838
J	-10.8842
cooperation	-10.8849
▁modeling	-10.8852
▁125	-10.8858
▁Sultana	-10.8859
▁divide	-10.887
▁Any	-10.8873
▁surrender	-10.8876
▁294	-10.8876
▁assist	-10.8883
▁pitch	-10.8894
▁Social	-10.8903
jan	-10.8907
▁Darjeeling	-10.891
▁Defense	-10.891
▁Jakarta	-10.891
▁Jerusalem	-10.891
▁Rebellion	-10.891
▁Sussex	-10.891
▁qualities	-10.891
▁weaving	-10.891
▁hockey	-10.891
▁Mustafa	-10.891
▁Parvati	-10.891
▁Multipl	-10.891
▁nucleus	-10.891
▁Kaaba	-10.891
▁87	-10.891
▁translator	-10.891
▁Kishore	-10.891
▁Mathura	-10.891
▁dust	-10.891
▁Samiti	-10.891
▁impossible	-10.891
▁Alfred	-10.891
▁Taiwan	-10.891
▁1889	-10.8911
▁hunger	-10.8911
▁Durrani	-10.8911
▁abolished	-10.8912
▁Nandi	-10.8913
▁infected	-10.8913
▁Copa	-10.8914
▁painter	-10.8915
▁web	-10.8915
▁encouraged	-10.8919
▁decreased	-10.8921
▁fat	-10.8924
▁explained	-10.8935
ster	-10.8937
▁suppressed	-10.8938
▁lessons	-10.8939
▁pressed	-10.8941
▁tortured	-10.8946
▁Your	-10.8949
▁Shahid	-10.895
▁cars	-10.895
▁Hi	-10.8958
▁Din	-10.8964
▁waiting	-10.8965
▁serve	-10.8986
▁Ottomans	-10.8989
▁Name	-10.899
▁pen	-10.8999
▁patents	-10.9
▁MP	-10.901
▁manuscript	-10.9015
▁insect	-10.9016
▁communist	-10.9016
minent	-10.9019
▁UN	-10.902
▁institute	-10.9031
ori	-10.9039
▁Badr	-10.9042
▁lotus	-10.9043
eshwari	-10.9048
que	-10.9049
▁Pe	-10.9061
▁Ak	-10.9064
▁Rai	-10.9064
▁resist	-10.9084
off	-10.909
hal	-10.9093
▁forty	-10.9094
ray	-10.9102
▁Sar	-10.9104
van	-10.9109
▁listen	-10.911
▁minarets	-10.9114
▁questions	-10.9118
▁Vijay	-10.9119
▁whe	-10.9136
▁prove	-10.9139
▁teache	-10.914
▁card	-10.9141
▁Shi	-10.9143
▁illegal	-10.9145
▁divorce	-10.9145
▁ban	-10.9147
▁inter	-10.9148
▁replace	-10.9149
ducted	-10.9149
▁Azerbaijan	-10.9155
ig	-10.9155
▁Majid	-10.9159
ward	-10.9161
▁Iqbal	-10.9166
▁Lewis	-10.9166
▁Microsoft	-10.9166
▁Qasim	-10.9166
▁Saturday	-10.9166
▁possibility	-10.9166
▁Goswami	-10.9166
▁equator	-10.9166
▁oath	-10.9166
▁casualties	-10.9166
▁ceremonies	-10.9166
▁Banshkhali	-10.9166
▁Kartik	-10.9166
▁Tourism	-10.9166
▁evil	-10.9166
▁Sudan	-10.9166
▁registration	-10.9166
▁Yoga	-10.9166
▁Meghna	-10.9167
▁tenure	-10.9167
11	-10.9167
▁1898	-10.9167
▁Bangaon	-10.9168
▁Magura	-10.9168
ard	-10.9168
▁expensive	-10.9168
▁composing	-10.9168
▁Chess	-10.9169
▁Apple	-10.9169
▁Chandpur	-10.917
▁similarity	-10.917
▁Lalon	-10.9171
▁populated	-10.9172
▁Oil	-10.9172
▁launch	-10.9173
▁Arjuna	-10.9175
▁betel	-10.9176
▁Acharya	-10.9177
▁6,000	-10.9178
ee	-10.9181
▁Alan	-10.9182
▁resolve	-10.9182
ate	-10.9185
▁lying	-10.9189
▁circular	-10.919
R	-10.9193
▁Rahim	-10.9196
▁1,000	-10.9198
▁Bond	-10.9201
run	-10.9209
du	-10.9213
▁Kun	-10.9218
▁Helen	-10.9228
▁talented	-10.9229
▁horses	-10.9236
▁Chang	-10.9252
▁trip	-10.9255
▁sees	-10.9266
▁trunk	-10.9268
▁crest	-10.9269
▁occupation	-10.9271
▁ancestors	-10.9275
▁Tiger	-10.9275
▁equation	-10.9276
▁street	-10.9278
▁gardens	-10.9278
▁Maratha	-10.9279
▁rating	-10.9279
▁Armenian	-10.9281
▁crown	-10.9291
▁Shyam	-10.9291
iz	-10.9297
▁windows	-10.9303
▁106	-10.9312
▁battles	-10.9312
▁doctors	-10.9316
sha	-10.9326
12	-10.9332
▁wine	-10.9332
▁coached	-10.9344
▁Deb	-10.9345
▁Shiv	-10.9347
▁fun	-10.9358
▁Aman	-10.9358
▁specialize	-10.9379
▁arts	-10.9382
▁defend	-10.9383
▁periodic	-10.9405
▁exile	-10.9406
▁schedule	-10.9407
▁settlements	-10.9408
▁computers	-10.9409
▁staged	-10.9411
▁raise	-10.9412
▁hav	-10.9416
▁Geo	-10.9416
▁Jamaica	-10.942
▁Estonia	-10.9421
▁Alo	-10.9422
▁molecul	-10.9424
▁violin	-10.9425
▁Baha	-10.9428
▁silk	-10.9429
▁Banerjee	-10.9429
▁Commonwealth	-10.9429
▁Constitution	-10.9429
▁Filmfare	-10.9429
▁Karatoya	-10.9429
▁Mathematics	-10.9429
▁Square	-10.9429
▁deputy	-10.9429
▁empty	-10.9429
▁frequency	-10.9429
▁incomplete	-10.9429
▁Hafez	-10.9429
▁bachelor	-10.9429
▁Rajasthan	-10.9429
▁isolated	-10.9429
▁Magadha	-10.9429
▁Marathi	-10.9429
▁activity	-10.9429
▁primitive	-10.9429
▁Bandarban	-10.9429
▁surah	-10.9429
▁tomorrow	-10.9429
▁Maurya	-10.9429
▁wonderful	-10.9429
▁Mouza	-10.9429
▁marine	-10.9429
▁Maheshkhali	-10.9429
▁Religion	-10.9429
▁decoration	-10.9429
▁consciousness	-10.9429
▁Sengupta	-10.943
▁reflection	-10.943
▁Nothing	-10.943
▁criticism	-10.943
▁scorer	-10.9431
▁halls	-10.9432
▁MCC	-10.9433
▁sixties	-10.9433
▁Padak	-10.9437
▁attractive	-10.9437
▁Usha	-10.9437
per	-10.9439
▁Lane	-10.944
▁Latif	-10.9444
▁colorless	-10.9445
▁clubs	-10.9447
▁opinions	-10.9452
▁bag	-10.9457
▁scientists	-10.946
▁prisoners	-10.9467
▁purposes	-10.9467
▁wider	-10.947
▁mountainous	-10.9471
▁escaped	-10.9481
▁pet	-10.9484
▁Gani	-10.9485
▁Agra	-10.9489
▁Ab	-10.9497
▁clearly	-10.9502
▁entering	-10.951
▁liver	-10.9513
▁performing	-10.9515
▁aware	-10.9517
▁shirt	-10.9539
▁membrane	-10.9539
▁guerrilla	-10.954
▁Ward	-10.9545
▁guard	-10.9546
▁column	-10.9547
▁fiber	-10.9548
▁horns	-10.9549
▁runners	-10.9549
▁Umayyad	-10.9552
▁wor	-10.9553
34	-10.9556
▁Bharat	-10.956
▁Gas	-10.9583
▁scale	-10.9585
▁nose	-10.9585
▁manuscripts	-10.9586
kha	-10.9595
▁Jan	-10.9598
▁Haji	-10.9604
▁Tea	-10.9605
lassification	-10.9606
▁researcher	-10.9607
hrew	-10.9611
sar	-10.9619
▁magazines	-10.9621
od	-10.9624
▁locally	-10.9625
▁Read	-10.9625
pal	-10.9635
spin	-10.9639
elected	-10.964
tan	-10.9642
▁dies	-10.9663
▁observe	-10.9682
▁press	-10.9683
13	-10.9684
▁Eight	-10.9686
▁decide	-10.9691
▁Cho	-10.9692
▁intelligent	-10.9699
▁Abahani	-10.9699
▁Example	-10.9699
▁Institution	-10.9699
▁Kannada	-10.9699
▁WWE	-10.9699
▁argument	-10.9699
▁brief	-10.9699
▁equipment	-10.9699
▁fragrant	-10.9699
▁identify	-10.9699
▁monasteries	-10.9699
▁ribbon	-10.9699
▁split	-10.9699
▁theoretical	-10.9699
▁universities	-10.9699
▁Denmark	-10.9699
▁Guangzhou	-10.9699
▁Purulia	-10.9699
▁Silver	-10.9699
▁sequel	-10.9699
▁Riyadh	-10.9699
▁lifespan	-10.9699
▁Children	-10.9699
▁abode	-10.9699
▁planning	-10.9699
▁philosophical	-10.97
▁impact	-10.97
▁wildlife	-10.97
▁irrigation	-10.97
▁Orange	-10.97
▁Ratna	-10.97
▁noticeable	-10.97
▁fertile	-10.9702
▁grandmother	-10.9702
▁2018	-10.9702
▁passes	-10.9706
▁Rudra	-10.9706
▁manufacturer	-10.9709
▁suppo	-10.9709
▁Plant	-10.971
▁injuries	-10.9711
▁investment	-10.9712
▁stock	-10.9712
▁reflected	-10.9716
▁granted	-10.9719
▁Alamgir	-10.9719
▁hanged	-10.972
▁Bob	-10.9723
▁throwing	-10.9725
▁interesting	-10.9726
ju	-10.9729
▁Jalal	-10.973
▁Insects	-10.9731
▁allegations	-10.9733
kh	-10.9737
▁Anand	-10.9746
▁engage	-10.9749
▁indigo	-10.975
▁let	-10.9767
▁rebels	-10.9785
▁sacrifice	-10.9797
▁measure	-10.9803
▁Cor	-10.9807
▁units	-10.9807
▁entrances	-10.9811
▁talking	-10.9812
▁presid	-10.9819
▁Tantra	-10.982
▁Christ	-10.9824
▁Economic	-10.9827
▁tool	-10.9844
▁dancer	-10.9849
▁fibers	-10.9853
▁Mani	-10.9862
▁drawing	-10.9867
▁bullets	-10.9874
dha	-10.9877
▁proficien	-10.9878
▁ka	-10.9881
▁custom	-10.9882
▁Class	-10.9897
riya	-10.9906
▁Akash	-10.9923
pe	-10.9924
▁PC	-10.9939
▁Boy	-10.9943
▁reveal	-10.9944
▁orders	-10.9944
50	-10.9957
▁madrasas	-10.9959
▁praise	-10.9961
▁magic	-10.9961
▁compounds	-10.9963
make	-10.9972
▁Office	-10.9973
▁350	-10.9973
▁addict	-10.9975
housands	-10.9976
▁Pre	-10.9976
▁chemist	-10.9976
▁flour	-10.9976
▁Barbados	-10.9977
▁Branch	-10.9977
▁Celsius	-10.9977
▁Finland	-10.9977
▁Lawrence	-10.9977
▁Massachusetts	-10.9977
▁Project	-10.9977
▁Purnima	-10.9977
▁Schedule	-10.9977
▁afraid	-10.9977
▁cream	-10.9977
▁faculty	-10.9977
▁navy	-10.9977
▁tortoise	-10.9977
▁welfare	-10.9977
▁Coast	-10.9977
▁Could	-10.9977
▁distant	-10.9977
▁vagina	-10.9977
▁regain	-10.9977
▁changing	-10.9977
▁profound	-10.9977
▁nocturnal	-10.9977
▁judiciary	-10.9977
▁reproduction	-10.9977
▁citizenship	-10.9977
▁aristocratic	-10.9977
▁Yang	-10.9977
▁Ubuntu	-10.9978
▁Jackson	-10.9978
▁1893	-10.9978
▁posture	-10.9979
▁1877	-10.9979
▁Ground	-10.9979
▁1885	-10.9979
▁shadow	-10.998
▁assassination	-10.998
▁bride	-10.998
▁Sherpur	-10.9981
▁losses	-10.9981
▁Sunni	-10.9981
▁march	-10.9981
▁Stone	-10.9981
▁assumed	-10.9984
▁familiar	-10.9986
▁Latvia	-10.9986
▁feed	-10.9987
▁Advaita	-10.9988
▁III	-10.9989
▁Puri	-10.9989
▁disappeared	-10.9989
▁dispute	-10.999
▁dangerous	-10.999
▁partially	-10.9991
▁Train	-10.9994
▁Euro	-10.9996
▁mud	-10.9997
▁buds	-10.9997
▁nails	-11.0001
▁centimeters	-11.0005
unnesa	-11.0024
▁pm	-11.0031
ling	-11.0033
▁Nine	-11.0034
▁mix	-11.0037
▁Sarada	-11.0038
▁exported	-11.0041
▁Ball	-11.0041
var	-11.0041
▁Writ	-11.0043
aka	-11.0047
▁Taj	-11.005
▁Ta	-11.0055
▁seeing	-11.007
▁Nav	-11.0082
▁Angel	-11.009
▁bats	-11.0096
▁twin	-11.0104
▁check	-11.0106
mote	-11.0108
▁slave	-11.0111
▁window	-11.0112
▁Master	-11.0113
▁follower	-11.0125
▁Boys	-11.0129
▁parliamentar	-11.0142
▁directors	-11.0144
▁Gi	-11.0146
▁returning	-11.0151
▁speaker	-11.0157
▁whom	-11.0158
▁Special	-11.0159
▁x	-11.0161
▁Ring	-11.017
ira	-11.0171
▁Sita	-11.0178
led	-11.0178
▁Mahal	-11.018
▁Goa	-11.0181
▁Farooq	-11.0184
▁coaching	-11.0189
▁reforms	-11.0197
tala	-11.0199
▁minerals	-11.02
ora	-11.0201
▁Je	-11.0205
five	-11.0212
▁ba	-11.0216
▁greatly	-11.0222
75	-11.0227
▁Fish	-11.0227
igh	-11.0228
das	-11.0234
▁irregular	-11.0243
▁slight	-11.0244
▁solve	-11.0247
den	-11.0251
▁drugs	-11.0253
70	-11.0258
▁Khandaker	-11.0263
▁Khwaja	-11.0263
▁Satkhira	-11.0263
▁Sikkim	-11.0263
▁Suddenly	-11.0263
▁YouTube	-11.0263
▁giant	-11.0263
▁invasion	-11.0263
▁laboratory	-11.0263
▁sauce	-11.0263
▁temporarily	-11.0263
▁concrete	-11.0263
▁carved	-11.0263
▁tendenc	-11.0263
▁Bangabandhu	-11.0263
▁marble	-11.0263
▁Jahangir	-11.0263
▁undivided	-11.0263
▁highlands	-11.0263
▁democracy	-11.0263
▁seaport	-11.0263
▁doctorate	-11.0264
▁Kishoreganj	-11.0264
▁Ullah	-11.0264
▁Independence	-11.0264
▁Palestine	-11.0264
▁Madhya	-11.0264
▁estate	-11.0264
▁Siddiqui	-11.0265
let	-11.0265
▁1880	-11.0265
▁selection	-11.0265
▁crew	-11.0266
▁filmmaker	-11.0266
▁disturbed	-11.0266
▁dug	-11.0268
▁villagers	-11.0269
▁employed	-11.0276
▁underside	-11.0282
▁Indonesian	-11.0285
▁del	-11.0286
▁fictional	-11.029
▁thorns	-11.0296
▁developing	-11.03
▁invitation	-11.03
▁symbolic	-11.0302
▁06	-11.0303
▁develop	-11.0317
rs	-11.0318
▁densely	-11.032
▁layers	-11.0322
▁Tar	-11.0325
▁rod	-11.0326
▁Nepali	-11.0334
▁regarded	-11.0341
▁Wa	-11.0346
▁Iraqi	-11.035
▁swim	-11.0351
▁sanctu	-11.0351
▁Mela	-11.0352
artial	-11.0357
▁walking	-11.036
ista	-11.0361
▁Light	-11.0368
▁Sona	-11.0374
▁lemon	-11.0396
▁Andaman	-11.0396
▁benefits	-11.0398
▁loan	-11.0399
▁Vis	-11.0399
fi	-11.0402
▁excavation	-11.0405
▁essay	-11.0406
▁Nar	-11.0406
▁soup	-11.041
▁measures	-11.0421
▁ma	-11.0428
▁Prem	-11.0429
46	-11.043
▁organisms	-11.0439
▁Will	-11.0456
▁happens	-11.0472
ud	-11.0486
▁115	-11.0494
▁wind	-11.0496
▁Ru	-11.0502
▁fans	-11.0506
▁Osman	-11.0509
▁principles	-11.0515
▁102	-11.0522
▁affect	-11.0522
▁net	-11.0525
▁suppress	-11.0526
65	-11.0526
▁flags	-11.0529
▁decline	-11.0535
▁soils	-11.0538
▁Ari	-11.0541
▁command	-11.0543
▁devotion	-11.0544
▁scenes	-11.0545
esh	-11.0546
▁Arjun	-11.0548
▁Georgia	-11.0549
▁synonym	-11.055
▁mis	-11.055
▁Join	-11.055
▁integr	-11.0555
▁Faculty	-11.0557
▁Hundred	-11.0557
▁Little	-11.0557
▁Nehru	-11.0557
▁coconut	-11.0557
▁depict	-11.0557
▁easier	-11.0557
▁gender	-11.0557
▁structural	-11.0557
▁tobacco	-11.0557
▁vicinity	-11.0557
▁agency	-11.0557
▁Masood	-11.0557
▁intensity	-11.0557
▁Arunachal	-11.0557
▁Boundar	-11.0557
▁external	-11.0557
▁Clark	-11.0557
▁famine	-11.0557
▁Geneva	-11.0557
▁Imran	-11.0557
▁Panchagarh	-11.0557
▁Everything	-11.0557
▁distribution	-11.0557
▁lunch	-11.0557
▁Jute	-11.0558
▁bravery	-11.0558
▁Kunti	-11.0558
▁UTC	-11.0558
▁Akhtar	-11.0558
▁Shal	-11.0558
▁Shabana	-11.0559
▁1876	-11.0559
▁Atharva	-11.0559
▁photographer	-11.056
▁minim	-11.056
▁Nanda	-11.0561
▁extinction	-11.0561
▁acceptable	-11.0562
▁Rather	-11.0563
▁honorary	-11.0563
▁darkness	-11.0563
▁Betar	-11.0564
▁MW	-11.0566
▁valuable	-11.0567
▁setting	-11.0568
▁chosen	-11.0568
▁devot	-11.0569
▁Murad	-11.0571
▁50,000	-11.0575
▁Harun	-11.0576
▁implemented	-11.0577
▁Cook	-11.0578
▁Robin	-11.0584
tosh	-11.0588
▁offices	-11.0588
▁Barak	-11.0594
sized	-11.0596
▁poetic	-11.0597
▁rescued	-11.0599
hail	-11.0605
▁allies	-11.0606
▁h	-11.0607
▁healthy	-11.0607
bus	-11.0607
▁beside	-11.0613
▁cormorants	-11.0614
▁spices	-11.0615
ler	-11.0618
▁Con	-11.0629
▁characteristics	-11.0651
▁Khal	-11.0658
ola	-11.0659
V	-11.0662
47	-11.0667
▁demanded	-11.0668
▁document	-11.0671
▁limit	-11.0671
▁deeply	-11.0677
▁Parganas	-11.0678
▁Mass	-11.0683
▁Malda	-11.0683
▁share	-11.0687
back	-11.0691
▁techniques	-11.0692
▁users	-11.0699
▁Poet	-11.0702
▁smell	-11.0702
wal	-11.0705
▁Mongol	-11.0706
▁preparation	-11.0706
▁Abbasid	-11.0707
▁sage	-11.0708
▁passenger	-11.071
▁Flower	-11.0711
▁Shahi	-11.0719
▁instruction	-11.0722
ship	-11.0723
▁Chu	-11.073
▁likes	-11.0731
set	-11.0733
▁Ramu	-11.0739
▁Ga	-11.0741
▁traveling	-11.0751
▁Dhan	-11.0751
ber	-11.076
nt	-11.0763
▁intellectual	-11.077
▁peaks	-11.078
▁suffer	-11.079
graduate	-11.0792
▁Max	-11.0796
rat	-11.0796
▁bonds	-11.0808
▁liked	-11.081
rang	-11.0825
▁opponents	-11.0826
gra	-11.0835
40	-11.0837
▁celebrate	-11.0838
▁merge	-11.0838
▁achieve	-11.084
▁notice	-11.0843
▁kingdoms	-11.0844
▁Hind	-11.0849
▁bread	-11.085
▁Steve	-11.0852
▁Mongolia	-11.0853
▁Nasir	-11.0854
▁Bai	-11.0858
▁immigrat	-11.0859
▁Mahendra	-11.0859
▁Philip	-11.086
▁Associate	-11.086
▁Charlie	-11.086
▁Draupadi	-11.086
▁Einstein	-11.086
▁Liverpool	-11.086
▁Madhusudan	-11.086
▁Mahatma	-11.086
▁ammunition	-11.086
▁herself	-11.086
▁storage	-11.086
▁trading	-11.086
▁varieties	-11.086
▁Eurasia	-11.086
▁Karnafuli	-11.086
▁Ustad	-11.086
▁Mostafa	-11.086
▁Naogaon	-11.086
▁Chhatra	-11.086
▁Hassan	-11.086
▁Indira	-11.086
▁rope	-11.086
▁Cantonment	-11.086
▁Dawood	-11.086
▁gravity	-11.086
▁Maldives	-11.086
▁biography	-11.086
▁Shivling	-11.086
▁rugby	-11.086
▁harmful	-11.086
▁Belgium	-11.086
▁Polish	-11.086
▁Trust	-11.086
▁beneficial	-11.086
▁textile	-11.0861
▁Third	-11.0861
▁Dhubri	-11.0861
▁wingspan	-11.0861
▁Titanic	-11.0861
▁Ghatak	-11.0861
▁captaincy	-11.0861
▁Maidan	-11.0861
producing	-11.0862
▁narrated	-11.0862
▁sure	-11.0862
▁ferry	-11.0862
▁1870	-11.0863
▁1894	-11.0863
▁03	-11.0864
▁membership	-11.0865
▁Engineering	-11.0866
▁Baker	-11.0867
▁liberated	-11.0867
▁Times	-11.0869
▁30,000	-11.087
▁confirmed	-11.0871
▁burned	-11.0872
▁Sporting	-11.0873
▁20,000	-11.0873
▁pitcher	-11.0876
ananda	-11.0877
▁underway	-11.0877
▁Please	-11.0878
tar	-11.0893
▁Israeli	-11.0901
▁mainland	-11.0901
▁Amar	-11.0903
▁flute	-11.0907
ata	-11.091
▁101	-11.0911
▁Guha	-11.0915
▁105	-11.092
▁Rule	-11.0922
▁economics	-11.093
▁Shamsu	-11.093
E	-11.0935
▁candidates	-11.0942
▁Gul	-11.0963
▁commission	-11.0967
▁reviews	-11.0971
80	-11.0974
▁bow	-11.0975
▁ear	-11.0979
▁Salt	-11.0981
endra	-11.0981
▁1883	-11.0985
▁electrons	-11.0991
▁signs	-11.0994
sisted	-11.0995
▁separately	-11.0996
▁bones	-11.0999
▁Ume	-11.1
▁Jam	-11.1007
▁Amr	-11.1007
mer	-11.1013
▁Karna	-11.1014
▁comment	-11.1017
▁ticket	-11.1018
▁vitamin	-11.1018
▁Sunday	-11.102
▁activist	-11.102
▁frog	-11.102
▁restaurant	-11.102
▁employee	-11.1022
▁Te	-11.1022
▁Pur	-11.1023
▁stream	-11.1024
▁manag	-11.1034
▁farmer	-11.1035
▁Moh	-11.1035
mat	-11.1039
▁Mahi	-11.1047
▁Tal	-11.1051
▁Tak	-11.1055
ST	-11.1055
▁5,	-11.1061
▁fielding	-11.1062
nga	-11.1063
▁Bhavan	-11.1065
▁Kat	-11.1066
bat	-11.1069
▁lakhs	-11.1071
der	-11.1073
▁Hu	-11.1073
hara	-11.1076
▁Fazlu	-11.1101
dimensional	-11.111
clock	-11.1114
▁Dinesh	-11.1114
dding	-11.1114
fer	-11.1125
▁Gita	-11.1127
ford	-11.1134
▁Pu	-11.1144
45	-11.1144
▁compose	-11.1149
▁sudden	-11.1153
▁centered	-11.1153
▁Ti	-11.1155
▁Bah	-11.1156
▁zamindars	-11.1158
▁Koch	-11.1165
▁Salam	-11.1165
▁angles	-11.1167
▁earlie	-11.1169
▁fashion	-11.1171
▁Lincoln	-11.1172
▁Auckland	-11.1173
▁Bandyopadhyay	-11.1173
▁Catalan	-11.1173
▁Dhanmondi	-11.1173
▁Foreign	-11.1173
▁Kathmandu	-11.1173
▁Tezpur	-11.1173
▁Would	-11.1173
▁infinite	-11.1173
▁steep	-11.1173
▁entitled	-11.1173
▁Hafiz	-11.1173
▁currency	-11.1173
▁voltage	-11.1173
▁kidney	-11.1173
▁Nature	-11.1173
▁Morgan	-11.1173
▁receiving	-11.1173
▁pepper	-11.1173
▁punishment	-11.1173
▁mining	-11.1173
▁interior	-11.1173
▁tired	-11.1173
▁sugarcane	-11.1173
▁eternal	-11.1173
▁Pune	-11.1173
▁flyover	-11.1173
▁Anupam	-11.1173
▁Lodi	-11.1173
▁Zeus	-11.1173
▁assistance	-11.1173
▁Chairman	-11.1174
▁Laila	-11.1174
▁rocket	-11.1174
▁1869	-11.1175
▁Emon	-11.1176
▁Leela	-11.1176
▁installed	-11.1176
▁runway	-11.1176
▁wrestling	-11.1177
▁Ashram	-11.1177
▁Moore	-11.1177
▁Officer	-11.1178
▁battlefield	-11.1178
▁dissolved	-11.1178
▁regulated	-11.118
▁greenish	-11.1182
▁rul	-11.1182
▁chicks	-11.1185
▁Ad	-11.1186
▁covering	-11.1186
▁repeatedly	-11.1187
▁Top	-11.1188
▁properly	-11.1191
▁duration	-11.1195
▁screamed	-11.1196
▁Quran	-11.1196
▁leftist	-11.1197
uli	-11.1201
▁aunt	-11.1209
▁Jin	-11.121
▁Sarah	-11.1222
▁lies	-11.1226
▁th	-11.1229
▁gathering	-11.123
▁clock	-11.1232
-16	-11.1234
ferred	-11.1239
▁matters	-11.124
▁sales	-11.1249
97	-11.126
▁adults	-11.1276
▁founders	-11.128
N	-11.1284
▁express	-11.1286
▁cultures	-11.129
mu	-11.1297
▁Use	-11.1308
▁improve	-11.1311
▁structures	-11.1321
▁Wing	-11.1323
ona	-11.1324
▁Uses	-11.1332
▁circuit	-11.1334
▁Number	-11.1335
▁sized	-11.1335
▁playwright	-11.1336
▁Fire	-11.1342
▁Europeans	-11.1342
▁tune	-11.1343
▁chicken	-11.1343
▁benefit	-11.1344
▁ingredient	-11.1344
▁grain	-11.1345
▁Student	-11.1345
▁arrangement	-11.1349
anta	-11.1357
▁Kalu	-11.1366
▁Nat	-11.1373
ain	-11.1374
▁Mill	-11.1385
▁Rana	-11.1385
▁1857	-11.1389
18	-11.1391
▁Tang	-11.1412
▁Ord	-11.1417
▁expand	-11.1424
member	-11.1435
speaking	-11.1436
dhar	-11.1441
▁gene	-11.1442
▁internationally	-11.1444
▁signals	-11.1444
▁beliefs	-11.145
▁Publish	-11.145
▁Fred	-11.1452
▁Cross	-11.1455
▁Back	-11.1455
▁cough	-11.1457
L	-11.1458
▁News	-11.146
▁exercise	-11.1465
▁dual	-11.1468
▁Las	-11.1469
▁bath	-11.147
▁cows	-11.1471
▁guide	-11.1474
▁deliver	-11.1478
57	-11.1483
▁Sahib	-11.1484
▁Bolivia	-11.1487
▁Palash	-11.1488
▁Maharaja	-11.149
etween	-11.1491
▁diagnos	-11.1494
tymolog	-11.1494
▁Wild	-11.1495
▁Cambodia	-11.1495
▁Caribbean	-11.1495
▁Cultural	-11.1495
▁Czech	-11.1495
▁Khorasan	-11.1495
▁Narsingdi	-11.1495
▁Python	-11.1495
▁Together	-11.1495
▁administrator	-11.1495
▁caravan	-11.1495
▁diabetes	-11.1495
▁elongated	-11.1495
▁genocide	-11.1495
▁itself	-11.1495
▁physician	-11.1495
▁physicist	-11.1495
▁resort	-11.1495
▁sanctorum	-11.1495
▁subsequent	-11.1495
▁Guinea	-11.1495
▁Jersey	-11.1495
▁Middlesex	-11.1495
▁Shakespeare	-11.1495
▁Vaishnavism	-11.1495
▁Maulvi	-11.1495
▁Netaji	-11.1495
▁Facebook	-11.1495
▁Actress	-11.1495
▁Patrika	-11.1495
▁Jorhat	-11.1495
▁Power	-11.1495
▁fresh	-11.1495
▁maintenance	-11.1495
▁jewelry	-11.1495
▁limestone	-11.1495
▁Davis	-11.1495
▁Lhasa	-11.1495
▁terrestrial	-11.1495
▁Oval	-11.1495
▁Athens	-11.1495
▁wax	-11.1495
▁partnership	-11.1495
▁Narail	-11.1496
▁Tower	-11.1496
▁municipalities	-11.1496
▁Puthia	-11.1496
▁creative	-11.1496
▁Amarnath	-11.1496
▁HSC	-11.1497
▁lecturer	-11.1497
▁meantime	-11.1497
▁armor	-11.1497
▁Arsenal	-11.1497
▁retain	-11.1497
▁classification	-11.1498
▁Shanghai	-11.1498
▁Sukumar	-11.1498
▁burnt	-11.1499
▁diverse	-11.1499
▁Boss	-11.15
▁Rice	-11.15
▁credit	-11.15
▁dish	-11.15
▁coral	-11.1501
▁latter	-11.1502
▁Visit	-11.1502
centric	-11.1503
▁sixty	-11.1503
▁digital	-11.1503
▁111	-11.1504
▁undergraduate	-11.1504
▁nationalized	-11.1506
▁Samaj	-11.1507
▁Yash	-11.1511
▁Pole	-11.1511
▁socialist	-11.1512
▁Rig	-11.1512
▁Shankara	-11.1514
▁markets	-11.1517
▁DC	-11.1517
▁wealthy	-11.152
▁printing	-11.152
ukh	-11.1521
39	-11.1524
▁papers	-11.1525
ghar	-11.1538
38	-11.1543
▁deeds	-11.1548
▁experts	-11.1549
▁enhance	-11.1551
bagh	-11.1552
▁Asad	-11.1555
ex	-11.156
▁Rail	-11.1561
▁lasts	-11.1564
▁mastered	-11.157
▁Shaw	-11.1571
▁Members	-11.1574
yo	-11.1589
▁yards	-11.1593
▁references	-11.1598
uzzaman	-11.1603
▁sharks	-11.1623
▁Bur	-11.1632
▁Chandi	-11.1645
▁turning	-11.1654
▁Mongols	-11.1659
chand	-11.1662
▁regiment	-11.167
▁sorrow	-11.167
▁cup	-11.1672
▁Raw	-11.1674
▁slope	-11.1676
▁vowel	-11.1676
▁prophet	-11.1677
▁technique	-11.1677
▁historian	-11.1678
▁runner	-11.1682
of	-11.1682
▁wheel	-11.1683
▁Ruk	-11.1689
▁bone	-11.1694
▁horn	-11.1698
▁killer	-11.1701
26	-11.1703
kanta	-11.1704
▁Rob	-11.1714
mani	-11.1717
ima	-11.1723
▁commit	-11.173
▁protests	-11.1732
▁arrow	-11.1733
order	-11.1735
▁1988,	-11.1742
▁Rao	-11.1748
wan	-11.175
▁Ji	-11.1763
drew	-11.1768
▁Fuji	-11.1771
▁satellites	-11.1771
char	-11.1777
▁yield	-11.1788
▁explain	-11.1795
▁attend	-11.1795
▁Bera	-11.1797
gged	-11.18
▁Mahesh	-11.1803
dan	-11.1804
▁brave	-11.1808
▁proper	-11.181
▁usual	-11.181
▁Rafiq	-11.1813
▁170	-11.1815
▁user	-11.1817
▁Albert	-11.182
▁Libya	-11.182
▁rent	-11.1821
▁01	-11.1822
▁Algeria	-11.1822
▁Ghiyasuddin	-11.1828
▁HIV	-11.1828
▁Istanbul	-11.1828
▁Majumder	-11.1828
▁Paramahamsa	-11.1828
▁Resolv	-11.1828
▁Somerset	-11.1828
▁Staff	-11.1828
▁Sunamganj	-11.1828
▁Teknaf	-11.1828
▁Vienna	-11.1828
▁adjoin	-11.1828
▁bleeding	-11.1828
▁liberal	-11.1828
▁phenomenon	-11.1828
▁pregnant	-11.1828
▁protagonist	-11.1828
▁shallow	-11.1828
▁yarn	-11.1828
▁forehead	-11.1828
▁Saheb	-11.1828
▁Uzbekistan	-11.1828
▁revered	-11.1828
▁Watson	-11.1828
▁pollution	-11.1828
▁hidden	-11.1829
▁Habiganj	-11.1829
ontent	-11.1829
▁Jabbar	-11.1829
▁Mamun	-11.1829
▁database	-11.1829
▁metallic	-11.1829
▁joy	-11.1829
▁stairs	-11.1829
▁lord	-11.1829
▁significance	-11.1829
▁GDP	-11.1829
▁Haldia	-11.1829
▁Memorial	-11.1829
▁Kalidasa	-11.1829
▁criteria	-11.1829
▁possession	-11.1829
▁velocity	-11.1829
▁classified	-11.1829
▁deteriorated	-11.183
▁Justice	-11.183
▁Atlantic	-11.183
▁humanities	-11.183
▁cargo	-11.183
▁diplomatic	-11.183
▁resumed	-11.183
▁banner	-11.1831
▁Stop	-11.1831
▁Bahrain	-11.1833
▁Leng	-11.1833
▁Championships	-11.1833
▁Metal	-11.1834
▁Mansur	-11.1835
▁Miller	-11.1835
▁Nirmal	-11.1836
▁continuously	-11.1836
▁Kamrup	-11.1836
▁Fateh	-11.1837
▁100,000	-11.1837
▁Page	-11.1837
▁absence	-11.1837
▁imposed	-11.184
▁kantha	-11.1841
▁seized	-11.1841
▁Whe	-11.1842
▁saving	-11.1842
▁vision	-11.1843
▁cast	-11.1843
▁nationalism	-11.1847
▁Ranjan	-11.185
▁Sign	-11.1854
▁ashram	-11.1862
▁severely	-11.1866
▁tombs	-11.1866
▁Khaled	-11.1867
▁closer	-11.1867
▁Pandavas	-11.1867
ection	-11.187
▁handle	-11.1874
▁chin	-11.1878
▁critic	-11.1878
▁Kam	-11.1878
▁Sang	-11.1879
▁suburb	-11.1888
▁sleeping	-11.1888
91	-11.1892
▁mammals	-11.1893
▁teenagers	-11.1895
pi	-11.1898
tali	-11.1899
▁count	-11.1902
▁clouds	-11.1904
▁rankings	-11.1909
een	-11.1913
▁dots	-11.1915
▁historically	-11.1924
▁obstacles	-11.1925
▁220	-11.1938
▁pirates	-11.194
▁camels	-11.1946
▁friendly	-11.1948
▁Mangal	-11.195
▁Thor	-11.1954
▁talked	-11.1956
48	-11.1958
ena	-11.1958
▁Fr	-11.1978
28	-11.1979
fered	-11.1979
▁import	-11.1979
▁Bel	-11.1979
▁wheels	-11.1982
▁Win	-11.1994
▁shares	-11.1998
tor	-11.2
▁tie	-11.2
▁crowd	-11.2
▁Bimal	-11.2013
▁airline	-11.2015
▁observation	-11.2016
▁cartoon	-11.2017
▁peasant	-11.202
▁Mountain	-11.2021
▁pole	-11.2023
▁breath	-11.2025
▁mills	-11.2035
nnual	-11.2039
▁forever	-11.2044
▁notes	-11.2044
ida	-11.2044
▁editing	-11.2045
verage	-11.2045
▁organ	-11.2046
▁monuments	-11.2051
▁Birds	-11.2052
▁politically	-11.2077
▁08	-11.2081
▁directions	-11.2084
sam	-11.2089
▁Nak	-11.2093
rin	-11.2099
▁environmental	-11.2101
▁Manu	-11.2101
▁Sal	-11.2114
08	-11.212
94	-11.2127
▁Kim	-11.213
99	-11.2132
▁contribute	-11.2134
▁powder	-11.2136
▁dis	-11.2137
▁Brahmi	-11.2138
▁license	-11.215
▁Releas	-11.2151
▁Mughals	-11.2153
▁loud	-11.2153
▁golf	-11.2159
pukur	-11.2164
▁104	-11.2166
▁Direct	-11.2167
▁fundamental	-11.2167
▁achievements	-11.2168
▁31,	-11.2169
vidence	-11.2172
▁Guard	-11.2173
▁Marx	-11.2173
limate	-11.2173
▁Villa	-11.2173
▁Constituen	-11.2173
▁Administration	-11.2173
▁Arthur	-11.2173
▁Constantinople	-11.2173
▁Jugantar	-11.2173
▁Petersburg	-11.2173
▁Sheffield	-11.2173
▁Yasmin	-11.2173
▁aggressive	-11.2173
▁boycott	-11.2173
▁drought	-11.2173
▁girlfriend	-11.2173
▁jersey	-11.2173
▁triangular	-11.2173
▁Admission	-11.2173
▁Shield	-11.2173
▁Android	-11.2173
▁Damodar	-11.2173
▁Electric	-11.2173
▁qualifiers	-11.2173
▁oxygen	-11.2173
▁Raozan	-11.2173
▁compilation	-11.2173
▁cattle	-11.2173
▁fluid	-11.2173
▁passport	-11.2173
▁tuberculosis	-11.2173
▁prosperity	-11.2173
▁114	-11.2174
▁internet	-11.2174
▁keen	-11.2174
▁Anderson	-11.2174
▁Jones	-11.2174
▁Ramadan	-11.2174
▁proponent	-11.2174
▁executed	-11.2174
▁Sardar	-11.2174
▁Bishnupur	-11.2174
▁clash	-11.2174
▁Jung	-11.2174
▁Swiss	-11.2174
▁yourself	-11.2174
▁Sachin	-11.2174
▁minority	-11.2174
▁BBC	-11.2175
81	-11.2175
▁1888	-11.2175
▁Halaku	-11.2175
▁1861	-11.2175
▁Lat	-11.2175
▁momentum	-11.2175
▁coastline	-11.2176
▁unveiled	-11.2176
▁Naik	-11.2176
▁eagle	-11.2176
▁Judge	-11.2177
▁trust	-11.2177
▁Tony	-11.2177
▁lun	-11.2177
▁Johnson	-11.2178
▁04	-11.2178
▁Mannan	-11.218
▁Duke	-11.218
▁Simon	-11.218
▁dors	-11.2181
▁pilgrims	-11.2181
▁Chancellor	-11.2183
▁diary	-11.2184
▁Pope	-11.2185
▁Cold	-11.2186
▁responded	-11.2189
▁Kiran	-11.2191
▁remembered	-11.2194
▁Last	-11.2196
▁Actor	-11.22
▁sweets	-11.2204
▁imported	-11.2208
▁sites	-11.221
▁FC	-11.2211
▁instrumental	-11.2215
▁Rad	-11.222
▁hunted	-11.2222
▁202	-11.2223
▁attractions	-11.2225
arms	-11.2225
▁Ranji	-11.2227
▁hide	-11.2232
▁Du	-11.2239
▁bands	-11.2241
▁devices	-11.2243
▁mahallas	-11.2246
ila	-11.2246
gging	-11.2256
▁Panch	-11.2259
▁hire	-11.226
▁pigeons	-11.2262
▁revolted	-11.2262
ledged	-11.2264
▁rises	-11.2269
▁Films	-11.2276
▁rituals	-11.2278
52	-11.228
ick	-11.2282
▁nuts	-11.2284
pat	-11.2286
76	-11.2294
▁shorter	-11.2295
art	-11.2296
▁Hard	-11.2304
▁electron	-11.2306
▁Sh	-11.231
▁Bas	-11.231
▁sight	-11.2318
▁900	-11.232
▁Quit	-11.2326
▁Bra	-11.2327
ff	-11.2329
berg	-11.2331
▁prophets	-11.2333
▁Ca	-11.2339
▁320	-11.2352
▁ride	-11.2356
▁fail	-11.2357
ander	-11.2359
▁Masters	-11.236
▁su	-11.2362
▁Gran	-11.2364
▁Jal	-11.2365
▁trouble	-11.2369
▁Jame	-11.237
▁track	-11.2372
▁submarine	-11.2373
▁waterfall	-11.2374
▁chair	-11.2374
▁frame	-11.2375
▁component	-11.2378
▁ancestor	-11.238
ility	-11.2382
56	-11.2384
ghat	-11.2384
▁Mel	-11.2387
▁107	-11.2398
▁traps	-11.2398
▁Did	-11.2399
▁acre	-11.2403
▁varied	-11.2405
▁pa	-11.2409
▁Sara	-11.241
09	-11.2425
▁Mont	-11.2427
ious	-11.2427
▁projects	-11.2449
▁infections	-11.2453
▁293	-11.2454
▁note	-11.2457
▁Transport	-11.2457
▁Pat	-11.2462
SC	-11.2463
▁minds	-11.2463
▁Moon	-11.2479
▁Gra	-11.2487
ated	-11.2493
▁draft	-11.2504
▁retire	-11.2508
▁collapse	-11.2508
▁la	-11.251
itabh	-11.2518
▁210	-11.2519
ft	-11.2525
▁potato	-11.2528
▁vocal	-11.2529
ymptoms	-11.253
▁Night	-11.253
▁virgin	-11.253
▁doubt	-11.253
▁Timur	-11.253
▁Alivardi	-11.253
▁Boishakh	-11.253
▁Finance	-11.253
▁Lieutenant	-11.253
▁Nivedita	-11.253
▁Trinidad	-11.253
▁Yudhisthira	-11.253
▁conversation	-11.253
▁emergency	-11.253
▁fishermen	-11.253
▁pregnancy	-11.253
▁storyteller	-11.253
▁tragic	-11.253
▁vapor	-11.253
▁Bangalore	-11.253
▁plasma	-11.253
▁plastic	-11.253
▁Christmas	-11.253
▁Famous	-11.253
▁grief	-11.253
▁hollow	-11.253
▁sheep	-11.253
▁Regular	-11.253
▁Zahir	-11.253
▁elite	-11.253
▁wives	-11.253
▁false	-11.253
▁diarrhea	-11.253
▁dignity	-11.253
▁subfamily	-11.253
▁quantities	-11.253
▁Bhola	-11.2531
▁Dilip	-11.2531
▁pounds	-11.2531
▁Haider	-11.2531
▁employment	-11.2531
▁Quad	-11.2531
▁Queensland	-11.2531
▁UAE	-11.2531
▁Rajiv	-11.2531
▁Left	-11.2531
▁conservative	-11.2531
▁Vikram	-11.2531
▁mainstream	-11.2531
▁Preparation	-11.2531
▁Mukul	-11.2531
▁goalkeeper	-11.2531
▁safety	-11.2531
▁Zone	-11.2532
▁Rigveda	-11.2532
▁moderate	-11.2532
▁logo	-11.2532
▁advertising	-11.2532
▁potatoes	-11.2533
▁midfielder	-11.2533
▁anymore	-11.2534
▁Siberia	-11.2534
▁Desert	-11.2534
▁Luke	-11.2534
▁SSC	-11.2534
▁Nick	-11.2535
▁Data	-11.2536
▁1882	-11.2536
▁eighties	-11.2539
▁dirty	-11.2539
▁photography	-11.2539
▁Bhima	-11.254
▁attitude	-11.254
▁crying	-11.2541
▁Durgapur	-11.2541
▁Greeks	-11.2542
▁292	-11.2543
▁3000	-11.2543
▁Tahir	-11.2545
▁Instead	-11.2545
▁defined	-11.2546
▁exploded	-11.2547
▁Locally	-11.2547
▁Deep	-11.2547
▁15,000	-11.2547
▁Kalam	-11.2548
hati	-11.2551
▁Dean	-11.2552
▁Jean	-11.2555
▁items	-11.2556
▁Mahadev	-11.2557
▁substances	-11.2558
▁Camp	-11.2562
▁Huda	-11.2563
▁Kalim	-11.2563
▁fur	-11.2566
06	-11.257
▁Nazi	-11.2571
▁Bag	-11.2573
▁Know	-11.2574
▁offensive	-11.2578
▁graduate	-11.2579
▁jointly	-11.2583
▁Chakra	-11.2584
bert	-11.2585
▁sad	-11.2601
▁Val	-11.2609
▁Wi	-11.2611
▁martyrs	-11.2612
74	-11.2616
istic	-11.2618
▁Kho	-11.262
▁Champions	-11.2623
▁clothing	-11.2625
▁examples	-11.2631
▁Gir	-11.2636
ew	-11.2643
ug	-11.265
▁bull	-11.2657
▁Madhu	-11.2663
▁singles	-11.267
▁Kha	-11.2676
▁Ajit	-11.2676
lessness	-11.2676
▁Sin	-11.2676
▁Surma	-11.2679
▁Ken	-11.2679
▁Mac	-11.2681
▁Bam	-11.2693
▁Madhav	-11.2697
▁Kant	-11.2705
▁109	-11.2712
▁ideas	-11.2715
▁Jains	-11.2721
▁slaves	-11.2724
▁Chanda	-11.2725
the	-11.2729
▁Chris	-11.2729
▁Mer	-11.273
▁Chan	-11.2732
82	-11.2733
▁Mali	-11.2733
▁tin	-11.2734
▁guards	-11.2735
▁Tan	-11.2735
▁Uma	-11.2736
ists	-11.2738
▁discipline	-11.2738
▁Oscar	-11.2738
▁commentator	-11.2738
▁Roger	-11.2739
gricultural	-11.2739
ncient	-11.274
▁streets	-11.2741
▁Chakma	-11.2744
▁Source	-11.2744
▁referee	-11.2744
▁Monday	-11.2745
▁cake	-11.2746
▁hosts	-11.2747
▁prince	-11.2747
▁hymn	-11.2748
▁servant	-11.2748
▁platform	-11.2748
▁Sufia	-11.2748
▁bunker	-11.2749
▁tank	-11.2751
▁Pargana	-11.2752
▁Game	-11.2752
▁theaters	-11.2754
ren	-11.2755
▁foods	-11.2755
▁drop	-11.2761
▁Take	-11.2765
▁Jim	-11.2767
▁talks	-11.2775
▁comics	-11.2775
ean	-11.2775
35	-11.2777
▁161	-11.278
▁175	-11.2789
by	-11.2795
▁Sikhs	-11.2809
▁disc	-11.2809
▁Ge	-11.281
▁Sand	-11.2815
▁07	-11.2818
▁Brahmins	-11.282
▁farms	-11.2828
house	-11.2839
▁necks	-11.2839
Islamic	-11.2843
▁Shams	-11.2845
▁05	-11.2848
light	-11.2849
▁mechanic	-11.2849
▁treat	-11.285
powered	-11.2851
▁matched	-11.2853
▁concentrat	-11.2864
▁absorb	-11.2871
▁elephants	-11.2872
ual	-11.2876
▁Current	-11.2881
▁Bhim	-11.2893
▁caves	-11.2895
▁situat	-11.29
▁humid	-11.29
▁loyal	-11.29
▁capita	-11.29
▁knock	-11.2901
▁Arakan	-11.2901
▁Aleppo	-11.2901
▁Amazon	-11.2901
▁Bulbul	-11.2901
▁Razzak	-11.2901
▁Sierra	-11.2901
▁Zaheer	-11.2901
▁copy	-11.2901
▁crazy	-11.2901
▁democratic	-11.2901
▁execution	-11.2901
▁junior	-11.2901
▁pleasant	-11.2901
▁slogan	-11.2901
▁unchanged	-11.2901
▁smoke	-11.2901
▁engrav	-11.2901
▁Isaac	-11.2901
▁Munger	-11.2901
▁gaseous	-11.2901
▁cure	-11.2901
▁submitted	-11.2901
▁convenience	-11.2901
▁thread	-11.2901
▁pipeline	-11.2901
▁mint	-11.2901
▁Dakhil	-11.2901
▁Mahayana	-11.2901
▁Demographic	-11.2901
▁diversity	-11.2901
▁rising	-11.2901
▁peel	-11.2901
▁shopping	-11.2901
▁Marriage	-11.2901
▁barren	-11.2901
▁Babita	-11.2901
▁lightning	-11.2901
▁wireless	-11.2902
▁gap	-11.2902
▁Poetry	-11.2902
▁Ship	-11.2902
▁cash	-11.2902
▁Bagerhat	-11.2902
▁occupy	-11.2902
▁Iron	-11.2902
▁1868	-11.2902
▁Sunny	-11.2902
▁Andrew	-11.2903
▁Ravi	-11.2903
bas	-11.2903
▁weakness	-11.2903
▁Nachol	-11.2903
▁Marco	-11.2903
▁neutral	-11.2903
▁chain	-11.2903
▁workplace	-11.2904
▁1881	-11.2904
ranjan	-11.2905
▁Architecture	-11.2905
▁Mandir	-11.2905
itable	-11.2906
▁poisonous	-11.2906
▁neglected	-11.2907
▁pronounced	-11.2907
▁Historically	-11.2907
▁taxes	-11.2908
▁abundance	-11.291
▁scared	-11.291
▁Anil	-11.2911
▁25,000	-11.2911
▁Syedpur	-11.2916
▁Hashim	-11.2917
▁Lemon	-11.2917
▁forget	-11.292
14	-11.292
▁fleet	-11.2921
▁Our	-11.2923
▁Path	-11.2923
▁fleeing	-11.2924
▁Head	-11.2925
▁Fa	-11.2925
▁Leave	-11.2926
▁None	-11.2927
▁Abir	-11.293
▁Bhatt	-11.2934
▁treated	-11.2935
▁reptiles	-11.2938
▁EP	-11.2939
▁3,000	-11.2939
▁Sena	-11.2939
▁Gan	-11.2943
▁Khanam	-11.2945
mohar	-11.2947
▁rings	-11.2947
▁Mon	-11.2951
gen	-11.2952
▁Basin	-11.2953
▁revolves	-11.2956
▁diet	-11.2958
▁Osmani	-11.2962
▁Arm	-11.2962
▁2,000	-11.2963
kania	-11.2967
▁happening	-11.2967
▁lectures	-11.2967
▁addressed	-11.2969
▁Jyoti	-11.2975
▁specimens	-11.2979
▁adventur	-11.2981
▁Dh	-11.2984
▁immigrants	-11.2985
▁Pek	-11.2985
charan	-11.2986
▁Shil	-11.2987
▁Sciences	-11.2987
▁aim	-11.2995
▁Event	-11.2997
▁Jit	-11.3001
▁scripts	-11.301
95	-11.3019
▁Bin	-11.302
43	-11.3023
▁crystals	-11.3026
▁constitutional	-11.3027
▁Sai	-11.303
▁Nath	-11.3038
▁traditionally	-11.3049
com	-11.3069
▁dedicate	-11.307
NU	-11.3074
▁Nabi	-11.3075
▁Americans	-11.3084
tin	-11.3089
▁Bata	-11.309
▁instructions	-11.309
▁Ek	-11.309
▁Sure	-11.3098
▁officials	-11.3099
▁speakers	-11.3108
▁Az	-11.3109
lam	-11.3112
adet	-11.3113
▁describe	-11.3115
▁onwards	-11.3116
▁Sim	-11.312
▁Tariq	-11.3122
▁economist	-11.3123
▁Production	-11.3127
▁Manipuri	-11.3131
▁ghost	-11.3133
▁affair	-11.3133
▁shark	-11.3134
▁feather	-11.3135
op	-11.3136
▁Girl	-11.3142
▁descriptions	-11.3151
▁mile	-11.3155
▁Lion	-11.3157
▁carrier	-11.316
ala	-11.317
ring	-11.3172
ney	-11.3175
▁Rod	-11.3178
▁reader	-11.3179
▁117	-11.318
▁AC	-11.3181
▁tested	-11.3184
▁Aryan	-11.3184
▁289	-11.3201
ure	-11.3203
▁conquer	-11.321
west	-11.3211
▁lover	-11.3211
▁Afghans	-11.3213
iteracy	-11.3215
adi	-11.3218
▁Adams	-11.3238
▁par	-11.3239
▁kick	-11.3247
▁approach	-11.3248
▁Ala	-11.3249
69	-11.325
▁organize	-11.3259
▁prepare	-11.3263
▁360	-11.3264
▁pointed	-11.3266
pu	-11.3268
▁meetings	-11.327
▁AK	-11.3273
narayan	-11.3274
▁recognize	-11.3274
▁widow	-11.3274
▁cultivate	-11.3275
▁mode	-11.3278
▁bunch	-11.3283
▁lens	-11.3284
▁supervis	-11.3284
▁Express	-11.3285
▁Ayodhya	-11.3285
▁Chandnaish	-11.3285
▁Computer	-11.3285
▁Nilphamari	-11.3285
▁Shukla	-11.3285
▁Sreepur	-11.3285
▁Strait	-11.3285
▁Tendulkar	-11.3285
▁Wife	-11.3285
▁Zamindar	-11.3285
▁annexed	-11.3285
▁anniversary	-11.3285
▁captivity	-11.3285
▁contrast	-11.3285
▁deported	-11.3285
▁duties	-11.3285
▁explosion	-11.3285
▁identical	-11.3285
▁memorial	-11.3285
▁ministry	-11.3285
▁obligatory	-11.3285
▁pavilion	-11.3285
▁serpent	-11.3285
▁steel	-11.3285
▁Annapurna	-11.3285
▁Blood	-11.3285
▁Pearl	-11.3285
▁happiness	-11.3285
▁wise	-11.3285
▁Network	-11.3285
▁transparent	-11.3285
▁Rangamati	-11.3285
▁canteen	-11.3285
▁jaundice	-11.3285
▁plague	-11.3285
▁envoy	-11.3285
▁elsewhere	-11.3285
▁lime	-11.3286
▁Chapter	-11.3286
▁Jolie	-11.3286
▁Tejgaon	-11.3286
▁conspiracy	-11.3286
▁neighborhood	-11.3286
▁Behala	-11.3286
▁Freedom	-11.3286
▁chocolate	-11.3286
▁Graham	-11.3286
▁territories	-11.3286
▁Travel	-11.3286
▁Hughli	-11.3286
▁comfortable	-11.3286
▁Sumon	-11.3286
▁Bibliography	-11.3286
▁semen	-11.3286
▁Lalbagh	-11.3286
▁patriotic	-11.3286
▁slate	-11.3286
▁Shamsuddin	-11.3286
▁Bailey	-11.3286
▁ownership	-11.3286
▁denote	-11.3286
▁Half	-11.3286
▁Jana	-11.3286
theless	-11.3286
▁hub	-11.3287
▁Pundra	-11.3287
▁concentration	-11.3287
▁documentary	-11.3288
▁1887	-11.3288
▁pottery	-11.3288
▁Lucy	-11.3288
▁Mango	-11.3289
▁Gajan	-11.329
▁Bagan	-11.329
▁Coach	-11.329
▁thorny	-11.329
▁Recently	-11.329
▁lineage	-11.3291
▁Lady	-11.3291
▁Taliban	-11.3291
▁Ashok	-11.3291
▁appreciated	-11.3292
▁Similarly	-11.3293
▁vegetarian	-11.3294
▁disrupted	-11.3294
▁grabb	-11.3294
▁synonymous	-11.3295
▁Tasmania	-11.3296
▁1800	-11.3298
▁Karma	-11.3298
▁Agni	-11.3298
▁113	-11.3299
▁AFC	-11.3299
▁640	-11.33
▁Mur	-11.3303
▁Gautama	-11.3303
▁Lara	-11.3304
▁violence	-11.3305
▁Uthman	-11.3305
▁Come	-11.3306
▁string	-11.3308
▁Ashu	-11.3308
▁recited	-11.331
▁Yuga	-11.3311
▁En	-11.3315
▁Perth	-11.3317
▁Moni	-11.3318
story	-11.3318
▁surprised	-11.3322
▁Mama	-11.3329
▁inscriptions	-11.3334
▁Teachers	-11.3336
▁inception	-11.3338
▁realized	-11.3343
▁lanes	-11.3343
▁hell	-11.3344
▁finance	-11.3344
▁Nil	-11.3351
▁sexually	-11.3352
▁131	-11.3354
▁vessels	-11.3355
▁traders	-11.3356
▁Lam	-11.3357
▁Dark	-11.3366
▁fairs	-11.3367
▁tent	-11.3375
▁powered	-11.3378
▁partridges	-11.3379
▁heritage	-11.3387
▁partial	-11.3391
▁merchants	-11.3397
▁Kush	-11.34
▁fairly	-11.3401
▁dreams	-11.3401
hen	-11.3404
nanda	-11.3404
▁Saif	-11.3405
▁discusse	-11.3406
▁rays	-11.3409
tion	-11.3412
▁135	-11.3413
ada	-11.3415
▁lamps	-11.3415
▁shrubs	-11.3415
▁atom	-11.3416
▁storey	-11.3418
64	-11.3421
ci	-11.3423
rap	-11.3424
▁teachings	-11.3431
▁emerg	-11.3432
▁Arch	-11.3455
▁cricketers	-11.3457
▁thana	-11.3458
more	-11.3462
▁boxing	-11.3463
▁fee	-11.3466
36	-11.3466
mati	-11.3467
istance	-11.3467
▁champions	-11.3473
▁streams	-11.3476
▁mo	-11.3478
▁returns	-11.348
▁throw	-11.3482
▁Braj	-11.3483
hroughout	-11.349
15	-11.349
ash	-11.3497
▁videos	-11.3497
▁pu	-11.35
▁Nazir	-11.35
▁para	-11.3505
▁columns	-11.3507
83	-11.3509
▁aid	-11.3511
▁Amit	-11.3515
▁112	-11.352
▁Pharaoh	-11.3523
▁disorder	-11.3523
▁bicycle	-11.3523
▁practic	-11.3525
▁exam	-11.3528
▁plateau	-11.3528
▁Full	-11.3528
▁explanation	-11.3529
▁Junior	-11.3529
▁fertilizer	-11.3529
▁crocodile	-11.353
▁pursuit	-11.3531
▁knee	-11.3531
▁flock	-11.3532
▁criminal	-11.3532
▁rifle	-11.3532
▁finger	-11.3534
▁vow	-11.3535
▁Colombia	-11.3535
▁Shar	-11.3536
ell	-11.3537
▁Uttara	-11.354
▁Kid	-11.3541
▁rival	-11.3543
▁victims	-11.3544
▁verb	-11.3544
55	-11.3545
▁nationalist	-11.3548
33	-11.3554
▁molecule	-11.3554
▁tri	-11.3557
▁truck	-11.3558
▁profit	-11.3562
▁Shin	-11.3565
▁Plato	-11.3565
▁upazilas	-11.358
▁bridges	-11.3582
▁ex	-11.3583
▁rhyme	-11.3589
kal	-11.3589
well	-11.3603
▁saints	-11.3605
ps	-11.3607
▁posts	-11.3612
▁Fazl	-11.3613
▁borders	-11.3619
▁breaks	-11.3621
84	-11.3621
defense	-11.3627
British	-11.3627
called	-11.3627
either	-11.3628
▁09	-11.363
▁accounts	-11.3631
▁Ian	-11.3636
point	-11.3637
▁reactions	-11.3642
▁creat	-11.3643
▁wish	-11.3649
▁Evans	-11.3652
▁Suni	-11.3655
▁Nava	-11.3658
▁passion	-11.366
▁vertical	-11.3665
▁Natural	-11.3666
▁tone	-11.367
▁Lev	-11.3671
▁doubles	-11.3674
▁Turk	-11.3676
dentification	-11.3685
▁Trade	-11.3685
▁merit	-11.3685
▁Aurangzeb	-11.3685
▁Dargah	-11.3685
▁Essex	-11.3685
▁Guatemala	-11.3685
▁Illinois	-11.3685
▁Jalpaiguri	-11.3685
▁Moulvibazar	-11.3685
▁Prothom	-11.3685
▁Seoul	-11.3685
▁Wilson	-11.3685
▁measuring	-11.3685
▁narrator	-11.3685
▁peninsula	-11.3685
▁quadrangular	-11.3685
▁surname	-11.3685
▁tabla	-11.3685
▁voluntarily	-11.3685
▁Mercury	-11.3685
▁carnivorous	-11.3685
▁consent	-11.3685
▁demolished	-11.3685
▁pocket	-11.3685
▁Subedar	-11.3685
▁porch	-11.3685
▁gallery	-11.3685
▁Extension	-11.3685
▁Contribution	-11.3685
▁Sankranti	-11.3685
▁Stanford	-11.3685
▁Stephen	-11.3685
▁presidency	-11.3685
▁Rahanpur	-11.3686
▁spacecraft	-11.3686
▁Ghadar	-11.3686
▁litchi	-11.3686
▁Monaco	-11.3686
▁Kabaddi	-11.3686
▁Caliphate	-11.3686
▁SAW	-11.3686
▁Kyoto	-11.3686
▁featherless	-11.3686
▁Grammar	-11.3686
▁Leaf	-11.3686
▁mysterious	-11.3686
▁BPL	-11.3686
▁Chaitanya	-11.3687
▁Jatra	-11.3687
▁barrister	-11.3687
▁Harrison	-11.3687
▁peaceful	-11.3687
▁occurred	-11.3687
▁Siddhartha	-11.3687
▁Treaty	-11.3687
▁Mancha	-11.3687
▁Sirajganj	-11.3688
▁basketball	-11.3688
▁prosperous	-11.3688
▁customary	-11.3688
▁Kapil	-11.3688
▁Haor	-11.3688
▁Pay	-11.3688
▁Oliver	-11.3689
▁Hungarian	-11.3689
▁Leone	-11.369
▁Jatin	-11.369
▁Building	-11.3691
▁Maharaj	-11.3694
▁heroes	-11.3695
▁Traditionally	-11.3695
▁tactics	-11.3695
▁Ross	-11.3695
▁Noah	-11.3696
▁com	-11.3696
▁Socialist	-11.3697
▁Nagpur	-11.3698
▁carefully	-11.3698
▁flies	-11.3698
▁Raju	-11.3702
▁variant	-11.3703
▁Cott	-11.3705
▁Mohammadpur	-11.3711
▁1865	-11.3716
▁autonomous	-11.3716
▁declined	-11.3716
▁Idris	-11.3717
▁measured	-11.3718
▁solved	-11.3724
▁Nahar	-11.3726
▁4,000	-11.3727
▁investigation	-11.3727
▁commissioned	-11.3734
▁viewers	-11.3735
▁Ron	-11.3737
▁Pi	-11.3737
shree	-11.3738
mala	-11.3741
tric	-11.3742
▁Nadir	-11.3744
▁integrated	-11.375
▁Vijaya	-11.3755
▁Arun	-11.3758
▁screened	-11.3763
pura	-11.3765
▁faster	-11.3766
▁Gain	-11.3772
▁beard	-11.3779
▁acids	-11.3786
▁princess	-11.3789
▁Find	-11.3791
▁intention	-11.3799
▁tests	-11.3799
▁journals	-11.3802
▁emperors	-11.3807
01	-11.3807
▁supplies	-11.3808
▁Rath	-11.3816
▁promote	-11.382
▁Julia	-11.382
▁Sad	-11.3828
▁Being	-11.3831
▁Bagha	-11.3835
ats	-11.3838
▁fingers	-11.384
▁affairs	-11.3846
ela	-11.3856
▁values	-11.3856
▁Waz	-11.3857
sky	-11.3864
▁poles	-11.3865
▁Amal	-11.3865
kanda	-11.3871
62	-11.3875
▁Sati	-11.3875
state	-11.3879
▁750	-11.388
ome	-11.3899
▁Mor	-11.3906
▁Mak	-11.3906
fish	-11.3911
▁mark	-11.3912
▁expeditions	-11.3913
▁CD	-11.3913
72	-11.3923
cy	-11.3929
▁threat	-11.3936
25	-11.3938
pecies	-11.3939
▁Sister	-11.394
▁Knight	-11.394
▁proof	-11.3943
▁robot	-11.3944
▁diamond	-11.3945
▁calculation	-11.3946
▁Pashtun	-11.3946
▁concert	-11.3947
▁predecessor	-11.3947
▁garment	-11.3948
▁patent	-11.3951
▁mold	-11.3951
▁shore	-11.3952
▁review	-11.3952
▁Himalaya	-11.3952
▁Jo	-11.3958
▁Ya	-11.3965
▁towns	-11.398
▁Aga	-11.3986
▁cats	-11.3989
▁Child	-11.399
ene	-11.4
▁prizes	-11.4006
je	-11.4007
▁Saba	-11.4016
▁confer	-11.4032
aj	-11.4038
▁surviv	-11.4039
73	-11.4039
▁Moti	-11.4042
length	-11.4043
▁da	-11.4044
free	-11.4044
uni	-11.4047
▁domains	-11.4051
▁Lau	-11.4056
▁interview	-11.4065
▁extract	-11.4067
▁expect	-11.4068
▁Provinc	-11.4075
▁se	-11.4076
▁l	-11.4083
▁na	-11.4088
net	-11.4091
▁shut	-11.4092
▁repeated	-11.4097
▁Munshi	-11.4101
▁Sky	-11.4102
▁Sp	-11.4102
▁Balmiki	-11.4102
▁Brunei	-11.4102
▁Category	-11.4102
▁Extinct	-11.4102
▁Gangopadhyay	-11.4102
▁Lancashire	-11.4102
▁Peshawar	-11.4102
▁Philosophy	-11.4102
▁Siliguri	-11.4102
▁Worship	-11.4102
▁Zurich	-11.4102
▁cheap	-11.4102
▁conversion	-11.4102
▁corporation	-11.4102
▁graduation	-11.4102
▁plural	-11.4102
▁shrimp	-11.4102
▁triangle	-11.4102
▁vacation	-11.4102
▁victorious	-11.4102
▁Critics	-11.4102
▁Dhumavati	-11.4102
▁Shahjahan	-11.4102
▁algae	-11.4102
▁fake	-11.4102
▁Sealdah	-11.4102
▁administer	-11.4102
▁Complete	-11.4102
▁Doctor	-11.4102
▁Vaishali	-11.4102
▁Linux	-11.4102
▁Ohio	-11.4102
▁organizing	-11.4102
▁papaya	-11.4102
▁battery	-11.4102
▁Fatema	-11.4102
▁Executive	-11.4102
▁assigned	-11.4102
▁rough	-11.4102
▁Ginger	-11.4102
▁toilet	-11.4102
▁groom	-11.4102
▁Goalpara	-11.4102
▁Sandesh	-11.4102
▁noise	-11.4103
▁glorious	-11.4103
▁gateway	-11.4103
▁circulation	-11.4103
▁reorganized	-11.4103
▁Ahsan	-11.4103
▁appeal	-11.4104
▁1892	-11.4104
▁metric	-11.4104
▁Neptune	-11.4104
▁tries	-11.4105
▁hometown	-11.4105
▁1891	-11.4106
▁1840	-11.4106
▁flourished	-11.4106
▁penalty	-11.4106
▁nineties	-11.4106
▁collective	-11.4106
▁Akram	-11.4106
▁Sikand	-11.4107
▁Eaton	-11.4108
▁Commander	-11.4108
▁Scott	-11.4108
▁Krishnanagar	-11.4109
▁pool	-11.4109
▁Fine	-11.411
▁thrown	-11.4111
▁shy	-11.4111
▁shortage	-11.4112
▁Influence	-11.4112
tara	-11.4112
▁restored	-11.4113
▁Denni	-11.4114
▁addiction	-11.4115
▁fascinated	-11.4117
▁mourning	-11.4117
▁Cuban	-11.4117
▁Following	-11.4118
▁commissioner	-11.4118
▁shocked	-11.4119
▁Look	-11.4119
▁participates	-11.412
ger	-11.4121
ip	-11.4121
▁Normal	-11.4127
▁erected	-11.4127
▁bravely	-11.4127
▁offers	-11.4132
▁calling	-11.4133
▁linear	-11.4134
▁Hayat	-11.4135
▁extracted	-11.4136
▁280	-11.4136
▁Chin	-11.4138
▁manga	-11.4145
▁refuses	-11.4145
▁worshipers	-11.4146
▁Marma	-11.4151
▁Sanja	-11.4151
ula	-11.4164
▁snails	-11.4164
▁Paro	-11.4171
▁Cups	-11.4176
▁shifts	-11.4197
▁Bush	-11.4208
AF	-11.4213
▁oral	-11.4216
▁Labs	-11.4217
sai	-11.4218
▁goats	-11.422
▁Seed	-11.422
▁routes	-11.4223
▁Dhala	-11.4227
▁Anup	-11.423
▁watching	-11.4234
▁Heart	-11.4239
▁Ang	-11.4243
▁patterns	-11.425
▁Mati	-11.4255
pada	-11.426
▁Turks	-11.4261
77	-11.4263
▁Drive	-11.4265
▁atoms	-11.4267
ica	-11.4274
▁bunkers	-11.4276
over	-11.4282
▁significantly	-11.4288
▁oversee	-11.4293
▁heated	-11.4294
ye	-11.4294
▁spreads	-11.4295
▁Cu	-11.4296
▁121	-11.4297
▁Wall	-11.4305
▁Ud	-11.4305
hana	-11.4307
bak	-11.4309
▁Rupa	-11.431
ore	-11.4314
▁128	-11.4314
▁Dhar	-11.4319
▁repair	-11.4343
▁harm	-11.4351
▁Tera	-11.4353
cho	-11.4353
▁Run	-11.4353
ssistant	-11.4363
than	-11.4364
▁Mau	-11.4373
▁constellation	-11.4374
▁fence	-11.4376
▁Byzantines	-11.4376
▁attempts	-11.4376
bove	-11.4378
▁publishe	-11.4379
▁font	-11.4379
▁choose	-11.4379
▁jungle	-11.4381
▁Santal	-11.4381
▁wire	-11.4383
▁wrestler	-11.4383
▁Picture	-11.4384
▁stamp	-11.4385
▁breast	-11.4385
▁pattern	-11.4385
▁gland	-11.4385
▁chromosome	-11.4387
▁demon	-11.4393
▁Ag	-11.4393
▁reservoirs	-11.4396
▁spinner	-11.4404
85	-11.4405
31	-11.4421
▁destinations	-11.4423
idi	-11.4424
▁Ze	-11.4425
▁Say	-11.4426
ati	-11.4441
▁onion	-11.4441
▁291	-11.4443
▁distances	-11.4445
▁Barind	-11.4451
agonal	-11.4452
pper	-11.446
▁Ata	-11.4461
term	-11.4464
▁hang	-11.447
water	-11.4473
▁Romans	-11.4474
▁Kham	-11.4474
ella	-11.4474
ities	-11.4478
life	-11.4478
four	-11.4478
lived	-11.4479
south	-11.4479
▁camps	-11.448
▁450	-11.4481
▁dances	-11.4487
▁aspect	-11.4494
▁118	-11.4498
▁lift	-11.4503
▁acclaim	-11.4503
▁mantras	-11.4504
chala	-11.4508
▁singers	-11.4509
rank	-11.4513
▁horizontal	-11.4517
▁Local	-11.4517
▁fill	-11.4519
▁Fall	-11.4521
▁SI	-11.4528
▁experimental	-11.4528
▁thoughts	-11.453
▁Studi	-11.453
▁Found	-11.4531
▁Hamilton	-11.4536
▁orphan	-11.4536
rdoba	-11.4537
Fitr	-11.4537
▁Ayesha	-11.4537
▁Bhagalpur	-11.4537
▁Bhishma	-11.4537
▁Bieber	-11.4537
▁Chromosome	-11.4537
▁Craig	-11.4537
▁Cyprus	-11.4537
▁Dibrugarh	-11.4537
▁Expansion	-11.4537
▁Indigenous	-11.4537
▁Laboratory	-11.4537
▁Lucknow	-11.4537
▁Masjid	-11.4537
▁Mexican	-11.4537
▁Michigan	-11.4537
▁Shawkat	-11.4537
▁Sophia	-11.4537
▁Varanasi	-11.4537
▁austerities	-11.4537
▁dominance	-11.4537
▁fauna	-11.4537
▁landlord	-11.4537
▁narrative	-11.4537
▁noteworthy	-11.4537
▁radius	-11.4537
▁verdict	-11.4537
▁Deccan	-11.4537
▁Gabriel	-11.4537
▁Junction	-11.4537
▁spectacular	-11.4537
▁Bachchan	-11.4537
▁leather	-11.4537
▁Castle	-11.4537
▁Madaripur	-11.4537
▁Otherwise	-11.4537
▁suprem	-11.4537
▁Complex	-11.4537
▁Fight	-11.4537
▁Plateau	-11.4537
▁Kelly	-11.4537
▁Control	-11.4537
▁Democratic	-11.4537
▁heavily	-11.4537
▁quiet	-11.4537
▁gravitation	-11.4537
▁Yadav	-11.4537
▁Dharmapala	-11.4537
▁Standard	-11.4537
▁Creator	-11.4537
▁knot	-11.4537
▁conservation	-11.4537
▁2001-2011	-11.4537
▁anime	-11.4537
▁Rakhine	-11.4537
▁Space	-11.4537
▁Buck	-11.4537
▁Sabina	-11.4537
▁oppression	-11.4537
▁Munich	-11.4537
vin	-11.4537
▁Authority	-11.4537
▁dries	-11.4537
▁Saladin	-11.4538
▁relief	-11.4538
▁Zaman	-11.4538
▁dams	-11.4538
▁Everest	-11.4538
▁bitter	-11.4538
▁Morocco	-11.4538
▁fond	-11.4538
▁Receiv	-11.4538
▁Stay	-11.4538
▁blooms	-11.4538
▁invention	-11.4538
▁Bhagirathi	-11.4538
▁Basudev	-11.4538
▁Chamber	-11.4538
▁Commerce	-11.4538
▁domesticated	-11.4538
▁Manikganj	-11.4538
▁Much	-11.4539
▁Alipore	-11.4539
▁Petra	-11.4539
▁Hasina	-11.4539
▁Ganapati	-11.4539
▁1886	-11.4539
▁IPL	-11.4539
▁vice	-11.4539
dh	-11.454
▁IBM	-11.454
▁Rajini	-11.454
▁1874	-11.4541
▁grand	-11.4541
▁astronomy	-11.4542
▁Nice	-11.4542
▁Show	-11.4542
▁coating	-11.4544
▁dominated	-11.4544
taker	-11.4545
▁Border	-11.4545
▁Eden	-11.4545
▁Bakul	-11.4545
▁Haram	-11.4547
▁distributed	-11.4548
▁editorial	-11.4549
▁folded	-11.455
87	-11.455
par	-11.4551
▁Badal	-11.4552
▁Fazil	-11.4553
▁Lucas	-11.4554
▁yelling	-11.4554
▁Wazir	-11.4554
▁amateur	-11.4555
▁Minor	-11.4556
thi	-11.4556
▁spelling	-11.4556
▁Shakta	-11.4556
▁coaches	-11.4559
▁commercials	-11.4563
▁striker	-11.4564
▁MD	-11.4564
▁millimeters	-11.4568
▁lifted	-11.4571
▁polar	-11.4572
▁Baku	-11.4573
▁bighas	-11.4575
▁strictly	-11.4576
▁Nara	-11.4578
▁Ana	-11.458
▁resembl	-11.4581
▁blessings	-11.4581
sis	-11.4584
▁Malta	-11.4585
▁Megh	-11.4586
▁bathing	-11.4588
tal	-11.4592
▁Jar	-11.4593
▁Khalil	-11.4595
▁Bihari	-11.4597
▁genres	-11.4599
▁believ	-11.4603
▁marketed	-11.4603
▁Lamb	-11.4612
▁stronger	-11.4616
▁lid	-11.4617
▁sculptures	-11.4621
▁270	-11.4636
▁hairy	-11.4639
▁176	-11.4645
▁Shanti	-11.4648
▁256	-11.4652
▁Ghoshal	-11.4656
fu	-11.4661
▁Ex	-11.4663
▁Jamil	-11.4664
▁hurts	-11.4671
▁athletes	-11.4671
▁Dance	-11.4681
▁Fi	-11.4687
ghata	-11.4689
▁demons	-11.4692
▁informed	-11.4697
▁Ri	-11.4704
▁directing	-11.4705
▁Vita	-11.4708
▁Priya	-11.4708
din	-11.471
▁Kana	-11.4715
▁mechanics	-11.4717
▁Chen	-11.4721
zi	-11.4736
▁Ul	-11.4738
▁Bee	-11.474
▁alike	-11.4742
▁chickens	-11.4747
▁Jose	-11.4754
▁transmitt	-11.4757
▁Vi	-11.4757
▁closely	-11.4763
▁Rah	-11.4769
▁Bharati	-11.4771
▁camel	-11.4775
32	-11.4778
uel	-11.4786
gon	-11.4786
▁discuss	-11.4789
▁crystal	-11.4791
▁Lakshman	-11.4799
▁Khu	-11.48
▁convert	-11.4801
▁fund	-11.4803
ui	-11.4804
▁Fu	-11.4804
Sc	-11.4809
21	-11.4817
▁bazaars	-11.4824
▁certificate	-11.4829
▁Common	-11.483
▁eclipse	-11.4832
▁Natya	-11.4833
▁clan	-11.4834
▁helicopter	-11.4834
▁reward	-11.4834
▁Seljuk	-11.4835
▁plot	-11.4836
▁disaster	-11.4837
▁spider	-11.4838
▁shrub	-11.484
▁lamp	-11.484
▁pirate	-11.484
▁stalk	-11.4841
von	-11.4841
▁1860	-11.4846
▁chamber	-11.4848
gh	-11.4853
▁metals	-11.4855
▁Color	-11.4856
▁myths	-11.4873
▁Malla	-11.4878
▁Cooper	-11.4896
▁circles	-11.4898
▁bite	-11.4899
▁Non	-11.4902
▁Er	-11.4904
▁channels	-11.4904
▁produces	-11.4916
tta	-11.4918
▁scream	-11.4921
inous	-11.493
claimed	-11.4932
wood	-11.4941
bal	-11.4941
kin	-11.4942
▁visual	-11.4945
▁209	-11.4947
inch	-11.4949
▁124	-11.4957
▁beak	-11.4965
▁occupie	-11.4969
▁quick	-11.4972
▁rapid	-11.4972
▁rape	-11.4975
and	-11.4976
▁quit	-11.4981
▁Taif	-11.4981
▁moral	-11.4982
▁venom	-11.4983
▁Pandu	-11.4985
▁Command	-11.4985
▁Produc	-11.4986
▁caus	-11.4986
oid	-11.4986
▁inaugura	-11.4988
welve	-11.499
▁immortal	-11.4991
▁oct	-11.4991
▁Absolute	-11.4991
▁Adelaide	-11.4991
▁Aniruddha	-11.4991
▁Archeology	-11.4991
▁Bhushan	-11.4991
▁Built	-11.4991
▁Chowrangi	-11.4991
▁Depend	-11.4991
▁Dravid	-11.4991
▁Eidgah	-11.4991
▁Estimates	-11.4991
▁IUCN	-11.4991
▁Jorasanko	-11.4991
▁Keep	-11.4991
▁Lebanon	-11.4991
▁Netrokona	-11.4991
▁Nicaragua	-11.4991
▁Nicholas	-11.4991
▁Nymphalidae	-11.4991
▁Pennsylvania	-11.4991
▁Rokeya	-11.4991
▁Snape	-11.4991
▁Ukraine	-11.4991
▁Voldemort	-11.4991
▁applies	-11.4991
▁cheese	-11.4991
▁dictionary	-11.4991
▁geometry	-11.4991
▁http	-11.4991
▁lieutenant	-11.4991
▁navigab	-11.4991
▁premiere	-11.4991
▁pyramid	-11.4991
▁slip	-11.4991
▁thief	-11.4991
▁trench	-11.4991
▁Croatia	-11.4991
▁Hampshire	-11.4991
▁Motijheel	-11.4991
▁amazing	-11.4991
▁spiral	-11.4991
▁funeral	-11.4991
▁facility	-11.4991
▁Characteristic	-11.4991
▁galaxy	-11.4991
▁Diamond	-11.4991
▁crash	-11.4991
▁Coconut	-11.4991
▁radioactive	-11.4991
▁Collegiate	-11.4991
▁Tirtha	-11.4991
▁transformation	-11.4991
▁inauguration	-11.4992
▁Arafat	-11.4992
▁midnight	-11.4992
▁Parvez	-11.4992
▁dormitories	-11.4992
▁Hamburg	-11.4992
▁Purnia	-11.4992
▁Spring	-11.4992
▁Potter	-11.4992
▁Nicobar	-11.4992
▁Ajay	-11.4992
▁Hemchandra	-11.4992
▁Jammu	-11.4992
▁Yajurveda	-11.4992
▁geometric	-11.4992
▁unusual	-11.4992
▁Francisco	-11.4992
▁feat	-11.4992
▁Gallery	-11.4992
▁proud	-11.4992
▁Shuja	-11.4992
▁Clive	-11.4992
▁Thakurgaon	-11.4992
▁Shillong	-11.4992
▁quantity	-11.4992
▁personalities	-11.4992
▁divine	-11.4992
▁tension	-11.4992
▁1867	-11.4992
▁overnight	-11.4993
▁simply	-11.4993
▁Fox	-11.4993
▁keyboard	-11.4993
▁Sharafi	-11.4993
▁Scientist	-11.4993
▁Columbia	-11.4993
▁Antarctica	-11.4993
▁Crown	-11.4993
▁dragon	-11.4993
▁Gopalganj	-11.4993
▁obey	-11.4993
▁cosm	-11.4993
▁Kavya	-11.4994
▁Banani	-11.4994
▁volcanoes	-11.4994
▁wrapped	-11.4994
▁generous	-11.4994
fan	-11.4994
▁biodiversity	-11.4994
▁intensified	-11.4994
▁Horse	-11.4994
▁Princeton	-11.4994
▁Biman	-11.4994
▁1864	-11.4994
▁1862	-11.4994
▁pious	-11.4995
▁1875	-11.4995
▁rubber	-11.4995
▁Qin	-11.4996
▁Bhai	-11.4996
▁gauge	-11.4996
▁microorganisms	-11.4996
▁Jamalpur	-11.4996
▁Professional	-11.4996
▁feudal	-11.4998
▁lungi	-11.4998
election	-11.4999
▁dock	-11.4999
▁Independent	-11.4999
▁Mobile	-11.5
▁allied	-11.5002
▁boiled	-11.5002
▁tier	-11.5002
▁spirit	-11.5003
▁excavated	-11.5003
▁portrayed	-11.5003
▁Campus	-11.5004
▁accurate	-11.5005
▁fallen	-11.5005
▁propagated	-11.5006
▁inherited	-11.5006
▁Samad	-11.5007
▁ongoing	-11.5009
▁preached	-11.501
▁Zulu	-11.5011
▁Tai	-11.5011
▁distinguished	-11.5013
▁actresses	-11.5015
▁Kin	-11.5015
▁artistic	-11.5015
verge	-11.5016
▁garner	-11.5016
▁Harishchandra	-11.5019
▁Row	-11.5019
▁tend	-11.502
▁Willis	-11.5024
▁eyebrows	-11.5024
▁mg	-11.5024
▁Rambo	-11.5024
stablishment	-11.5025
▁Link	-11.5027
▁repaired	-11.5028
ria	-11.5029
giri	-11.503
if	-11.5032
▁Coal	-11.5038
▁handicrafts	-11.5038
▁Sindh	-11.5042
▁Tourists	-11.5045
41	-11.5052
chhara	-11.5056
rt	-11.5057
▁panchayats	-11.506
▁veins	-11.506
▁Saleh	-11.5061
▁Nayan	-11.5062
▁lowlands	-11.5067
▁Lips	-11.5077
▁Palm	-11.5079
▁movements	-11.5085
▁donations	-11.5088
wara	-11.509
▁cube	-11.5091
ey	-11.5093
▁euros	-11.5096
nar	-11.5116
44	-11.512
▁Sana	-11.512
▁123	-11.5124
▁143	-11.5125
pen	-11.5127
pari	-11.5129
▁Abi	-11.513
bin	-11.5138
▁550	-11.5157
▁Add	-11.5159
eng	-11.5161
▁airports	-11.5161
▁Om	-11.5167
▁Arif	-11.5172
▁legends	-11.5173
eri	-11.5174
▁ghosts	-11.5175
nam	-11.5177
▁Nas	-11.5181
▁Munda	-11.5186
▁Liv	-11.519
▁ranges	-11.5194
▁Alli	-11.5196
▁peasants	-11.5197
▁organs	-11.5197
▁transported	-11.5198
▁Rab	-11.5211
▁finals	-11.5216
▁frogs	-11.5219
▁restaurants	-11.5219
▁Mina	-11.5221
▁Zin	-11.5222
▁Fo	-11.5228
dom	-11.5228
▁Ful	-11.5229
▁Deul	-11.5232
oni	-11.5233
sk	-11.5245
▁sacrifices	-11.5251
▁formulas	-11.5255
▁eighty	-11.5258
anya	-11.5261
▁Kara	-11.5263
lah	-11.5265
ier	-11.5267
▁Bhat	-11.5272
▁grant	-11.5274
▁Hal	-11.5275
▁actions	-11.5275
ification	-11.5291
▁plate	-11.5291
66	-11.5295
▁Asha	-11.5298
▁dialogues	-11.5299
▁mortar	-11.5305
▁Isha	-11.5307
▁cyclone	-11.5312
▁fountain	-11.5312
▁sponsor	-11.5313
▁rebel	-11.5313
rai	-11.5314
▁hostel	-11.5314
▁civilian	-11.5316
▁reference	-11.5316
▁characteristic	-11.5319
▁electronic	-11.5319
▁faction	-11.5321
ography	-11.5321
▁Ac	-11.533
▁CH	-11.5331
▁Ju	-11.5335
▁feelings	-11.5336
her	-11.5337
▁appears	-11.5337
▁ab	-11.5342
▁Dutta	-11.5345
▁Rais	-11.5346
▁Panche	-11.5349
▁Others	-11.5357
prasad	-11.5358
kra	-11.5358
▁continents	-11.5366
elling	-11.5372
dhara	-11.5375
▁beds	-11.5382
yu	-11.5383
▁Chad	-11.5384
▁provid	-11.5394
ayan	-11.5399
town	-11.5401
Z	-11.5408
peace	-11.5408
scale	-11.5409
▁Lalit	-11.5409
captain	-11.5409
hin	-11.5411
▁print	-11.5413
▁Tap	-11.5414
▁priests	-11.5418
▁oppos	-11.5418
▁Bad	-11.5432
▁sail	-11.5432
▁gates	-11.5433
▁fulfill	-11.5433
▁Lan	-11.5434
▁highlight	-11.5439
▁pots	-11.544
domed	-11.5442
▁ray	-11.5444
▁balance	-11.5445
▁Sahara	-11.5449
▁steam	-11.5453
▁arous	-11.5459
▁fo	-11.546
07	-11.546
▁Umm	-11.5461
▁Phul	-11.5462
▁Walk	-11.5462
▁preserve	-11.5464
▁Abraham	-11.5465
▁volcano	-11.5465
▁Muzaffar	-11.5465
▁quant	-11.5467
▁secular	-11.5467
▁greet	-11.5467
▁forgot	-11.5467
▁Qutb	-11.5467
▁Point	-11.5468
▁AIDS	-11.5468
▁Aparna	-11.5468
▁Asansol	-11.5468
▁Brisbane	-11.5468
▁Budapest	-11.5468
▁Cameroon	-11.5468
▁Falgun	-11.5468
▁Ghazni	-11.5468
▁Ghulam	-11.5468
▁Hebrew	-11.5468
▁Ikhwan	-11.5468
▁Manhattan	-11.5468
▁Principal	-11.5468
▁Uloom	-11.5468
▁Valencia	-11.5468
▁cavalry	-11.5468
▁congregation	-11.5468
▁convex	-11.5468
▁corridor	-11.5468
▁enemies	-11.5468
▁frozen	-11.5468
▁jurisdiction	-11.5468
▁mirror	-11.5468
▁preparing	-11.5468
▁retiring	-11.5468
▁romance	-11.5468
▁secure	-11.5468
▁sensitive	-11.5468
▁submerged	-11.5468
▁Shabnur	-11.5468
▁Unicode	-11.5468
▁adorned	-11.5468
▁allotted	-11.5468
▁Feather	-11.5468
▁Trump	-11.5468
▁mandate	-11.5468
▁nitrogen	-11.5468
▁Fatikchhari	-11.5468
▁Sikder	-11.5468
▁sensor	-11.5468
▁jackfruit	-11.5468
▁Birbhum	-11.5468
▁Stalin	-11.5468
▁Design	-11.5468
▁Disney	-11.5468
▁Beatles	-11.5468
▁Satyagraha	-11.5468
▁repos	-11.5468
▁telephone	-11.5468
▁Aaron	-11.5468
▁Mumtaz	-11.5468
▁fortune	-11.5468
▁Return	-11.5468
▁Ambika	-11.5468
▁rotation	-11.5468
▁scope	-11.5468
▁Zero	-11.5468
▁wake	-11.5468
▁Michelle	-11.5468
▁Sulaiman	-11.5468
▁elevated	-11.5468
▁Swadeshi	-11.5468
▁biology	-11.5468
▁gay	-11.5468
▁Animal	-11.5468
▁predominant	-11.5468
▁Laxmipur	-11.5468
▁RNA	-11.5468
▁index	-11.5468
▁Ananta	-11.5469
▁Shahidullah	-11.5469
▁astrology	-11.5469
▁conch	-11.5469
▁Mujibnagar	-11.5469
▁Labor	-11.5469
▁Suresh	-11.5469
▁communal	-11.5469
▁Koshi	-11.5469
▁Christopher	-11.5469
▁painful	-11.5469
▁Ramchandra	-11.547
▁progressive	-11.547
▁Danish	-11.547
▁1842	-11.5471
▁Grass	-11.5471
▁Doha	-11.5471
▁disk	-11.5471
▁Moses	-11.5471
▁guardian	-11.5471
ehind	-11.5472
▁evolved	-11.5472
▁Speaker	-11.5472
▁1850	-11.5472
▁dull	-11.5472
▁nomad	-11.5472
▁exports	-11.5472
▁justice	-11.5473
▁Ahmedabad	-11.5473
▁hereditar	-11.5473
▁respective	-11.5474
▁Savar	-11.5474
▁dramatic	-11.5475
▁ousted	-11.5475
▁Kalyani	-11.5475
danga	-11.5475
▁1830	-11.5476
▁assassinated	-11.5477
▁Warner	-11.5477
▁psychology	-11.5478
▁triple	-11.5478
▁Haq	-11.5479
▁Matin	-11.548
▁Rajya	-11.548
▁Jane	-11.5484
▁Tam	-11.5484
▁Atrai	-11.5485
▁planting	-11.5486
▁Chal	-11.5486
▁Stand	-11.5486
▁Austrian	-11.5488
▁thus	-11.5489
▁Hemant	-11.5489
▁shouting	-11.5491
▁stead	-11.5493
rom	-11.5498
▁Il	-11.55
▁Range	-11.5502
▁Franco	-11.5508
▁grasslands	-11.5509
▁Basra	-11.5509
▁divid	-11.5514
▁162	-11.5514
▁fasting	-11.5517
▁worse	-11.5522
▁pants	-11.5522
▁Bani	-11.5522
▁Turing	-11.553
▁Muni	-11.5531
gal	-11.5532
▁Anjan	-11.5543
table	-11.5548
▁Farid	-11.555
addar	-11.5551
▁retreating	-11.5551
61	-11.5553
▁Bayaz	-11.5554
▁Ghana	-11.5554
98	-11.5557
▁respects	-11.5557
▁valleys	-11.556
chia	-11.5566
chu	-11.5566
nia	-11.5569
▁muscles	-11.5569
▁fossils	-11.5571
▁Bhang	-11.5578
akshi	-11.5585
▁recording	-11.5587
▁Ghar	-11.559
▁Release	-11.5595
▁Emirates	-11.56
uti	-11.56
▁Raman	-11.5602
▁Jacob	-11.5605
▁bloody	-11.5611
ris	-11.5614
▁Munir	-11.5629
dai	-11.5631
▁Penn	-11.5632
▁Lang	-11.5634
▁Pictures	-11.5638
▁internationals	-11.5639
▁ta	-11.5642
ions	-11.5644
berry	-11.5646
▁Faha	-11.5648
▁Min	-11.5651
▁vows	-11.5653
▁Base	-11.5653
▁Kot	-11.5658
aki	-11.5674
▁components	-11.5676
▁Hand	-11.5678
▁backs	-11.568
▁temperatures	-11.5684
▁Gol	-11.5685
bel	-11.5691
▁Ford	-11.5695
car	-11.5696
▁Shu	-11.5706
▁Shir	-11.5708
▁ho	-11.5712
71	-11.5715
▁museums	-11.5722
▁equi	-11.5737
eta	-11.5748
▁united	-11.5755
▁tides	-11.5758
96	-11.576
▁Anti	-11.5762
ator	-11.5766
ool	-11.5771
▁sp	-11.5778
▁Indians	-11.5793
▁dialects	-11.5793
▁emotion	-11.5793
▁decrease	-11.5795
irhat	-11.5797
▁experiment	-11.5797
▁demands	-11.5799
▁Operation	-11.5805
▁Patal	-11.5806
ctivities	-11.5806
▁Palestinian	-11.5807
▁jaw	-11.5807
▁Mao	-11.5808
▁nurse	-11.5808
▁supplie	-11.5809
▁sphere	-11.5809
▁swimmer	-11.581
Neil	-11.5812
▁colleague	-11.5815
▁athlete	-11.5815
▁hurt	-11.5815
▁ritual	-11.5816
▁yard	-11.5817
▁Serie	-11.5817
▁pile	-11.5819
▁shoulders	-11.5821
▁Kul	-11.5825
▁116	-11.5834
res	-11.5838
▁orbits	-11.5846
▁Chhota	-11.5848
▁presenter	-11.5857
tul	-11.5863
▁Pati	-11.5866
▁occasions	-11.5867
▁app	-11.5867
▁sounds	-11.5874
▁Naga	-11.5874
aba	-11.5875
▁sticks	-11.5877
bir	-11.5878
▁Dale	-11.5879
▁297	-11.5883
▁Nawabs	-11.5883
▁pray	-11.5887
▁poison	-11.5888
▁agent	-11.5892
stand	-11.5892
▁Lenin	-11.5899
▁Deo	-11.59
▁Gai	-11.5904
▁discover	-11.5905
view	-11.5907
▁Mut	-11.5908
August	-11.5909
ix	-11.5913
mond	-11.5914
established	-11.5915
▁towers	-11.5916
▁reports	-11.5916
party	-11.5923
▁gifts	-11.5924
ker	-11.5933
ode	-11.5934
nate	-11.5937
▁hits	-11.5941
▁rains	-11.5942
charya	-11.5951
moy	-11.5952
rani	-11.5955
nfluence	-11.5956
▁fielder	-11.5959
▁Ansar	-11.5962
▁translate	-11.5963
▁Dada	-11.5963
dwip	-11.5965
▁brutal	-11.5967
▁valid	-11.5967
▁Murshid	-11.5967
▁Afzal	-11.5968
cultivable	-11.5968
evident	-11.5968
▁Bachelor	-11.5968
▁Chattopadhyay	-11.5968
▁Commercial	-11.5968
▁Dispute	-11.5968
▁Excess	-11.5968
▁Galileo	-11.5968
▁Jyotirlinga	-11.5968
▁Margaret	-11.5968
▁Ordinary	-11.5968
▁Raushan	-11.5968
▁Renaissance	-11.5968
▁Scientific	-11.5968
▁Stockholm	-11.5968
▁Vitamin	-11.5968
▁Yazid	-11.5968
▁allocated	-11.5968
▁aristocracy	-11.5968
▁autonomy	-11.5968
▁cuisine	-11.5968
▁graduating	-11.5968
▁hobby	-11.5968
▁hormone	-11.5968
▁intercourse	-11.5968
▁levied	-11.5968
▁magistrate	-11.5968
▁naughty	-11.5968
▁phrase	-11.5968
▁puppet	-11.5968
▁recession	-11.5968
▁signature	-11.5968
▁staircase	-11.5968
▁swollen	-11.5968
▁telefilm	-11.5968
▁thirst	-11.5968
▁uncertain	-11.5968
▁unequal	-11.5968
▁vermilion	-11.5968
▁Brigade	-11.5968
▁Degree	-11.5968
▁Imperial	-11.5968
▁Lahiri	-11.5968
▁Lohagar	-11.5968
▁Meghalaya	-11.5968
▁Zhao	-11.5968
▁auction	-11.5968
▁flattened	-11.5968
▁Matthew	-11.5968
▁Wellington	-11.5968
▁granite	-11.5968
▁Columbus	-11.5968
▁brass	-11.5968
▁Ivy	-11.5968
▁Euler	-11.5968
▁emergence	-11.5968
▁epidemic	-11.5968
▁Chittaranj	-11.5968
▁Dublin	-11.5968
▁Boeing	-11.5968
▁Mazhar	-11.5968
▁Kandahar	-11.5968
▁Shivsagar	-11.5968
▁Kurdish	-11.5968
▁sovereignty	-11.5968
▁lamb	-11.5968
▁exterior	-11.5968
▁Jerry	-11.5968
▁Dubai	-11.5968
▁stress	-11.5968
▁Tantric	-11.5968
▁Mohsin	-11.5968
▁Opera	-11.5968
▁curry	-11.5968
▁Jalalabad	-11.5968
▁Mollah	-11.5968
▁Round	-11.5968
▁BSD	-11.5969
▁humidity	-11.5969
▁Sinhala	-11.5969
▁patronage	-11.5969
▁Natak	-11.5969
▁pour	-11.5969
▁mustard	-11.5969
▁vibration	-11.5969
▁pop	-11.5969
▁penis	-11.5969
▁Tunisia	-11.5969
▁recaptured	-11.5969
▁affection	-11.597
▁Allahabad	-11.597
▁delta	-11.597
▁Karimganj	-11.597
▁1866	-11.597
▁Howard	-11.597
▁Barley	-11.597
▁remarkable	-11.5971
ged	-11.5971
▁Bhabani	-11.5971
▁clashes	-11.5971
▁Panama	-11.5972
▁Aditya	-11.5972
▁detained	-11.5972
▁hint	-11.5972
▁Sundari	-11.5972
▁DJ	-11.5973
▁economically	-11.5973
▁ISO	-11.5974
▁00	-11.5974
▁Pathan	-11.5975
17	-11.5975
▁Ratan	-11.5976
▁Dol	-11.5976
▁inserted	-11.5979
sagar	-11.5981
▁edible	-11.5982
▁morale	-11.5982
▁Kanchan	-11.5982
▁146	-11.5985
▁survival	-11.5985
▁adapted	-11.5986
▁stroke	-11.5988
▁blamed	-11.5989
▁survives	-11.599
▁homeland	-11.5991
▁Republican	-11.5993
▁Kubla	-11.5993
▁Gray	-11.5994
▁Amina	-11.5996
▁Sit	-11.5997
▁logical	-11.5999
star	-11.6001
▁Mehta	-11.6004
▁shared	-11.6006
▁manufactur	-11.6006
▁AR	-11.6009
▁Prakash	-11.6012
▁sa	-11.6014
▁Cheng	-11.6017
▁publications	-11.6018
▁facilitate	-11.6019
▁Nasim	-11.6024
▁extensively	-11.6024
▁lap	-11.6027
▁sour	-11.6027
▁customers	-11.6028
▁sings	-11.6029
thirds	-11.6034
tak	-11.6034
▁beans	-11.6035
▁clusters	-11.6035
▁boxer	-11.6035
act	-11.6038
▁exchanged	-11.6045
sco	-11.6048
▁beating	-11.605
▁contestants	-11.6051
▁invent	-11.6053
▁Tatar	-11.6056
▁Gab	-11.6056
unk	-11.6059
▁applications	-11.6059
▁quota	-11.6061
▁nations	-11.6063
▁symbolize	-11.6071
▁backward	-11.6073
▁experienced	-11.6078
ole	-11.6079
sta	-11.6082
▁sailors	-11.6083
▁Mas	-11.6083
▁thermal	-11.6083
▁refugees	-11.6084
▁Som	-11.609
▁creatures	-11.6091
▁nicknamed	-11.6093
ava	-11.6097
▁Disc	-11.61
▁Herz	-11.6101
▁sending	-11.6105
▁compositions	-11.6113
▁Cap	-11.6117
▁141	-11.6121
▁Barkat	-11.6121
▁Won	-11.6123
▁Kak	-11.6131
▁deadly	-11.6134
▁Nir	-11.6136
▁Set	-11.6142
▁stamps	-11.6146
▁Santals	-11.6147
tified	-11.6148
iti	-11.6155
▁Kusum	-11.6167
▁Aryans	-11.6171
▁beings	-11.6172
▁parks	-11.6181
▁bees	-11.6181
▁Pla	-11.6191
▁Pancha	-11.6192
▁Com	-11.6194
▁seal	-11.6196
▁Tell	-11.6197
▁suburbs	-11.6198
▁moves	-11.62
ahar	-11.6206
▁ties	-11.6208
▁165	-11.621
04	-11.6213
,600	-11.6216
▁activists	-11.6219
▁sc	-11.622
▁Shubh	-11.6229
▁Banga	-11.6235
▁excavations	-11.6235
▁landing	-11.6236
rah	-11.6242
▁Gil	-11.6245
ww	-11.6247
▁Mann	-11.625
▁Karan	-11.6258
▁Umayyads	-11.626
▁Armenians	-11.6268
▁dimension	-11.6276
▁Sak	-11.6278
▁AB	-11.6286
▁Reg	-11.6288
stra	-11.6289
▁beta	-11.629
▁Jah	-11.6291
▁mall	-11.6294
▁Jha	-11.6294
▁pull	-11.6301
▁295	-11.6301
▁Wei	-11.6303
hia	-11.6306
▁bases	-11.6306
▁Bhu	-11.6306
math	-11.6307
▁journal	-11.6321
tai	-11.6329
▁feminist	-11.6331
▁emirate	-11.6331
▁expression	-11.6333
▁tissue	-11.6333
▁umbrella	-11.6333
▁dinosaur	-11.6336
▁terrorist	-11.6336
▁Tree	-11.6338
▁ghazal	-11.6339
▁pistol	-11.6339
▁warrior	-11.634
▁drum	-11.6341
▁engines	-11.6341
▁Russians	-11.6341
▁merchant	-11.6342
▁obstacle	-11.6342
▁linguistic	-11.6346
49	-11.6347
▁nut	-11.635
book	-11.6354
▁waterway	-11.6357
▁Anu	-11.6367
▁144	-11.6373
tiny	-11.6377
▁shapes	-11.6387
▁Sab	-11.6388
▁Jav	-11.6394
▁122	-11.6397
▁Thi	-11.6401
rich	-11.6401
▁Kanan	-11.6404
▁umpires	-11.6415
▁processing	-11.6423
room	-11.6427
▁235	-11.6429
▁ul	-11.643
▁hadiths	-11.6432
▁shoot	-11.6433
▁Bet	-11.6433
Y	-11.6434
Aryan	-11.6434
piece	-11.6435
April	-11.6435
covered	-11.644
▁Dai	-11.6447
▁ha	-11.6454
▁Hats	-11.6456
▁implement	-11.646
zan	-11.6463
▁logic	-11.6463
▁Gana	-11.6468
▁anchor	-11.647
▁Nor	-11.647
▁Bil	-11.6471
▁nice	-11.6473
▁instant	-11.6473
▁admir	-11.6473
▁Subsequent	-11.6473
▁luck	-11.6475
▁antiquit	-11.6477
▁196	-11.6478
▁torn	-11.648
▁prestig	-11.648
▁autobiograph	-11.6481
▁Daniel	-11.6484
form	-11.6484
▁Industrial	-11.6484
▁Ferdous	-11.6485
▁Lithuania	-11.6485
▁Albania	-11.6486
ano	-11.6486
▁Kalyan	-11.6487
▁Gur	-11.6488
▁li	-11.6488
▁treasure	-11.6489
▁advise	-11.6489
▁Manipur	-11.649
head	-11.6492
▁dictator	-11.6492
▁Abhishek	-11.6493
bhadra	-11.6493
▁replica	-11.6494
▁Agartala	-11.6494
▁Bhowmik	-11.6494
▁Chopra	-11.6494
▁Cuttack	-11.6494
▁Dattatreya	-11.6494
▁Detroit	-11.6494
▁Formula	-11.6494
▁Gazette	-11.6494
▁Mahfuz	-11.6494
▁Majnu	-11.6494
▁Malayalam	-11.6494
▁NASA	-11.6494
▁Norwegian	-11.6494
▁Nowadays	-11.6494
▁Pirojpur	-11.6494
▁Soundtrack	-11.6494
▁Statistics	-11.6494
▁Swimm	-11.6494
▁Trinity	-11.6494
▁Tripitaka	-11.6494
▁Ukhia	-11.6494
▁Uruguay	-11.6494
▁Vrindavan	-11.6494
▁alpha	-11.6494
▁approval	-11.6494
▁crescent	-11.6494
▁crooked	-11.6494
▁crushed	-11.6494
▁essence	-11.6494
▁estuary	-11.6494
▁geography	-11.6494
▁glory	-11.6494
▁guava	-11.6494
▁jetties	-11.6494
▁metaphor	-11.6494
▁migration	-11.6494
▁muslin	-11.6494
▁omitted	-11.6494
▁rainbow	-11.6494
▁reliable	-11.6494
▁reproductive	-11.6494
▁Abhimanyu	-11.6494
▁Buriganga	-11.6494
▁Historian	-11.6494
▁Jawahar	-11.6494
▁Rakib	-11.6494
▁BRAC	-11.6494
▁Nottinghamshire	-11.6494
▁Resident	-11.6494
▁Theravada	-11.6494
▁trace	-11.6494
▁piano	-11.6494
▁vogue	-11.6494
▁Achievement	-11.6494
▁Vigraha	-11.6494
▁dioxide	-11.6494
▁Gordon	-11.6494
▁Kutub	-11.6494
▁Sudhir	-11.6494
▁Rotten	-11.6494
▁devout	-11.6494
▁meritorious	-11.6494
▁pride	-11.6494
▁ovate	-11.6494
▁monast	-11.6494
▁Shibganj	-11.6494
▁Deoghar	-11.6494
▁decreasing	-11.6494
▁racing	-11.6494
▁Khalifa	-11.6494
▁celebration	-11.6494
▁Murray	-11.6494
▁Sanhita	-11.6494
▁inevitable	-11.6494
▁perennial	-11.6494
▁forcibl	-11.6494
▁Jayamati	-11.6494
▁sediment	-11.6494
▁matrix	-11.6494
▁surgery	-11.6494
▁Bruce	-11.6494
▁Bholahat	-11.6494
▁Saint	-11.6494
▁audition	-11.6494
▁Chuck	-11.6494
▁colonies	-11.6494
▁Everybody	-11.6494
▁reception	-11.6494
▁Ishwardi	-11.6494
▁fancy	-11.6494
▁Hijli	-11.6494
▁Subarna	-11.6494
▁Brief	-11.6495
▁Hawaii	-11.6495
▁Mishra	-11.6495
▁Virginia	-11.6495
▁chase	-11.6495
▁Celtic	-11.6495
▁wool	-11.6495
▁vine	-11.6495
▁Smriti	-11.6495
▁innocent	-11.6495
▁identification	-11.6495
▁dramatically	-11.6495
▁Gaza	-11.6495
▁governance	-11.6495
▁Ladakh	-11.6495
▁Abedin	-11.6495
▁Marxism	-11.6495
▁invisible	-11.6495
▁Venus	-11.6495
▁1853	-11.6495
▁CEO	-11.6495
▁handsome	-11.6495
▁wicketkeeper	-11.6495
▁Somewhere	-11.6495
▁Watt	-11.6496
▁Nobody	-11.6496
▁blockade	-11.6496
▁barley	-11.6496
▁Media	-11.6496
▁besieged	-11.6497
▁1854	-11.6497
▁distinction	-11.6497
▁Alliance	-11.6497
▁Shashi	-11.6497
▁Basic	-11.6497
▁1873	-11.6497
▁deck	-11.6498
▁deny	-11.6498
▁Sadat	-11.6498
▁Nagaon	-11.6498
▁mild	-11.6498
▁1841	-11.6498
▁Leeds	-11.6498
▁encyclopedia	-11.6498
▁Sangu	-11.6499
▁Joshi	-11.6499
▁1872	-11.6499
▁Eleven	-11.6499
▁slavery	-11.6499
▁Money	-11.6499
▁Charyapada	-11.6499
▁Sicily	-11.65
▁Sexual	-11.65
▁1818	-11.65
▁1819	-11.65
▁Gaan	-11.6501
▁200,000	-11.6501
▁overcome	-11.6502
▁melting	-11.6503
▁Durham	-11.6503
▁Amman	-11.6504
▁acquire	-11.6504
▁butter	-11.6504
▁meanings	-11.6505
▁oxide	-11.6506
▁Riya	-11.6506
▁washed	-11.6507
imated	-11.6507
▁blast	-11.6509
▁bold	-11.6509
▁welcomed	-11.6509
▁autobiography	-11.6511
▁soak	-11.6511
▁Alexandria	-11.6511
▁Chhatna	-11.6513
▁sorted	-11.6513
▁Turn	-11.6514
▁mistaken	-11.6514
▁purchased	-11.6514
mari	-11.6516
▁Zoo	-11.6518
▁helium	-11.6519
▁translations	-11.6519
▁Naturally	-11.6521
▁delayed	-11.6521
▁12,000	-11.6524
▁semifinals	-11.6525
▁Noor	-11.6528
bade	-11.6529
▁deaths	-11.6532
▁149	-11.6534
▁deposit	-11.6536
▁Sino	-11.6536
▁reproduce	-11.6537
▁Shiites	-11.654
▁concentrate	-11.6543
▁Lot	-11.6544
band	-11.6548
▁cook	-11.655
▁sticky	-11.6554
▁Razakars	-11.6557
limina	-11.6561
▁powers	-11.6564
ites	-11.6567
▁portion	-11.6568
▁resisted	-11.6568
▁Santa	-11.6571
▁listening	-11.6572
▁Bagh	-11.6572
▁touched	-11.6575
six	-11.6579
▁Sex	-11.6579
ians	-11.658
bed	-11.6581
au	-11.6582
ade	-11.6584
▁Lily	-11.6589
▁Vas	-11.6589
▁Litera	-11.6589
▁models	-11.659
▁Mata	-11.6593
istan	-11.6594
▁Pramatha	-11.6599
TA	-11.6602
▁comet	-11.6605
▁Karl	-11.6607
▁ABC	-11.6609
structed	-11.661
▁protons	-11.6615
▁Dham	-11.6617
▁Make	-11.6617
23	-11.6618
▁maid	-11.662
▁habits	-11.6625
mal	-11.6627
row	-11.663
mel	-11.6631
▁cocoons	-11.6632
▁spending	-11.6633
▁climbing	-11.6637
▁mat	-11.6638
▁Sush	-11.6638
anagement	-11.6645
▁linguistics	-11.6649
▁colleagues	-11.6658
▁Anam	-11.6662
gas	-11.6678
▁Garo	-11.6684
▁139	-11.6685
▁Gauri	-11.6685
adar	-11.669
▁dal	-11.6691
▁none	-11.6693
▁thinker	-11.6696
▁rhymes	-11.6699
▁criminals	-11.67
▁rifles	-11.67
ius	-11.67
▁lovers	-11.6713
▁hymns	-11.6717
▁platforms	-11.6717
▁servants	-11.6717
▁jailed	-11.6719
paya	-11.6725
▁147	-11.6729
keeper	-11.6729
hata	-11.6734
▁drinks	-11.6736
▁broadcasts	-11.6736
▁slopes	-11.6743
▁Himu	-11.6749
dhi	-11.6753
▁raining	-11.6758
ranga	-11.676
uma	-11.6769
▁crores	-11.6771
▁Mira	-11.6776
bai	-11.6777
▁Die	-11.6787
▁waste	-11.6792
▁Kanai	-11.68
mon	-11.6811
▁pron	-11.6813
resh	-11.6813
ef	-11.6813
▁Tim	-11.6814
▁Upp	-11.6817
ware	-11.6819
86	-11.6824
▁Sw	-11.6824
▁Cinema	-11.6825
▁Pen	-11.6829
▁Gun	-11.6836
▁296	-11.6844
▁sectors	-11.6844
▁guns	-11.685
non	-11.6854
ition	-11.6856
▁remember	-11.6857
▁graves	-11.6864
68	-11.6866
▁prices	-11.6878
▁blow	-11.6883
▁containers	-11.6884
▁motor	-11.6889
▁Rajput	-11.6889
khana	-11.6889
▁telescope	-11.6889
▁Ada	-11.689
▁highways	-11.689
▁rickshaw	-11.6895
▁whale	-11.6896
▁Emirate	-11.6897
▁candidate	-11.6898
▁effort	-11.6899
don	-11.6905
chin	-11.691
iyat	-11.6913
▁advertisement	-11.6919
▁Cost	-11.6922
▁proteins	-11.6923
ane	-11.6925
▁doll	-11.6927
▁goat	-11.6928
▁302	-11.693
▁650	-11.6944
▁exceptions	-11.6954
▁Kota	-11.6955
▁recover	-11.6962
▁Eric	-11.6966
▁ministers	-11.6973
▁Ling	-11.6974
▁believer	-11.6982
▁connections	-11.6985
worth	-11.699
foot	-11.6991
centuries	-11.6991
sala	-11.6991
speed	-11.6992
founder	-11.6994
▁264	-11.6995
▁Author	-11.6995
▁Parashuram	-11.6997
xa	-11.6999
▁1200	-11.7
termediate	-11.7002
▁Books	-11.7002
▁Alim	-11.7004
nder	-11.7005
▁guests	-11.7009
▁rak	-11.7011
▁steal	-11.7012
▁Lab	-11.7012
cluded	-11.7012
▁quarrel	-11.7013
▁reflect	-11.7014
▁Than	-11.7019
▁cur	-11.7023
▁mature	-11.7025
▁spare	-11.7026
yl	-11.7026
tude	-11.7027
▁smile	-11.7027
▁flesh	-11.7033
▁Baby	-11.7036
▁Urban	-11.7039
▁Forces	-11.7043
▁Saad	-11.7043
▁react	-11.7043
▁Madhab	-11.7044
▁declare	-11.7044
krishna	-11.7046
▁Teach	-11.7047
▁Lind	-11.7048
▁Hum	-11.7048
▁circulat	-11.7048
uvenile	-11.7049
riticism	-11.7049
▁Hashem	-11.7049
mpression	-11.7049
▁Francis	-11.7049
tex	-11.7049
▁Anushilan	-11.7049
▁Avenue	-11.7049
▁Bolshevik	-11.7049
▁Canterbury	-11.7049
▁Chishti	-11.7049
▁Connecticut	-11.7049
▁Dhritarashtra	-11.7049
▁Footnote	-11.7049
▁Frederick	-11.7049
▁Harivansh	-11.7049
▁Madame	-11.7049
▁Mausumi	-11.7049
▁Muttalib	-11.7049
▁Passenger	-11.7049
▁Rousseau	-11.7049
▁Sahih	-11.7049
▁Salvador	-11.7049
▁Satyendranath	-11.7049
▁Sitakunda	-11.7049
▁Tollywood	-11.7049
▁Warwickshire	-11.7049
▁Wrestling	-11.7049
▁apparent	-11.7049
▁chutney	-11.7049
▁convicted	-11.7049
▁curriculum	-11.7049
▁dancing	-11.7049
▁delegation	-11.7049
▁dentist	-11.7049
▁drove	-11.7049
▁embassies	-11.7049
▁faculties	-11.7049
▁freight	-11.7049
▁galaxies	-11.7049
▁generosity	-11.7049
▁ghee	-11.7049
▁holiest	-11.7049
▁jeep	-11.7049
▁leisure	-11.7049
▁mausoleum	-11.7049
▁mercy	-11.7049
▁salinity	-11.7049
▁sensation	-11.7049
▁societies	-11.7049
▁unemployed	-11.7049
▁Prakrit	-11.7049
▁Protocol	-11.7049
▁Sajal	-11.7049
▁Uranus	-11.7049
▁comparative	-11.7049
▁garage	-11.7049
▁outskirts	-11.7049
▁accomplish	-11.7049
▁dynasties	-11.7049
▁Florida	-11.7049
▁Haddock	-11.7049
▁furniture	-11.7049
▁virtual	-11.7049
▁Navaratna	-11.705
▁hybrid	-11.705
▁sculptor	-11.705
▁Sonargaon	-11.705
▁Fatima	-11.705
▁pneumonia	-11.705
▁sulfur	-11.705
▁Bhasani	-11.705
▁fault	-11.705
▁Yajna	-11.705
▁stunned	-11.705
▁superpower	-11.705
▁Kanaighat	-11.705
▁comedian	-11.705
▁Aamir	-11.705
▁mustache	-11.705
▁Natalie	-11.705
▁static	-11.705
▁Vidyasagar	-11.705
▁omnivorous	-11.705
▁Donald	-11.705
▁chaos	-11.705
▁Udyan	-11.705
▁Axis	-11.705
▁captive	-11.705
▁massacre	-11.705
▁Madhumati	-11.705
▁potassium	-11.705
▁Zubin	-11.705
▁Enamul	-11.705
▁Ponting	-11.705
▁Bahrampur	-11.705
▁saline	-11.705
▁Duty	-11.705
▁Pratik	-11.705
onym	-11.705
▁Fiji	-11.705
▁alien	-11.705
▁Broad	-11.7051
▁deployed	-11.7051
▁Article	-11.7051
▁Technical	-11.7051
▁sunlight	-11.7051
▁intersection	-11.7051
▁milestone	-11.7051
▁Zakir	-11.7051
▁glucose	-11.7051
▁Market	-11.7051
▁tinge	-11.7051
▁convenient	-11.7051
▁Kedar	-11.7051
▁guitarist	-11.7051
▁Troy	-11.7051
▁almond	-11.7051
tinum	-11.7052
▁armies	-11.7052
▁mythical	-11.7052
▁enacted	-11.7052
▁1849	-11.7052
▁Jalil	-11.7053
▁Mantra	-11.7053
▁1855	-11.7053
▁Marxist	-11.7053
▁Workers	-11.7053
▁ashes	-11.7053
2,000	-11.7053
▁stolen	-11.7053
▁pornography	-11.7054
▁Marshall	-11.7054
▁prohibited	-11.7054
▁overwhelmed	-11.7054
▁1847	-11.7054
aunch	-11.7055
▁Modi	-11.7055
▁Abhay	-11.7055
▁usage	-11.7055
▁Paper	-11.7055
▁338	-11.7055
▁Discover	-11.7055
▁Tirthankara	-11.7056
▁1844	-11.7056
▁protection	-11.7056
▁1801	-11.7056
▁Hanifa	-11.7056
fulla	-11.7056
▁download	-11.7056
▁deprived	-11.7056
▁Kona	-11.7057
▁Barry	-11.7057
▁1816	-11.7057
▁Mesopotamian	-11.7057
▁FM	-11.7057
▁Morning	-11.7058
▁1837	-11.7058
▁Banana	-11.7058
▁toxic	-11.7058
▁oval	-11.7058
▁Shimul	-11.7059
▁Inc	-11.7059
▁Tipu	-11.7059
▁Desh	-11.7059
▁villain	-11.706
▁Jamie	-11.706
▁Polo	-11.706
▁Haripur	-11.7061
▁daylight	-11.7061
▁churches	-11.7062
▁40,000	-11.7062
▁acidic	-11.7062
▁upset	-11.7063
jar	-11.7063
▁Chilean	-11.7064
▁fleshy	-11.7066
▁Fakhr	-11.7067
▁roared	-11.7068
▁Barbak	-11.7069
avier	-11.7069
▁Kangs	-11.707
dri	-11.707
▁jam	-11.707
▁2500	-11.7071
▁lions	-11.7072
▁chased	-11.7074
▁punished	-11.7074
▁260	-11.7074
▁Natal	-11.7075
▁involvement	-11.7075
▁Gujarati	-11.7076
▁Dost	-11.7077
▁Babylon	-11.7077
▁Kai	-11.7077
▁Azan	-11.7078
rop	-11.7082
▁loudly	-11.7082
▁Allies	-11.7083
▁strongest	-11.7084
▁Kashmiri	-11.7087
▁Rishi	-11.7087
▁planes	-11.7088
attacked	-11.7088
▁reside	-11.7089
▁push	-11.709
▁Grant	-11.7092
▁Victorian	-11.7094
▁Kab	-11.7094
▁acr	-11.7097
▁Intermediate	-11.7097
▁Vegas	-11.7098
▁consequences	-11.7098
▁Raipur	-11.7098
▁functional	-11.7101
▁Drama	-11.7102
lane	-11.7103
▁Trina	-11.7104
▁Sony	-11.7107
▁Egyptians	-11.7108
ington	-11.7109
▁tram	-11.7111
▁mad	-11.7114
▁Parker	-11.7118
▁processor	-11.7118
▁Alps	-11.7118
▁Jag	-11.7119
▁Sharia	-11.7121
▁kh	-11.7125
▁striped	-11.7127
▁Sing	-11.7128
oma	-11.7131
▁explosives	-11.7134
▁Give	-11.7134
▁erect	-11.7136
▁Dil	-11.7139
▁Shamim	-11.7139
bace	-11.7141
▁tooth	-11.7142
ino	-11.7142
▁rats	-11.7143
▁Sudha	-11.7146
▁Theory	-11.7152
ipasha	-11.7154
▁Syeda	-11.7154
▁138	-11.7159
▁Ganj	-11.7164
▁communicate	-11.7167
MA	-11.7172
▁herbs	-11.7177
▁Need	-11.7178
pani	-11.7182
yle	-11.7187
▁lungs	-11.7187
▁reserves	-11.7187
▁inch	-11.7193
▁mob	-11.7193
▁topics	-11.7196
▁might	-11.7198
▁marketing	-11.7202
▁Tung	-11.7206
▁Eli	-11.721
▁cent	-11.7213
▁ch	-11.7213
▁drums	-11.7214
▁difficulty	-11.7216
▁206	-11.7219
▁168	-11.7221
▁Municipal	-11.7222
▁annually	-11.7223
▁campaigns	-11.7225
pit	-11.7226
▁Meher	-11.7233
▁Chun	-11.7235
▁chambers	-11.7241
▁spiders	-11.7241
▁beaks	-11.7241
▁Papu	-11.7245
▁bathe	-11.725
▁mouths	-11.7254
tes	-11.7256
▁End	-11.7262
▁Works	-11.7272
▁exceptional	-11.7273
ned	-11.7277
▁Comp	-11.7279
ub	-11.7282
▁searched	-11.7284
▁drops	-11.7286
oli	-11.7287
come	-11.7294
mitra	-11.7298
▁unite	-11.7298
▁boarding	-11.7304
▁Kh	-11.7305
▁believes	-11.7306
▁253	-11.7308
cus	-11.7308
▁148	-11.732
▁performances	-11.7321
▁Sari	-11.7322
▁Ur	-11.7326
▁charges	-11.733
aru	-11.7339
▁nets	-11.7347
▁races	-11.7348
▁Ven	-11.735
▁Dak	-11.7352
lias	-11.7353
▁van	-11.7357
pan	-11.7359
▁Secret	-11.736
ett	-11.7362
ternal	-11.7366
▁Brad	-11.7368
stori	-11.7375
▁Gang	-11.7381
ois	-11.7381
▁equations	-11.7386
▁traditions	-11.7386
itting	-11.7388
▁129	-11.739
42	-11.7399
▁Babur	-11.7401
▁Bele	-11.7405
▁Persians	-11.7408
▁174	-11.7411
▁ver	-11.7414
TC	-11.7418
▁homes	-11.742
catching	-11.7423
raising	-11.7424
▁Kevi	-11.7434
▁ra	-11.7438
▁chariots	-11.744
▁Bon	-11.7451
▁cubs	-11.7452
nna	-11.7457
▁mistakes	-11.7459
▁promise	-11.746
▁springs	-11.7466
▁modifi	-11.7467
▁link	-11.7467
▁nor	-11.7467
abari	-11.7472
,200	-11.7473
▁vector	-11.7475
▁Right	-11.7477
▁astronomer	-11.7478
▁debt	-11.7479
▁dig	-11.748
▁venue	-11.748
▁System	-11.7483
▁bracket	-11.7483
▁giraffe	-11.7483
▁nomination	-11.7483
▁competitor	-11.7483
▁interpretation	-11.7484
▁Boal	-11.7484
▁grenade	-11.7484
▁militant	-11.7484
▁cocoon	-11.7485
▁Champion	-11.7486
▁pigeon	-11.7486
▁Studio	-11.7486
▁rumor	-11.7487
▁consonants	-11.7496
mber	-11.7496
▁177	-11.7504
▁Chha	-11.7505
▁stores	-11.7507
mino	-11.7508
▁palms	-11.7514
▁184	-11.7514
▁Alex	-11.752
▁hid	-11.7522
▁Bab	-11.7524
▁PA	-11.7524
▁Andy	-11.7526
▁judges	-11.7528
zo	-11.7529
▁Isa	-11.753
auru	-11.7534
▁Bishwa	-11.7537
▁zones	-11.7542
TE	-11.7547
▁holder	-11.7549
oi	-11.7553
-20	-11.7555
▁stadiums	-11.7562
▁Charan	-11.7571
▁manufacture	-11.7572
utterflies	-11.7573
ashree	-11.7575
CD	-11.7576
chief	-11.7579
▁flee	-11.7579
▁micro	-11.7581
▁determin	-11.7581
▁1,0	-11.7585
▁harvest	-11.7599
iri	-11.7599
gam	-11.7603
▁Ph	-11.7605
burg	-11.7609
▁encourage	-11.7615
▁imagine	-11.7615
▁recite	-11.7616
▁unexpected	-11.7616
▁Victor	-11.7618
▁Snow	-11.7626
▁Germans	-11.7629
▁Bulgaria	-11.7629
▁Mesopotamia	-11.7629
▁Armenia	-11.763
▁Steel	-11.7631
▁Hindustan	-11.7631
▁Magic	-11.7632
▁teenage	-11.7633
▁matte	-11.7634
▁Mura	-11.7635
▁Olive	-11.7635
▁Belarus	-11.7636
▁Harris	-11.7636
▁silt	-11.7637
▁Archaeologi	-11.7637
▁pulp	-11.7637
▁Kailash	-11.7638
▁Amsterdam	-11.7638
▁Argentine	-11.7638
▁Athletic	-11.7638
▁Beirut	-11.7638
▁Cabinet	-11.7638
▁Catherine	-11.7638
▁Chelsea	-11.7638
▁Dumbledore	-11.7638
▁Edinburgh	-11.7638
▁Ershad	-11.7638
▁Fouad	-11.7638
▁Genghis	-11.7638
▁Glacier	-11.7638
▁Hanuman	-11.7638
▁Headingley	-11.7638
▁IEEE	-11.7638
▁Industry	-11.7638
▁Jeddah	-11.7638
▁Kazakhstan	-11.7638
▁Macbeth	-11.7638
▁Mubarak	-11.7638
▁Nurjahan	-11.7638
▁Security	-11.7638
▁Sumatra	-11.7638
▁Tianjin	-11.7638
▁Tobacco	-11.7638
▁Tuesday	-11.7638
▁Tughlaq	-11.7638
▁Twice	-11.7638
▁Vithoba	-11.7638
▁abbreviated	-11.7638
▁anterior	-11.7638
▁bullock	-11.7638
▁commerce	-11.7638
▁cottage	-11.7638
▁dynamic	-11.7638
▁embodi	-11.7638
▁genealogy	-11.7638
▁hampered	-11.7638
▁kilograms	-11.7638
▁luxurious	-11.7638
▁miserably	-11.7638
▁missile	-11.7638
▁renaissance	-11.7638
▁rotating	-11.7638
▁soluble	-11.7638
▁spacious	-11.7638
▁surpass	-11.7638
▁terrain	-11.7638
▁voting	-11.7638
▁yolk	-11.7638
▁Apollo	-11.7638
▁Dumdum	-11.7638
▁Ecuador	-11.7638
▁Infinit	-11.7638
▁Kohli	-11.7638
▁Survey	-11.7638
▁seventies	-11.7638
▁warehouse	-11.7638
▁warfare	-11.7638
▁Tebhaga	-11.7638
▁nutrition	-11.7638
▁Allaah	-11.7638
▁Private	-11.7638
▁sprout	-11.7638
▁Florence	-11.7638
▁Gaibandha	-11.7638
▁constitute	-11.7638
▁stuck	-11.7638
▁Kochbihar	-11.7638
▁Osaka	-11.7638
▁Punarbhaba	-11.7638
▁Tracts	-11.7638
▁Douglas	-11.7638
▁Husain	-11.7638
▁Ranbir	-11.7638
▁genome	-11.7638
▁Ajmal	-11.7638
▁Lennon	-11.7638
▁gunboat	-11.7638
▁terminus	-11.7638
▁Unfortunately	-11.7638
▁solitary	-11.7638
▁verification	-11.7638
▁Kavigan	-11.7638
▁Step	-11.7638
▁Uzbek	-11.7638
▁creek	-11.7638
▁Teresa	-11.7638
▁satisfied	-11.7638
▁Manzil	-11.7638
▁priority	-11.7638
▁terminology	-11.7638
▁remarried	-11.7638
▁electromagnetic	-11.7638
▁Bobby	-11.7638
▁Scout	-11.7638
▁Alpha	-11.7638
▁1-1	-11.7638
▁tolerate	-11.7638
▁LMG	-11.7638
▁sunrise	-11.7638
▁homosexuality	-11.7638
▁Congo	-11.7638
▁Hemisphere	-11.7638
▁Tsang	-11.7638
▁forgotten	-11.7638
▁Selina	-11.7638
▁Prasanna	-11.7638
▁elliptical	-11.7638
▁Copper	-11.7638
▁Mahananda	-11.7638
▁Duck	-11.7638
▁educator	-11.7638
▁dying	-11.7638
▁Bagchi	-11.7638
▁Gonsai	-11.7638
▁visa	-11.7638
▁emir	-11.7638
▁Nasiruddin	-11.7639
▁imitation	-11.7639
▁enthusiastic	-11.7639
▁Jalaluddin	-11.7639
▁Lalmon	-11.7639
▁bilateral	-11.7639
▁Majuli	-11.7639
▁Room	-11.7639
hua	-11.7639
▁resolution	-11.7639
▁Jiang	-11.7639
▁Jasim	-11.764
▁persuade	-11.764
▁fog	-11.764
▁Danube	-11.764
▁reunited	-11.764
▁Yogi	-11.764
▁Dawn	-11.764
▁Flight	-11.764
▁Bjang	-11.7641
▁valiantly	-11.7641
▁suspended	-11.7641
▁swan	-11.7641
▁Kaushik	-11.7641
▁reply	-11.7641
▁Cyrus	-11.7641
▁Kasba	-11.7641
▁beaten	-11.7641
▁Nandini	-11.7641
▁1871	-11.7641
▁subtropical	-11.7641
▁shiny	-11.7642
▁1856	-11.7642
▁Huang	-11.7642
▁effectiveness	-11.7642
▁1839	-11.7643
▁Charter	-11.7643
▁Marina	-11.7643
▁Hunter	-11.7643
▁Cave	-11.7643
▁efficiency	-11.7643
▁Kanpur	-11.7643
▁Oriya	-11.7644
▁Annie	-11.7644
▁Suzy	-11.7644
▁1824	-11.7644
▁1,500	-11.7644
▁1863	-11.7645
▁consumer	-11.7645
▁difficulties	-11.7645
▁topic	-11.7645
▁Shafi	-11.7646
▁Kanu	-11.7646
▁Auto	-11.7646
▁Munna	-11.7646
▁fit	-11.7647
▁Jabal	-11.7647
▁1811	-11.7647
▁Mike	-11.7647
▁propaganda	-11.7647
▁Zay	-11.7648
▁Haley	-11.7648
▁Khair	-11.7648
▁condemned	-11.7649
▁complexion	-11.765
▁Olympiad	-11.7651
▁Hope	-11.7651
▁Ramanuja	-11.7652
▁Coin	-11.7652
▁laptops	-11.7652
▁boiling	-11.7653
▁suggested	-11.7653
▁appointment	-11.7653
▁calculated	-11.7653
▁earthen	-11.7654
▁ethanol	-11.7654
▁Reach	-11.7655
▁rushed	-11.7655
▁Babar	-11.7656
▁Hamza	-11.7656
▁millions	-11.7656
▁159	-11.7657
▁stranger	-11.7658
▁Bahar	-11.7658
▁190	-11.766
▁pills	-11.7661
▁acquaintance	-11.7661
▁helpless	-11.7662
▁acknowledged	-11.7663
▁Azerbaijani	-11.7666
▁childless	-11.7667
▁devotional	-11.7667
▁Mazar	-11.7669
▁accumulated	-11.7669
▁eliminated	-11.767
▁penguins	-11.7671
▁Horn	-11.7671
▁panda	-11.7673
▁Fra	-11.7679
▁raped	-11.7681
▁Usman	-11.7685
▁330	-11.7688
▁Krish	-11.7688
▁lock	-11.769
sia	-11.7691
▁drafted	-11.7695
▁Purna	-11.7698
▁Laos	-11.7698
▁Badi	-11.77
heroic	-11.7706
▁155	-11.7708
▁toll	-11.7713
▁inspector	-11.7716
▁Ice	-11.7717
▁Santosh	-11.7721
▁Hot	-11.7724
II	-11.7726
▁princes	-11.7733
ken	-11.7735
▁forested	-11.7738
raw	-11.774
▁requested	-11.7741
▁continental	-11.7741
▁beels	-11.7742
▁vultures	-11.7746
ao	-11.7747
▁arrives	-11.7757
▁salty	-11.7759
ransportation	-11.776
▁carvings	-11.7765
▁monkeys	-11.7765
▁Rey	-11.7765
▁designer	-11.7766
vo	-11.7775
▁163	-11.7776
▁Kash	-11.7779
▁enzymes	-11.7784
stone	-11.7786
▁node	-11.7786
vis	-11.7791
▁Amj	-11.7792
▁militants	-11.7794
▁grenades	-11.7794
59	-11.7796
▁Vo	-11.7797
▁pin	-11.7797
▁169	-11.7803
FC	-11.7806
▁Herat	-11.7806
▁believers	-11.7808
▁warriors	-11.7813
▁comets	-11.7813
pla	-11.7815
unia	-11.7818
▁domed	-11.7818
▁Tor	-11.7822
▁Jona	-11.7827
▁Amba	-11.7829
final	-11.7831
xtensive	-11.7831
▁dot	-11.7835
▁Starr	-11.7836
▁chip	-11.7837
▁funds	-11.7843
tail	-11.7843
ze	-11.7847
▁civilizations	-11.7848
▁Matt	-11.785
▁breasts	-11.7851
▁wires	-11.7851
▁topper	-11.7862
▁walks	-11.7864
▁verbs	-11.787
▁trucks	-11.787
▁Sarat	-11.7871
▁Kitab	-11.7887
ability	-11.7896
▁Suja	-11.7899
qu	-11.7899
▁Reed	-11.79
▁VI	-11.7901
▁Tabl	-11.7902
▁Ila	-11.7907
▁Ger	-11.7916
▁Pet	-11.7917
▁vowels	-11.7918
▁jumping	-11.792
ez	-11.7921
▁Bimala	-11.7921
▁shade	-11.7922
▁beam	-11.7924
part	-11.7926
▁Wid	-11.7931
▁Retire	-11.7936
▁Kings	-11.7938
▁Rand	-11.7938
▁142	-11.7945
▁basins	-11.7956
▁Prit	-11.7958
▁CR	-11.7962
▁119	-11.7963
▁jobs	-11.7964
▁lease	-11.7964
devi	-11.7966
▁Pot	-11.7981
gredients	-11.7981
▁Len	-11.7984
fantry	-11.7993
▁Aus	-11.8004
▁institutes	-11.8005
▁bend	-11.8006
▁plac	-11.8006
len	-11.801
xi	-11.8017
▁Rup	-11.8024
▁fe	-11.8043
▁tasks	-11.8044
▁habit	-11.8044
dad	-11.8047
▁Sav	-11.8051
ile	-11.8061
uz	-11.8065
▁paint	-11.8067
▁Baral	-11.8068
cher	-11.8071
▁wars	-11.8072
▁ally	-11.8077
▁toes	-11.8082
▁reserve	-11.8087
bil	-11.8088
▁215	-11.8089
▁robber	-11.8091
▁atheist	-11.8099
▁Sas	-11.8099
▁portrait	-11.8105
▁textbook	-11.8107
▁provision	-11.8107
▁uniform	-11.8108
▁gem	-11.8109
▁enzyme	-11.8109
▁creature	-11.811
anda	-11.8111
▁Mos	-11.8113
▁partridge	-11.8114
▁toys	-11.8114
▁lung	-11.812
▁Garh	-11.8123
▁toss	-11.8129
▁adventure	-11.8129
▁Dana	-11.813
▁committees	-11.8141
wais	-11.8144
▁sale	-11.8148
▁banking	-11.815
▁Cat	-11.8159
▁dogs	-11.8165
▁Taki	-11.8166
▁Leo	-11.8167
▁MM	-11.8175
▁259	-11.8181
continental	-11.8181
▁blog	-11.8181
eating	-11.8184
▁summar	-11.8186
▁medicines	-11.8187
▁Dhanesh	-11.8188
born	-11.8189
▁resemble	-11.8199
efficient	-11.8201
Islami	-11.8202
TM	-11.8202
circular	-11.8204
brother	-11.8204
president	-11.8204
▁Santos	-11.8217
▁borrow	-11.8223
las	-11.8225
▁resign	-11.8229
aksha	-11.8229
karma	-11.8231
▁Hold	-11.8232
▁221	-11.8232
▁earning	-11.8233
▁statements	-11.8234
▁Sia	-11.824
▁rear	-11.824
▁alarming	-11.824
▁Param	-11.8241
▁ski	-11.8242
▁sentences	-11.8242
▁Hon	-11.8243
▁fabric	-11.8245
▁careful	-11.8247
▁Guna	-11.8248
▁Medicin	-11.8248
▁Alia	-11.8249
▁Firoz	-11.8253
▁Ganesh	-11.8253
▁preci	-11.8254
▁Nigeria	-11.8255
▁Gagan	-11.8257
nda	-11.8258
amboo	-11.8259
onservative	-11.826
▁Potato	-11.826
▁Cool	-11.826
▁exhibit	-11.8261
▁Narendra	-11.8262
▁Rahmat	-11.8262
gachha	-11.8262
▁Success	-11.8262
▁Prithvi	-11.8262
▁differ	-11.8262
▁regime	-11.8263
▁Ambassador	-11.8263
▁Arizona	-11.8263
▁Bangaigaon	-11.8263
▁Byomkesh	-11.8263
▁Carnegie	-11.8263
▁Fatimid	-11.8263
▁Frankfurt	-11.8263
▁Haryana	-11.8263
▁Hogwarts	-11.8263
▁Honduras	-11.8263
▁Ittefaq	-11.8263
▁Kelvin	-11.8263
▁Kyrgyzstan	-11.8263
▁LNG	-11.8263
▁Magistrate	-11.8263
▁Muawiyah	-11.8263
▁Muizuddin	-11.8263
▁NATO	-11.8263
▁Pierre	-11.8263
▁Pulitzer	-11.8263
▁SAARC	-11.8263
▁Samarkand	-11.8263
▁Santiago	-11.8263
▁Stuart	-11.8263
▁Surabaya	-11.8263
▁barrage	-11.8263
▁blunt	-11.8263
▁constituencies	-11.8263
▁cylindrical	-11.8263
▁exposed	-11.8263
▁fertility	-11.8263
▁galleries	-11.8263
▁hemisphere	-11.8263
▁hydrocarbon	-11.8263
▁juicy	-11.8263
▁luggage	-11.8263
▁maize	-11.8263
▁perfume	-11.8263
▁pinnacle	-11.8263
▁prehistor	-11.8263
▁reluctant	-11.8263
▁semester	-11.8263
▁snowfall	-11.8263
▁suspicion	-11.8263
▁vizier	-11.8263
▁wisdom	-11.8263
▁Anthony	-11.8263
▁Confederation	-11.8263
▁Pataudi	-11.8263
▁entity	-11.8263
▁forefront	-11.8263
▁Brahmo	-11.8263
▁Brooklyn	-11.8263
▁Software	-11.8263
▁burst	-11.8263
▁excitement	-11.8263
▁infancy	-11.8263
▁trapped	-11.8263
▁valve	-11.8263
▁Faith	-11.8263
▁horror	-11.8263
▁subordinate	-11.8263
▁Gadadhar	-11.8263
▁Lilavati	-11.8263
▁Venice	-11.8263
▁hydropower	-11.8263
▁melodious	-11.8263
▁Irwin	-11.8263
▁Kamadeva	-11.8263
▁Naldanga	-11.8263
▁audio	-11.8263
▁departure	-11.8263
▁Keshab	-11.8263
▁technologies	-11.8263
▁Tehran	-11.8263
▁temperate	-11.8263
▁beetle	-11.8263
▁sequence	-11.8263
▁relativity	-11.8263
▁Judaism	-11.8263
▁Pratap	-11.8263
▁operator	-11.8263
▁Aurora	-11.8263
▁Hockey	-11.8263
▁misery	-11.8263
▁substitute	-11.8263
▁Nirvana	-11.8263
▁treasury	-11.8263
▁Roychowdhury	-11.8263
▁Saturn	-11.8263
▁Ranaghat	-11.8263
▁prism	-11.8263
▁Rowling	-11.8263
▁Ishaq	-11.8263
▁commissionerate	-11.8263
▁diode	-11.8263
▁preservation	-11.8263
▁Quick	-11.8263
▁Detective	-11.8263
▁Hajong	-11.8263
▁Vietnamese	-11.8263
▁announcement	-11.8263
▁Jagadish	-11.8263
▁Tutul	-11.8263
▁Caucasus	-11.8263
gopal	-11.8263
▁Ghost	-11.8263
▁compiler	-11.8263
▁hostile	-11.8263
▁repel	-11.8263
▁Digit	-11.8263
▁Suez	-11.8263
▁Franklin	-11.8263
▁Jewel	-11.8263
▁Battalion	-11.8263
▁Tajik	-11.8263
▁upstream	-11.8263
▁relay	-11.8263
▁determination	-11.8263
▁purity	-11.8263
▁Hostel	-11.8263
▁Hiue	-11.8263
▁Munshiganj	-11.8264
▁reverse	-11.8264
▁manpower	-11.8264
▁Ashuganj	-11.8264
▁Creek	-11.8264
▁fragile	-11.8264
▁impeccable	-11.8264
▁undeniable	-11.8264
▁Gauss	-11.8264
▁Poem	-11.8264
▁columnist	-11.8264
▁Grace	-11.8264
▁Dwang	-11.8264
▁Sinha	-11.8264
▁Rajendra	-11.8265
▁Azimpur	-11.8265
▁CPI	-11.8265
▁Shaiva	-11.8265
▁Circle	-11.8265
▁Sadiq	-11.8265
▁invest	-11.8265
▁charity	-11.8265
▁Leader	-11.8265
▁Nanak	-11.8265
▁1829	-11.8265
▁Kachin	-11.8266
▁Mosul	-11.8266
▁somehow	-11.8266
▁Mohini	-11.8266
▁badminton	-11.8266
▁Fe	-11.8266
▁1859	-11.8266
▁Meem	-11.8266
▁Ahl	-11.8266
▁Gandhiji	-11.8266
▁Samveda	-11.8267
▁wishes	-11.8267
▁Gorai	-11.8267
▁Nasser	-11.8267
▁Rick	-11.8268
▁2,500	-11.8268
▁Help	-11.8268
▁mood	-11.8268
▁Sinai	-11.8268
▁Wade	-11.8268
▁Abyssinian	-11.8268
▁Blow	-11.8268
▁Fast	-11.8269
▁dargah	-11.8269
▁flexible	-11.8269
▁tutor	-11.8269
▁archipelago	-11.8269
▁Kushan	-11.8269
▁arid	-11.8269
▁1834	-11.8269
▁1838	-11.8269
▁Shimla	-11.8269
▁entry	-11.827
▁Chola	-11.827
▁confused	-11.827
▁blessed	-11.8273
▁Phone	-11.8273
▁socialism	-11.8273
▁Princess	-11.8274
▁ruined	-11.8275
▁Walker	-11.8275
▁Maybe	-11.8275
▁Yuan	-11.8276
▁frequently	-11.8276
▁v	-11.8276
▁Pandua	-11.8277
▁shipping	-11.8277
▁indirectly	-11.8278
▁artisans	-11.8278
▁complications	-11.8278
▁periodical	-11.8278
▁Julian	-11.8279
▁humanity	-11.8279
▁cursed	-11.828
▁Herman	-11.8281
▁Hira	-11.8281
▁wonder	-11.8281
▁server	-11.8282
▁Fif	-11.8282
▁Estonian	-11.8283
▁proven	-11.8283
▁noble	-11.8284
▁Mean	-11.8285
▁Paulo	-11.8285
▁Baitul	-11.8285
▁threatened	-11.8285
▁flash	-11.8287
▁graphics	-11.8288
▁stir	-11.8288
▁233	-11.8288
▁angular	-11.8289
▁appropriate	-11.829
▁1300	-11.829
▁Nile	-11.8291
▁Made	-11.8291
▁Vanu	-11.8292
▁concerned	-11.8293
▁Detail	-11.8293
▁revis	-11.8294
▁soda	-11.8295
▁Does	-11.8296
▁Essays	-11.8298
▁sleeves	-11.8298
▁Arriv	-11.8298
▁frying	-11.8298
▁masses	-11.8301
▁dighi	-11.8303
▁generate	-11.8303
▁seek	-11.8303
▁Iceland	-11.8305
▁generated	-11.8306
▁ox	-11.8306
▁arose	-11.831
ilal	-11.8311
▁Tusu	-11.8312
-21	-11.8312
▁marginal	-11.8313
▁Babui	-11.8314
▁fulfilled	-11.8314
want	-11.8314
ves	-11.8314
▁Tour	-11.8315
far	-11.8315
▁businesses	-11.8315
▁Shell	-11.8316
▁Islamia	-11.8317
▁Serbia	-11.8317
▁Juan	-11.8317
▁classrooms	-11.8318
▁Wang	-11.8318
▁Qui	-11.8318
▁conscious	-11.8319
▁Uday	-11.8319
29	-11.8319
▁ants	-11.832
▁argue	-11.8322
▁Legs	-11.8323
▁Hisham	-11.8327
▁Anton	-11.8328
▁phones	-11.833
▁mug	-11.8332
▁sandy	-11.8335
tel	-11.8335
▁Publishing	-11.8337
▁participants	-11.8338
-30	-11.8339
▁Yan	-11.8339
▁Salim	-11.8342
▁inform	-11.8342
▁Ol	-11.8345
▁Tel	-11.8346
▁Simpl	-11.8347
bati	-11.8348
▁indicated	-11.836
▁costs	-11.8362
▁operational	-11.8366
▁Milk	-11.8367
▁Shis	-11.8368
▁Mamluks	-11.8368
▁cannons	-11.8368
▁Nord	-11.8371
aya	-11.8379
▁151	-11.8383
▁Muga	-11.8384
lot	-11.8387
▁glaciers	-11.8388
▁tears	-11.8389
▁darker	-11.8389
▁auto	-11.839
▁Bret	-11.8391
▁sheets	-11.8399
▁hop	-11.84
▁Gay	-11.84
▁Khuda	-11.8402
▁paste	-11.8406
▁Baro	-11.8407
jivan	-11.8407
▁Ulug	-11.8408
▁Companions	-11.8409
▁Hell	-11.8416
▁Net	-11.842
▁Regional	-11.8422
ese	-11.8424
izing	-11.8437
▁whales	-11.8439
ay	-11.8444
bdi	-11.8444
▁1400	-11.8448
▁gam	-11.8454
▁Kad	-11.8456
ack	-11.8461
▁205	-11.8466
▁Od	-11.8467
ery	-11.8468
▁lighter	-11.8471
▁Ren	-11.8474
▁Jhil	-11.8475
yar	-11.8475
▁ranking	-11.8479
face	-11.8483
osh	-11.8484
▁spinners	-11.849
acilities	-11.8492
pus	-11.8494
▁fle	-11.8509
▁flocks	-11.8511
hai	-11.8513
▁Rich	-11.8515
hrab	-11.852
▁Paz	-11.8521
spect	-11.8522
▁doctrines	-11.8522
▁Isk	-11.8523
bibi	-11.8524
ester	-11.8527
ched	-11.8532
▁keys	-11.8532
▁Mini	-11.8535
inda	-11.8537
▁fails	-11.8542
▁tips	-11.8543
▁anal	-11.8545
▁Del	-11.8552
▁Toyo	-11.8555
▁Tali	-11.8556
bit	-11.8565
▁nights	-11.8571
▁IT	-11.8573
oon	-11.8576
zer	-11.8577
▁Wah	-11.8588
▁Mora	-11.8589
▁1803	-11.859
▁rath	-11.8592
▁Monir	-11.8592
▁theology	-11.8593
▁Chil	-11.8597
▁Bij	-11.8609
▁Tas	-11.8619
▁Williams	-11.8622
▁Yas	-11.8623
▁Rain	-11.8627
▁Dia	-11.8628
oke	-11.8631
ubdivision	-11.8635
▁tools	-11.8635
▁promot	-11.8637
▁178	-11.8646
isk	-11.8652
mit	-11.8653
etirement	-11.866
▁barb	-11.8664
ens	-11.8665
500	-11.8668
▁Ain	-11.8669
▁haven	-11.8671
▁Zill	-11.8672
singh	-11.8674
▁152	-11.8674
▁Way	-11.868
▁bananas	-11.8686
▁Start	-11.8687
▁Pad	-11.8693
▁sizes	-11.8699
▁drying	-11.8707
▁photograph	-11.8715
▁neighbors	-11.8717
▁Kuru	-11.8721
▁Nab	-11.8726
ement	-11.8727
▁philosophers	-11.8728
▁mesh	-11.8728
▁Jacobs	-11.8738
LB	-11.874
▁Kama	-11.8741
▁shift	-11.8743
▁martyr	-11.8744
▁cane	-11.875
▁Kami	-11.8751
▁Bhav	-11.8753
▁designat	-11.8755
babu	-11.8756
▁cloud	-11.876
▁originate	-11.8764
▁sermon	-11.8767
▁monster	-11.8769
▁bathroom	-11.8769
▁messenger	-11.8772
▁clinic	-11.8772
▁workshop	-11.8772
▁blade	-11.8773
▁cadet	-11.8773
▁Kani	-11.8773
▁woodpecker	-11.8773
lum	-11.8774
0,000	-11.8775
▁lichen	-11.8775
▁212	-11.8776
▁Companion	-11.8776
▁lighting	-11.8777
▁euro	-11.8777
▁immigrant	-11.8778
▁sailor	-11.8778
▁Hero	-11.8779
▁Jub	-11.8779
▁wo	-11.8779
▁Type	-11.8779
▁spectator	-11.8779
▁proton	-11.878
▁symptom	-11.8781
alia	-11.8782
▁organizer	-11.8784
▁Misha	-11.8784
tah	-11.8787
tone	-11.8787
▁defender	-11.8788
▁Jayant	-11.8788
▁Georgian	-11.8788
▁hunter	-11.879
ajan	-11.8793
▁236	-11.8797
TP	-11.8803
▁225	-11.8806
▁roses	-11.8812
tun	-11.8814
▁Nasr	-11.8825
iv	-11.8828
▁Nan	-11.883
▁Mand	-11.8831
▁Gom	-11.8832
ich	-11.8834
▁Pluto	-11.8846
phy	-11.8846
▁Lai	-11.8847
imi	-11.8849
▁Live	-11.8851
▁Gram	-11.8852
▁tunnels	-11.8854
▁Bio	-11.8856
avati	-11.8858
▁apple	-11.8863
▁Bern	-11.8868
conscious	-11.8868
burn	-11.887
Afghan	-11.887
General	-11.8871
two	-11.8871
written	-11.8871
media	-11.8873
▁Cell	-11.8879
88	-11.8879
eight	-11.8881
▁Kom	-11.8881
▁Chow	-11.8882
▁Hart	-11.8882
▁Samir	-11.8884
▁entertain	-11.8889
▁kiss	-11.8891
colored	-11.8891
▁133	-11.8891
low	-11.8893
▁accord	-11.8893
▁fry	-11.8895
▁reject	-11.8896
▁delay	-11.8896
▁musicians	-11.8901
mena	-11.8902
▁controll	-11.8903
▁Roll	-11.8905
▁ensure	-11.8907
ewell	-11.891
▁transports	-11.8911
▁bombs	-11.8913
▁dirt	-11.8913
▁Varun	-11.8917
▁nineteen	-11.8919
▁explode	-11.892
gs	-11.8921
▁consume	-11.8921
▁Bear	-11.8921
▁linguist	-11.8922
▁Bhaban	-11.8924
▁Peeth	-11.8925
iodiversity	-11.8926
▁mosquito	-11.8927
▁Talib	-11.8928
▁intersect	-11.8928
▁Uzi	-11.8929
ugarcane	-11.8929
▁bisexual	-11.8929
▁emotional	-11.8929
▁Spirit	-11.8929
▁Ceylon	-11.8929
▁Affairs	-11.8929
▁Agency	-11.8929
▁Aquino	-11.8929
▁Bethune	-11.8929
▁Census	-11.8929
▁Chapainawabganj	-11.8929
▁Charlotte	-11.8929
▁Dasaratha	-11.8929
▁DiCaprio	-11.8929
▁Entertainment	-11.8929
▁Ethiopia	-11.8929
▁Expedition	-11.8929
▁Hereafter	-11.8929
▁Jannatul	-11.8929
▁Jurassic	-11.8929
▁Kanchipuram	-11.8929
▁Khidirpur	-11.8929
▁Multan	-11.8929
▁Mushfiq	-11.8929
▁Nabanna	-11.8929
▁Napoleon	-11.8929
▁Nibaran	-11.8929
▁Nijhum	-11.8929
▁Poppy	-11.8929
▁Reconstruction	-11.8929
▁Schwarzenegger	-11.8929
▁Shaivism	-11.8929
▁Symphony	-11.8929
▁Tigris	-11.8929
▁Universal	-11.8929
▁Wednesday	-11.8929
▁Yahya	-11.8929
▁advancing	-11.8929
▁agencies	-11.8929
▁cholera	-11.8929
▁circumcision	-11.8929
▁communism	-11.8929
▁deposed	-11.8929
▁deserve	-11.8929
▁dissatisfied	-11.8929
▁extension	-11.8929
▁franchise	-11.8929
▁garbage	-11.8929
▁granddaughter	-11.8929
▁grandparents	-11.8929
▁malaria	-11.8929
▁meanwhile	-11.8929
▁narration	-11.8929
▁policies	-11.8929
▁scattering	-11.8929
▁silence	-11.8929
▁skyscraper	-11.8929
▁sloping	-11.8929
▁ultimate	-11.8929
▁vegetation	-11.8929
▁Balkan	-11.8929
▁absent	-11.8929
▁ambush	-11.8929
▁competitive	-11.8929
▁crematorium	-11.8929
▁goodbye	-11.8929
▁prevail	-11.8929
▁strategic	-11.8929
▁unsaturat	-11.8929
▁Derbyshire	-11.8929
▁Ichhamati	-11.8929
▁Nilakantha	-11.8929
▁Relations	-11.8929
▁Sankardeva	-11.8929
▁optic	-11.8929
▁Cornelius	-11.8929
▁Fermi	-11.8929
▁molasses	-11.8929
▁newcomer	-11.8929
▁replied	-11.8929
▁Scholarship	-11.8929
▁Testament	-11.8929
▁canopy	-11.8929
▁Aceh	-11.8929
▁Bronze	-11.8929
▁complicated	-11.8929
▁Abrahah	-11.8929
▁Overall	-11.8929
▁Polytechnic	-11.8929
▁husk	-11.8929
▁paragraph	-11.8929
▁Crime	-11.8929
▁polygon	-11.8929
▁otter	-11.8929
▁Kurigram	-11.8929
▁housing	-11.8929
▁parachute	-11.8929
▁polynomial	-11.8929
▁Umrah	-11.8929
▁constipation	-11.8929
▁Sharjah	-11.8929
▁Speed	-11.8929
▁Transvaal	-11.8929
▁closing	-11.8929
▁Crusaders	-11.8929
▁Mahamaya	-11.8929
▁mystic	-11.8929
▁Jibanananda	-11.893
▁bilirubin	-11.893
▁snout	-11.893
▁Thursday	-11.893
▁Arakanese	-11.893
▁Narsingh	-11.893
▁stiff	-11.893
▁Algiers	-11.893
▁Gilbert	-11.893
▁Rohit	-11.893
▁dissatisfaction	-11.893
▁drummer	-11.893
▁patriotism	-11.893
▁reconstruction	-11.893
▁Finnish	-11.893
▁Forbes	-11.893
▁Quinine	-11.893
▁Mizoram	-11.893
▁Shafiq	-11.893
▁Watch	-11.893
▁abducted	-11.893
▁scout	-11.893
▁Jagmohan	-11.893
▁yogi	-11.893
▁Darwin	-11.893
▁Karrani	-11.893
▁Mauric	-11.893
▁Kaunia	-11.893
▁Godagari	-11.893
▁FBI	-11.893
▁jug	-11.893
▁Close	-11.893
▁Suhrawardy	-11.893
▁missionaries	-11.893
▁Shakya	-11.893
▁Adnan	-11.893
▁generator	-11.893
▁verandah	-11.893
▁mankind	-11.893
▁Dudh	-11.893
▁Bakreshwar	-11.893
▁Quli	-11.893
▁Wasim	-11.893
▁Logan	-11.893
▁Wait	-11.8931
▁obvious	-11.8931
▁Nizamuddin	-11.8931
▁urbanization	-11.8931
▁Bradman	-11.8931
▁sown	-11.8931
▁BOP	-11.8931
▁compulsory	-11.8931
wing	-11.8931
▁sack	-11.8931
▁sodium	-11.8932
▁Joynagar	-11.8932
▁Jhenaidah	-11.8932
▁decimal	-11.8932
▁Sweet	-11.8932
▁Sikhism	-11.8932
▁mosquitoes	-11.8932
▁oak	-11.8932
▁subset	-11.8932
kavya	-11.8932
▁Mamata	-11.8932
▁Jules	-11.8932
▁Ishwar	-11.8933
▁Bhagavad	-11.8933
▁Akshay	-11.8933
▁Bantul	-11.8933
▁Tur	-11.8933
▁Plain	-11.8934
▁1825	-11.8934
▁Saf	-11.8934
▁devil	-11.8934
▁1835	-11.8934
▁Astro	-11.8934
▁Venezuelan	-11.8935
▁numerical	-11.8935
▁Walter	-11.8935
▁1845	-11.8935
▁1797	-11.8935
▁posthumously	-11.8936
▁mandapa	-11.8936
▁Dpal	-11.8936
▁Kashipur	-11.8936
▁confined	-11.8936
▁Ryan	-11.8937
▁Maryam	-11.8937
▁Romania	-11.8937
▁distorted	-11.8938
▁recommended	-11.8938
▁inspire	-11.8938
mita	-11.8938
▁Metropolitan	-11.8938
▁Justin	-11.8939
▁beaches	-11.8939
▁Shilpa	-11.894
lekha	-11.894
▁preferred	-11.894
▁1858	-11.894
▁Saadi	-11.8941
▁Mis	-11.8941
▁protector	-11.8942
▁recruited	-11.8942
▁Barsha	-11.8943
▁ut	-11.8944
▁Islamabad	-11.8944
▁looted	-11.8945
▁combine	-11.8946
▁Comet	-11.8946
lon	-11.8946
▁615	-11.8946
▁cloudy	-11.8946
fur	-11.8947
▁Officially	-11.8947
ademi	-11.8947
▁Talk	-11.8947
▁Cow	-11.8948
▁attain	-11.8949
▁18,000	-11.895
▁Phil	-11.8951
▁Srinagar	-11.8952
▁Uni	-11.8954
dept	-11.8954
▁Emer	-11.8955
▁imagined	-11.8955
▁razakars	-11.8956
▁limbs	-11.8956
▁Action	-11.8957
▁Sis	-11.896
▁preaching	-11.896
▁batch	-11.8961
▁Azim	-11.8962
pir	-11.8962
▁420	-11.8966
▁harden	-11.8967
▁Tulu	-11.8968
▁Kadam	-11.8968
▁Researchers	-11.8969
▁processes	-11.8969
▁Eighty	-11.8972
tive	-11.8972
▁Seth	-11.8972
▁pulled	-11.8974
▁Shane	-11.8975
▁Nationalist	-11.8975
▁222	-11.8976
▁thugs	-11.8978
▁orbital	-11.898
yam	-11.8982
▁presentation	-11.8982
▁Luis	-11.8984
▁Lisa	-11.8986
▁ISC	-11.8987
▁globally	-11.8987
▁Surat	-11.8989
▁Buen	-11.8991
enior	-11.8992
▁aimed	-11.8994
qui	-11.8996
▁thicker	-11.8998
▁inferior	-11.8999
▁Sel	-11.9007
▁Kate	-11.9009
▁Dhak	-11.901
▁bomber	-11.901
▁core	-11.901
ipur	-11.9013
▁Maghi	-11.9013
▁badge	-11.902
▁Billy	-11.9022
▁sharply	-11.9024
▁resolved	-11.9025
▁agrees	-11.9026
▁Amy	-11.9036
upchan	-11.9036
▁seller	-11.9037
Hearing	-11.9038
▁protested	-11.9042
▁cracks	-11.9043
▁228	-11.9043
▁Qing	-11.9044
▁Nari	-11.9046
▁initiatives	-11.9046
▁reformed	-11.9053
▁Bri	-11.9053
▁objectives	-11.9053
ecame	-11.9053
▁grooves	-11.9054
▁coordinates	-11.9055
▁sha	-11.9056
▁questioned	-11.9059
▁Bak	-11.9062
▁sepoys	-11.9064
▁Ed	-11.9065
▁126	-11.9065
▁factors	-11.9066
▁127	-11.9071
▁Eri	-11.9077
lik	-11.9078
▁Burn	-11.908
hood	-11.9085
▁lichens	-11.9086
chak	-11.9094
▁financially	-11.91
▁Dey	-11.9103
▁physically	-11.9103
▁132	-11.9108
▁Near	-11.9123
shed	-11.9125
breaking	-11.9128
▁herb	-11.9129
▁Fans	-11.913
▁Ming	-11.9142
▁Rud	-11.9143
▁1100	-11.9145
taka	-11.9146
iyah	-11.9151
▁plates	-11.9152
ilee	-11.9152
▁trio	-11.9156
▁Zara	-11.9157
▁Chap	-11.9158
▁181	-11.9159
rek	-11.916
isha	-11.9163
▁Ghuri	-11.9168
▁personally	-11.9172
▁glands	-11.9173
▁Im	-11.9176
▁editors	-11.9181
▁Seeds	-11.9185
▁Mari	-11.9188
89	-11.9195
▁knees	-11.9195
▁tastes	-11.9207
▁Ir	-11.9207
78	-11.9209
▁Majhi	-11.9221
▁Saudis	-11.9221
▁Gha	-11.9228
pala	-11.9237
▁Bath	-11.9239
▁Sui	-11.9242
▁Banglamat	-11.9246
itus	-11.9247
▁arrows	-11.925
RC	-11.9254
▁Jiban	-11.9256
con	-11.9272
▁vitamins	-11.9272
▁comments	-11.9272
▁Said	-11.9274
▁Nin	-11.9275
▁inert	-11.9276
▁thank	-11.9282
▁limits	-11.9285
rack	-11.9291
▁Br	-11.9292
▁winds	-11.9296
▁theft	-11.9296
▁Mona	-11.9302
▁Jami	-11.9303
mont	-11.9307
▁Charu	-11.9308
▁Arc	-11.9311
▁Rui	-11.9313
▁gang	-11.9314
▁customs	-11.9317
▁Taka	-11.9323
avi	-11.9329
▁decisions	-11.933
▁Tigers	-11.9339
rick	-11.9342
ito	-11.9344
▁Dong	-11.9345
▁Hug	-11.9345
rim	-11.9347
▁Khali	-11.9347
aro	-11.9355
▁Pel	-11.9357
▁le	-11.9358
hold	-11.9359
vil	-11.9359
▁Den	-11.9359
nic	-11.936
▁Got	-11.9362
▁hal	-11.9365
▁Kank	-11.9373
dah	-11.9374
▁Tila	-11.9389
▁Dor	-11.9394
pad	-11.9394
▁habitats	-11.9406
▁145	-11.9407
lak	-11.9409
▁killings	-11.9417
ou	-11.9418
-60	-11.9434
▁incarnations	-11.944
cia	-11.9441
▁Sc	-11.9442
api	-11.9442
▁Karam	-11.9448
▁hopes	-11.9449
rod	-11.9449
Mu	-11.9456
▁Hans	-11.9462
▁242	-11.9463
▁Ripe	-11.9466
▁Jet	-11.9472
▁Nana	-11.9472
asse	-11.9478
▁ripen	-11.948
▁battalion	-11.9481
dmitted	-11.9482
▁Sch	-11.9482
▁Comment	-11.9484
▁carpet	-11.9484
▁magician	-11.9484
▁284	-11.9484
▁rooster	-11.9484
▁renovation	-11.9487
mount	-11.9487
▁Yam	-11.9488
▁mihrab	-11.9488
▁Buri	-11.9489
ova	-11.949
▁carving	-11.949
▁monkey	-11.9491
▁fossil	-11.9491
▁muscle	-11.9491
▁specimen	-11.9492
▁Organ	-11.9492
▁mahalla	-11.9493
▁premise	-11.9494
ient	-11.9494
▁collector	-11.9494
▁exhibitions	-11.9496
▁182	-11.9498
▁resolv	-11.9499
▁moth	-11.9501
ible	-11.9502
▁donation	-11.9503
dal	-11.9508
mail	-11.9521
▁Raghu	-11.9526
▁Ant	-11.9527
▁Ramna	-11.9531
▁sheet	-11.9532
▁observ	-11.9538
nell	-11.954
▁rid	-11.9547
drawn	-11.9548
ose	-11.9548
▁bo	-11.955
atic	-11.955
▁380	-11.9554
endu	-11.9558
▁Bana	-11.9563
▁refugee	-11.9566
ax	-11.9566
nandan	-11.9574
▁137	-11.9575
wick	-11.958
profit	-11.9584
deep	-11.9585
Bangla	-11.9585
▁employ	-11.9585
winning	-11.9585
Bangladesh	-11.9585
polar	-11.9586
place	-11.9587
ega	-11.9593
month	-11.9601
▁Method	-11.9603
▁248	-11.9605
▁Gat	-11.9606
▁Deepa	-11.9608
▁swallow	-11.9608
▁concern	-11.9609
▁respond	-11.961
▁lab	-11.961
▁register	-11.961
▁Hur	-11.9612
▁lightly	-11.9615
▁Aur	-11.9615
▁disagree	-11.962
▁settle	-11.9621
yama	-11.9622
▁Kiss	-11.9625
▁hearts	-11.9628
▁spy	-11.9629
▁blame	-11.963
ac	-11.9631
▁Shalban	-11.9635
▁overthrow	-11.9635
▁tract	-11.9637
▁Journal	-11.9637
54	-11.9637
▁Except	-11.9637
▁Ulu	-11.9638
asketball	-11.964
▁Mohammed	-11.964
▁drunk	-11.9642
▁buffalo	-11.9642
▁Raghunath	-11.9642
▁respirat	-11.9642
▁Convent	-11.9643
▁biochemist	-11.9643
▁authentic	-11.9643
rrigation	-11.9643
▁Jafar	-11.9643
▁ultra	-11.9643
brook	-11.9644
▁Achiev	-11.9644
▁maktab	-11.9644
▁senator	-11.9644
▁skull	-11.9644
▁troupe	-11.9644
▁Agreement	-11.9644
▁Akhaura	-11.9644
▁Alhaj	-11.9644
▁Aristotle	-11.9644
▁Arnold	-11.9644
▁Bacchus	-11.9644
▁Brussels	-11.9644
▁Buffett	-11.9644
▁Bureau	-11.9644
▁Consider	-11.9644
▁Corridor	-11.9644
▁Dakshineswar	-11.9644
▁Dhanbad	-11.9644
▁Ehtesham	-11.9644
▁Hambantota	-11.9644
▁Jadavpur	-11.9644
▁Kohinoor	-11.9644
▁Lausanne	-11.9644
▁Lisbon	-11.9644
▁MLA	-11.9644
▁Machine	-11.9644
▁Midnapore	-11.9644
▁Mufti	-11.9644
▁Pandey	-11.9644
▁Papilionidae	-11.9644
▁Prahlad	-11.9644
▁Radharman	-11.9644
▁Reeves	-11.9644
▁Reserve	-11.9644
▁Slovenia	-11.9644
▁Taipei	-11.9644
▁Tanzania	-11.9644
▁Toronto	-11.9644
▁Ulysses	-11.9644
▁Uncle	-11.9644
▁Vaidyanatha	-11.9644
▁Worcestershire	-11.9644
▁affordable	-11.9644
▁asleep	-11.9644
▁befriend	-11.9644
▁chronic	-11.9644
▁circumference	-11.9644
▁clerk	-11.9644
▁destructive	-11.9644
▁footsteps	-11.9644
▁friction	-11.9644
▁grocer	-11.9644
▁gunpowder	-11.9644
▁janaza	-11.9644
▁jealous	-11.9644
▁nostrils	-11.9644
▁offspring	-11.9644
▁prowess	-11.9644
▁quake	-11.9644
▁radical	-11.9644
▁regulator	-11.9644
▁reopened	-11.9644
▁revelation	-11.9644
▁sesame	-11.9644
▁smoking	-11.9644
▁sparse	-11.9644
▁sportsmanship	-11.9644
▁stagnant	-11.9644
▁starvation	-11.9644
▁vague	-11.9644
▁volcanic	-11.9644
▁Ambrose	-11.9644
▁Capricorn	-11.9644
▁Horace	-11.9644
▁Lumpur	-11.9644
▁Popular	-11.9644
▁Snake	-11.9644
▁output	-11.9644
▁sank	-11.9644
▁sperm	-11.9644
▁syndrome	-11.9644
▁tropics	-11.9644
▁uranium	-11.9644
▁Mitchell	-11.9644
▁ideological	-11.9644
▁plent	-11.9644
▁Crab	-11.9644
▁Khagaria	-11.9644
▁Shakuntala	-11.9644
▁geology	-11.9644
▁initiation	-11.9644
▁yogurt	-11.9644
▁Pollock	-11.9644
▁Pundravardhana	-11.9644
▁Voice	-11.9644
▁equilibrium	-11.9644
▁discrimination	-11.9644
▁subsidiar	-11.9644
▁trilogy	-11.9644
▁unsuccessful	-11.9644
▁Airlines	-11.9644
▁Bankimchandra	-11.9644
▁Caesar	-11.9644
▁Headquarters	-11.9644
▁Rizvi	-11.9644
▁reckless	-11.9644
▁Nalanda	-11.9644
▁Otago	-11.9644
▁Hanks	-11.9644
▁Barasat	-11.9644
▁Bonnie	-11.9644
▁Hardinge	-11.9644
▁Shuvo	-11.9644
▁muddy	-11.9644
▁flame	-11.9644
▁kanji	-11.9644
▁Morshed	-11.9644
▁iPhone	-11.9644
▁Deoband	-11.9644
▁Kaiser	-11.9644
▁Manasamangal	-11.9644
▁Folk	-11.9644
▁Patuakhali	-11.9644
▁blanket	-11.9644
▁Bhaduri	-11.9644
▁Chaplin	-11.9644
▁interface	-11.9644
▁Wonder	-11.9644
▁Index	-11.9644
▁Rangoon	-11.9644
▁melodies	-11.9644
▁Poison	-11.9644
▁Silva	-11.9644
▁continuity	-11.9644
▁Mrinalini	-11.9644
▁Behula	-11.9644
▁Saryu	-11.9644
▁Seedling	-11.9644
▁sandstone	-11.9644
▁automatically	-11.9644
▁Kamranga	-11.9644
▁masterpiece	-11.9644
▁Shastra	-11.9644
▁calcium	-11.9644
▁knockout	-11.9644
▁imagination	-11.9644
▁admit	-11.9644
▁Cultivation	-11.9644
▁Chandigarh	-11.9644
▁Search	-11.9644
▁Phoenix	-11.9644
▁Mongla	-11.9644
▁Sandeep	-11.9644
▁Gopinath	-11.9644
▁Satpura	-11.9644
▁Tulsi	-11.9644
ishore	-11.9644
▁Tihar	-11.9644
▁Rooney	-11.9644
▁Holiday	-11.9644
▁Mustard	-11.9644
▁alert	-11.9645
▁bikini	-11.9645
▁Nagaland	-11.9645
▁digestion	-11.9645
▁Babel	-11.9645
▁Juvenile	-11.9645
▁Shashanka	-11.9645
▁Bhubaneswar	-11.9645
▁Novel	-11.9645
▁Wiki	-11.9645
▁Betel	-11.9645
▁Delta	-11.9645
▁Zainu	-11.9645
▁Sherpa	-11.9645
▁refrain	-11.9645
▁Rekha	-11.9645
▁accountant	-11.9645
▁nowiki	-11.9645
▁baseball	-11.9646
▁bail	-11.9646
▁Trail	-11.9646
▁MTV	-11.9646
▁awareness	-11.9646
tur	-11.9646
▁acne	-11.9646
▁Gias	-11.9646
▁Nesa	-11.9646
▁Balaram	-11.9646
▁mime	-11.9646
▁Jaffna	-11.9646
▁insurance	-11.9646
ranking	-11.9646
▁Khagan	-11.9646
▁Fear	-11.9646
▁Bashar	-11.9647
▁brush	-11.9647
▁Gambhira	-11.9647
▁Srirampur	-11.9647
▁Jaipur	-11.9647
▁formulated	-11.9647
▁frightened	-11.9648
▁convener	-11.9648
▁Arnab	-11.9648
▁lighthouse	-11.9648
▁Rumi	-11.9648
▁extraction	-11.9648
▁1805	-11.9649
▁1833	-11.9649
▁Hanafi	-11.9649
▁Previously	-11.9649
▁Madurai	-11.9649
▁insane	-11.9649
▁BCB	-11.9649
▁Juliet	-11.9649
▁Indrani	-11.965
▁Chester	-11.965
▁sweater	-11.965
▁Aditi	-11.965
▁Married	-11.965
▁relegated	-11.965
▁1765	-11.965
▁tolerant	-11.9651
▁confidence	-11.9651
▁815	-11.9651
▁unfortunately	-11.9651
▁ornamental	-11.9651
▁1843	-11.9652
▁Rasul	-11.9652
▁Salil	-11.9652
▁latex	-11.9653
▁Hubal	-11.9653
▁Mizan	-11.9653
▁violent	-11.9655
▁Albanian	-11.9655
▁Rifa	-11.9655
▁emphasize	-11.9655
▁DA	-11.9656
▁cable	-11.9656
▁industrialist	-11.9657
▁oven	-11.9657
▁meaningless	-11.9657
▁Sajek	-11.9657
▁Rita	-11.9657
▁updated	-11.9658
▁Bip	-11.9658
▁Sadhana	-11.9659
▁Durban	-11.9659
▁kirtan	-11.9659
▁preacher	-11.966
▁Gry	-11.966
▁Aligarh	-11.9661
▁expenses	-11.9661
▁Nazim	-11.9663
▁199	-11.9663
▁Steven	-11.9663
▁Asif	-11.9663
▁ignored	-11.9663
▁locality	-11.9663
▁equality	-11.9664
▁Kalinga	-11.9665
▁cart	-11.967
▁Mid	-11.967
▁ornate	-11.967
▁Jatindra	-11.967
▁Ferr	-11.967
▁Maoist	-11.9671
▁Devon	-11.9672
▁Belur	-11.9673
▁Salda	-11.9673
▁revived	-11.9674
▁cor	-11.9675
▁anonymous	-11.9675
▁Aires	-11.9675
▁instructor	-11.9677
▁outline	-11.9678
▁chakra	-11.9678
▁balanced	-11.9678
▁Moin	-11.9679
▁Clinic	-11.9679
▁Try	-11.9681
yang	-11.9684
▁tomtoms	-11.9684
▁marriages	-11.9685
▁antiquity	-11.9686
▁Sakhi	-11.9689
▁Cal	-11.9691
▁worthy	-11.9694
▁Alice	-11.9695
▁Publications	-11.9696
met	-11.9697
▁Baal	-11.9697
▁Intel	-11.9697
▁poisoning	-11.9699
▁Ahoms	-11.9701
▁Sayed	-11.9702
▁Sumi	-11.9702
▁Woody	-11.9703
▁branched	-11.9706
elecommunication	-11.9706
▁exiled	-11.9707
▁cheeks	-11.9707
▁variations	-11.9707
▁Mara	-11.971
▁Um	-11.9711
▁Sho	-11.9711
▁grounds	-11.9711
vati	-11.9713
▁anecdotes	-11.9714
minul	-11.9716
▁eras	-11.9717
▁heavier	-11.9719
▁incomparable	-11.9719
▁rented	-11.9719
verted	-11.972
▁Muhur	-11.9721
zza	-11.9724
▁Sag	-11.9727
▁Waka	-11.973
▁Wave	-11.973
▁sultans	-11.9731
▁mushrooms	-11.9731
▁Kamru	-11.9735
illions	-11.9736
▁1.5	-11.9737
▁producers	-11.9737
▁authors	-11.9742
▁Afroz	-11.9742
▁Places	-11.9742
▁listened	-11.9743
lata	-11.9749
▁bearer	-11.9752
▁Sarala	-11.9757
▁Tina	-11.9758
▁owls	-11.9766
▁Kansa	-11.9767
▁Khanna	-11.9768
qua	-11.9771
▁Za	-11.9772
▁waited	-11.9772
▁charts	-11.9773
zen	-11.9781
▁Salem	-11.9789
▁fed	-11.9793
▁feared	-11.9803
▁accounting	-11.9805
▁Jayanti	-11.9812
▁photographs	-11.9813
▁shipbuild	-11.9816
▁Guy	-11.982
.30	-11.9821
▁periodicals	-11.9822
▁Muna	-11.9823
▁cooperation	-11.9823
▁Anne	-11.9825
93	-11.9827
▁Abel	-11.9827
▁brackets	-11.9836
▁giraffes	-11.9836
▁interpretations	-11.9836
▁nominations	-11.9836
▁competitors	-11.9836
▁promises	-11.9836
missed	-11.9839
▁Ashta	-11.984
▁269	-11.9842
▁Bhati	-11.9845
ksha	-11.9846
▁advertisements	-11.9847
▁prevented	-11.9849
▁Farooqi	-11.9849
▁Batu	-11.985
▁strikes	-11.9853
▁pistols	-11.9859
▁Inca	-11.9864
▁Kaur	-11.9865
▁Immediate	-11.9868
kund	-11.9868
▁Gyan	-11.9872
ania	-11.9877
▁Maxim	-11.9882
▁factions	-11.9884
bag	-11.9885
▁Lt	-11.9889
leading	-11.9894
osa	-11.99
lyas	-11.9901
▁wrestlers	-11.9907
▁Host	-11.9908
▁Mith	-11.9908
▁Hims	-11.9912
▁garments	-11.9918
▁Kang	-11.992
▁sh	-11.9923
inder	-11.9924
ommunity	-11.9925
▁Hair	-11.9927
riti	-11.993
▁pursuits	-11.993
▁Maj	-11.9944
▁rubb	-11.9944
GA	-11.995
▁discs	-11.9951
▁cakes	-11.9954
▁Duk	-11.9961
▁Rip	-11.9962
▁Amu	-11.9965
stein	-11.997
▁Aj	-11.9975
▁156	-11.9975
▁cartoons	-11.9978
▁Rin	-11.998
▁Jol	-11.9987
▁pursue	-11.9987
▁Ser	-11.9989
chan	-11.9989
body	-11.9992
▁Bull	-11.9995
nyone	-12.0002
▁Tin	-12.0003
▁Goal	-12.0005
▁Khm	-12.0009
▁136	-12.001
▁tickets	-12.0013
hali	-12.0019
▁Jhar	-12.002
▁draws	-12.0022
▁preparations	-12.0025
▁sages	-12.0025
▁Mah	-12.0026
▁Manda	-12.0027
▁schooling	-12.003
via	-12.0035
▁Giri	-12.0038
▁understanding	-12.0041
▁Slo	-12.0048
appa	-12.0048
hab	-12.0059
pine	-12.0064
asur	-12.0069
▁filmed	-12.0073
evan	-12.0076
▁agreements	-12.0089
▁Manna	-12.009
und	-12.009
▁Barka	-12.0092
▁SH	-12.0096
nation	-12.0097
▁Miles	-12.0099
atsu	-12.0107
▁Kor	-12.0109
gala	-12.0116
▁Ve	-12.012
▁duet	-12.0121
▁sects	-12.0122
▁Ann	-12.0122
▁244	-12.0125
▁1846	-12.0127
not	-12.0132
▁Dig	-12.0139
▁Semi	-12.0142
▁panels	-12.0146
▁CC	-12.0147
▁establishments	-12.0149
▁holidays	-12.0158
nan	-12.0165
inal	-12.0166
▁shout	-12.0175
anga	-12.0177
▁Mat	-12.0177
▁226	-12.0177
▁211	-12.0181
yon	-12.0182
▁Dag	-12.0182
▁Mall	-12.0183
hand	-12.0184
mir	-12.0187
tab	-12.0187
tis	-12.0191
third	-12.0206
▁Sutra	-12.0209
▁Gates	-12.021
angsha	-12.0211
▁disappear	-12.0216
range	-12.0218
orsha	-12.0218
▁earthquakes	-12.0218
matic	-12.0219
▁Table	-12.022
▁238	-12.0239
▁Lone	-12.0241
▁arrive	-12.0246
▁origins	-12.0249
sena	-12.0249
▁bungalow	-12.025
▁Chao	-12.0252
▁motorcycle	-12.0252
▁polymer	-12.0253
▁proverb	-12.0253
▁stupa	-12.0253
▁mask	-12.0253
▁alkali	-12.0254
▁factor	-12.0254
▁stain	-12.0255
dak	-12.0255
▁volunteer	-12.0257
▁flavor	-12.0258
▁bust	-12.0258
▁sepoy	-12.0259
▁glacier	-12.0259
▁cormorant	-12.0262
▁improvement	-12.0263
▁shoe	-12.0263
▁resource	-12.0263
▁305	-12.0264
▁mammal	-12.0264
▁wetland	-12.0265
biganj	-12.0268
▁spice	-12.0268
ller	-12.0269
igar	-12.0274
▁Fur	-12.0279
▁networks	-12.028
,500	-12.0292
rampur	-12.0299
▁Mil	-12.0305
79	-12.0308
▁Va	-12.0315
▁334	-12.0316
▁Afro	-12.032
▁301	-12.0323
▁273	-12.0323
▁Shahbag	-12.0324
idhi	-12.0327
▁Mano	-12.0327
▁differently	-12.0328
kov	-12.0329
▁Jagat	-12.033
▁365	-12.0331
raja	-12.0338
▁Hawa	-12.0345
India	-12.0346
▁Luna	-12.0347
▁Gill	-12.035
▁neo	-12.0352
launched	-12.0352
kant	-12.0353
▁cultivat	-12.0354
Arab	-12.0354
European	-12.0354
spot	-12.0355
▁208	-12.0356
will	-12.0358
virus	-12.0361
orious	-12.0363
fast	-12.0364
▁Mila	-12.0367
Test	-12.0367
rhat	-12.0368
▁Hunt	-12.0368
▁Baj	-12.0369
▁commemorate	-12.037
wat	-12.0373
▁punish	-12.0378
▁psycholog	-12.0379
▁appoint	-12.0379
92	-12.0382
▁Teg	-12.0384
▁Count	-12.0389
mak	-12.0389
▁welcome	-12.039
▁announce	-12.039
▁define	-12.0391
cent	-12.0392
▁Official	-12.0393
▁seize	-12.0393
▁Diwan	-12.0393
▁SM	-12.0394
▁weaken	-12.0398
▁198	-12.0401
▁opera	-12.0402
▁diploma	-12.0403
▁Uganda	-12.0404
▁Ich	-12.0405
▁magni	-12.0405
▁Kabiraj	-12.0406
▁Carbon	-12.0408
▁Plate	-12.0408
adminton	-12.0409
▁Rafi	-12.041
▁Binod	-12.0411
shah	-12.0411
▁possess	-12.0411
▁advent	-12.0411
egistration	-12.0412
arity	-12.0412
anctuary	-12.0412
▁harsh	-12.0412
clusion	-12.0412
▁horizon	-12.0413
▁Vivek	-12.0413
guise	-12.0413
responsibilities	-12.0413
▁Alfonso	-12.0413
▁Aramaic	-12.0413
▁Atletico	-12.0413
▁Bashundhara	-12.0413
▁Bazaar	-12.0413
▁Begusarai	-12.0413
▁Bhrigu	-12.0413
▁Catalonia	-12.0413
▁Chawkbazar	-12.0413
▁Comrade	-12.0413
▁Daughter	-12.0413
▁Doordarshan	-12.0413
▁Dortmund	-12.0413
▁Duryodhana	-12.0413
▁Ekadashi	-12.0413
▁Energy	-12.0413
▁Faculties	-12.0413
▁Ferdinand	-12.0413
▁Foucault	-12.0413
▁Gazol	-12.0413
▁Gilgamesh	-12.0413
▁Griffith	-12.0413
▁Guhyakali	-12.0413
▁Hatibagan	-12.0413
▁Isfahan	-12.0413
▁Jatayu	-12.0413
▁Javanese	-12.0413
▁Kapasia	-12.0413
▁Khaleq	-12.0413
▁Khyber	-12.0413
▁Kokrajhar	-12.0413
▁Lebanese	-12.0413
▁Leipzig	-12.0413
▁Liechtenstein	-12.0413
▁Maldini	-12.0413
▁Martyr	-12.0413
▁Mauritius	-12.0413
▁Mississippi	-12.0413
▁NGO	-12.0413
▁Neymar	-12.0413
▁Pashto	-12.0413
▁Pigeon	-12.0413
▁Porsche	-12.0413
▁Psyche	-12.0413
▁Rhythm	-12.0413
▁Shirkuh	-12.0413
▁Sinhalese	-12.0413
▁Sobhan	-12.0413
▁Spaniards	-12.0413
▁Sputnik	-12.0413
▁Superior	-12.0413
▁Tinsukia	-12.0413
▁Vatican	-12.0413
▁abolition	-12.0413
▁arithmetic	-12.0413
▁collision	-12.0413
▁cooperate	-12.0413
▁eggplant	-12.0413
▁fugitive	-12.0413
▁immature	-12.0413
▁jihad	-12.0413
▁knife	-12.0413
▁lazy	-12.0413
▁meridian	-12.0413
▁multinational	-12.0413
▁multiplied	-12.0413
▁octopus	-12.0413
▁onlyinclude	-12.0413
▁petroleum	-12.0413
▁pleasure	-12.0413
▁promising	-12.0413
▁prototype	-12.0413
▁puzzle	-12.0413
▁rejoin	-12.0413
▁reunion	-12.0413
▁samurai	-12.0413
▁skeptic	-12.0413
▁sulfide	-12.0413
▁unprecedented	-12.0413
▁zakat	-12.0413
▁Andalusia	-12.0413
▁Bangkok	-12.0413
▁Gulshan	-12.0413
▁Nusrat	-12.0413
▁Pratapaditya	-12.0413
▁Zahid	-12.0413
▁challenge	-12.0413
▁endemic	-12.0413
▁inanimate	-12.0413
▁methane	-12.0413
▁reprinted	-12.0413
▁unemployment	-12.0413
▁zinc	-12.0413
▁Katherine	-12.0413
▁Mysore	-12.0413
▁dinner	-12.0413
▁Curie	-12.0413
▁Parbatipur	-12.0413
▁perpendicular	-12.0413
▁sympathy	-12.0413
▁Gothic	-12.0413
▁Venkateswara	-12.0413
▁hilsa	-12.0413
▁paralysis	-12.0413
▁Apurba	-12.0413
▁Bavaria	-12.0413
▁Duncan	-12.0413
▁Downey	-12.0413
▁Translate	-12.0413
▁Adiganga	-12.0413
▁Feroz	-12.0413
▁mutual	-12.0413
▁Nikhil	-12.0413
▁Tennis	-12.0413
▁Uttarakhand	-12.0413
▁claws	-12.0413
▁synthesis	-12.0413
▁Akhter	-12.0413
▁cruel	-12.0413
▁Spread	-12.0413
▁Yunus	-12.0413
▁samas	-12.0413
▁Dhawan	-12.0413
▁manifestation	-12.0413
▁Belfast	-12.0413
▁convoy	-12.0413
▁laureate	-12.0413
▁socks	-12.0413
▁Kaivarta	-12.0413
▁tehsil	-12.0413
▁Dorset	-12.0413
▁Arvind	-12.0413
▁Prabodh	-12.0413
▁sultanate	-12.0413
▁Arawak	-12.0413
▁Fanny	-12.0413
▁Katihar	-12.0413
▁Tarzan	-12.0413
▁Thomson	-12.0413
▁View	-12.0413
▁esophagus	-12.0413
▁railroad	-12.0413
▁straw	-12.0413
▁Asimov	-12.0413
▁Subrata	-12.0413
▁refinery	-12.0413
▁Saratchandra	-12.0413
▁tsunami	-12.0413
▁Rohini	-12.0413
▁Shizuka	-12.0413
▁Yanbu	-12.0413
▁dictatorship	-12.0413
▁Kalurghat	-12.0413
▁adhere	-12.0413
▁Corps	-12.0413
▁Khilafah	-12.0413
▁Kashem	-12.0413
▁Plaza	-12.0413
▁condom	-12.0413
▁typical	-12.0413
▁Opposition	-12.0413
▁Hegel	-12.0413
▁Siwan	-12.0413
▁Sirajuddaula	-12.0413
▁Heavy	-12.0413
▁Qaw	-12.0413
▁Faraday	-12.0413
▁Altaf	-12.0414
▁Percy	-12.0414
▁Country	-12.0414
▁Riley	-12.0414
▁authenticity	-12.0414
▁resignation	-12.0414
▁Col	-12.0414
▁apartment	-12.0414
▁Kadambari	-12.0414
▁Raihan	-12.0414
▁landscape	-12.0414
▁Emma	-12.0414
▁cement	-12.0414
▁hoist	-12.0414
▁Merit	-12.0414
▁Tommy	-12.0414
▁exit	-12.0414
▁Digambar	-12.0414
▁Darshan	-12.0414
▁Jackie	-12.0414
▁Pranab	-12.0414
▁theorem	-12.0414
▁Tajuddin	-12.0414
▁Everton	-12.0414
▁Karbala	-12.0414
▁Marvin	-12.0414
▁modulation	-12.0414
▁confiscated	-12.0414
▁Acid	-12.0414
▁Akira	-12.0414
▁Queens	-12.0415
▁Ramesh	-12.0415
▁replacement	-12.0415
▁Bidur	-12.0415
▁Panchali	-12.0415
▁Sheikhpura	-12.0415
▁Trent	-12.0415
▁Level	-12.0415
▁Tapas	-12.0415
▁Murari	-12.0415
▁etymolog	-12.0415
▁Kamini	-12.0415
▁Kachari	-12.0415
▁Tomatoes	-12.0415
▁Sayyid	-12.0416
▁Bhumi	-12.0416
▁Babylonian	-12.0416
▁Sadarghat	-12.0416
▁Tech	-12.0416
▁Vision	-12.0416
▁Joyce	-12.0416
▁Shishir	-12.0417
▁Chandpara	-12.0417
▁Janani	-12.0417
▁tag	-12.0417
▁dozen	-12.0417
▁1796	-12.0417
▁disappointed	-12.0417
▁Holi	-12.0417
▁Colin	-12.0417
▁Krishnachandra	-12.0418
▁acidity	-12.0418
▁ether	-12.0418
▁Bhab	-12.0418
▁dung	-12.0418
▁archaeologi	-12.0419
▁dishes	-12.0419
▁Tajpur	-12.0419
▁worst	-12.042
▁tear	-12.042
▁Akon	-12.042
▁fifties	-12.042
▁Jesse	-12.0421
▁removal	-12.0422
▁1812	-12.0422
▁overthrown	-12.0422
▁Grub	-12.0422
▁Dock	-12.0422
▁Mulk	-12.0422
▁Nail	-12.0423
▁interrupted	-12.0423
▁Ghazal	-12.0423
▁Rabia	-12.0423
amela	-12.0423
▁spinach	-12.0423
▁Store	-12.0423
▁Delwar	-12.0424
▁Lima	-12.0424
▁Forster	-12.0424
▁80,000	-12.0424
▁1660	-12.0425
▁Jamiat	-12.0425
▁Hindustani	-12.0425
▁arthritis	-12.0425
▁Mimi	-12.0425
▁Basil	-12.0425
▁Dome	-12.0426
▁hungry	-12.0426
▁Najaf	-12.0426
▁rally	-12.0427
▁Naya	-12.0427
▁Beach	-12.0427
▁Product	-12.0427
▁coil	-12.0428
▁glasses	-12.0428
uya	-12.0428
▁leaked	-12.0428
▁hook	-12.0428
▁policemen	-12.043
▁Singer	-12.043
▁Image	-12.0431
▁mon	-12.0431
narayana	-12.0431
▁Nishi	-12.0432
▁Butcher	-12.0432
▁1260	-12.0432
▁grasses	-12.0433
▁193	-12.0433
▁grooved	-12.0434
azila	-12.0435
▁Moya	-12.0435
▁Victory	-12.0435
▁Nee	-12.0435
▁bio	-12.0436
▁22,000	-12.0436
▁Deen	-12.0436
▁Bun	-12.0437
▁Palashi	-12.0437
▁Joint	-12.0437
▁disagreed	-12.0438
▁odor	-12.0438
▁drag	-12.0438
▁Dun	-12.0439
▁Wahid	-12.044
▁blocked	-12.0442
▁fortress	-12.0443
▁promised	-12.0444
tula	-12.0444
▁Sima	-12.0444
▁exceeded	-12.0445
▁Adil	-12.0446
▁weakened	-12.0447
▁horizontally	-12.0449
▁Ivan	-12.0451
▁Pulse	-12.0451
▁Move	-12.0452
▁Sid	-12.0453
▁athletics	-12.0457
▁contractor	-12.0457
▁Baishakhi	-12.0459
▁accommodation	-12.046
▁asexual	-12.0461
▁courts	-12.0462
lla	-12.0463
▁deposited	-12.0464
▁cameras	-12.0466
▁recovering	-12.0466
▁Fat	-12.0466
▁maker	-12.0471
aries	-12.0472
▁Stan	-12.0473
▁inequality	-12.0475
itch	-12.0479
jira	-12.0481
▁Bargi	-12.0482
him	-12.0482
▁261	-12.0483
▁lists	-12.0484
gin	-12.0484
▁Toss	-12.0488
▁Safi	-12.049
iyya	-12.0491
ied	-12.0494
▁cit	-12.0499
▁Ava	-12.0499
▁Tej	-12.05
▁Homer	-12.0503
tory	-12.0505
▁Bori	-12.0505
ardo	-12.0508
▁Deer	-12.0509
▁sincere	-12.0512
▁voted	-12.0513
▁intended	-12.0519
▁Titans	-12.052
▁folds	-12.052
▁mentally	-12.052
uria	-12.0522
oca	-12.0526
mad	-12.0527
▁Chase	-12.0528
▁foreigners	-12.0529
▁153	-12.0532
▁occasional	-12.0534
val	-12.0542
gins	-12.0543
▁Bats	-12.0545
▁pur	-12.0547
▁forts	-12.0548
▁avoided	-12.0551
▁Brothers	-12.0558
▁crows	-12.0558
▁Nihar	-12.056
▁IC	-12.0561
▁1,1	-12.0565
▁phases	-12.0565
▁Purba	-12.0565
▁fined	-12.0568
▁elderly	-12.0569
cock	-12.0572
▁Dhun	-12.0573
▁stepp	-12.0585
path	-12.0598
jah	-12.0598
▁Rashidi	-12.06
tang	-12.06
▁Lives	-12.0601
▁Tibetans	-12.0603
▁Thar	-12.0604
bah	-12.0606
▁vs	-12.0611
▁Lip	-12.0618
▁Bash	-12.062
▁Systems	-12.0621
▁Accordingly	-12.0623
arti	-12.0626
▁Sali	-12.0627
▁stops	-12.0629
▁Kon	-12.0631
▁fil	-12.0632
▁rickshaws	-12.0634
▁engineers	-12.0635
▁Gohai	-12.0635
▁Qu	-12.0646
▁ghazals	-12.0647
▁waterways	-12.0647
▁App	-12.065
usion	-12.0651
▁campaigned	-12.0653
huda	-12.0654
▁157	-12.0659
▁experiments	-12.066
▁Jab	-12.0662
▁Satyen	-12.0666
▁notation	-12.0671
▁civilians	-12.0672
▁proportional	-12.0674
beria	-12.0677
▁fl	-12.068
▁Op	-12.0682
▁disasters	-12.0685
▁cha	-12.0692
aga	-12.0707
▁bites	-12.0708
▁Dominica	-12.071
▁robots	-12.0711
kaya	-12.0717
▁1700	-12.0718
▁profits	-12.0723
gil	-12.0728
▁Shard	-12.0729
bhanga	-12.0734
magnetic	-12.0736
100	-12.0737
definitely	-12.0738
▁carriers	-12.0739
▁Lions	-12.0739
▁Nita	-12.0744
▁Bain	-12.0744
tani	-12.0746
reaching	-12.0748
▁Emil	-12.0751
una	-12.0753
ami	-12.0755
ancy	-12.0756
tapur	-12.076
▁1600	-12.0766
▁Sah	-12.0774
ept	-12.0781
▁weed	-12.079
▁architects	-12.0795
▁killers	-12.0795
dham	-12.0796
▁exercises	-12.0797
▁tunes	-12.0801
▁Mahim	-12.0807
▁journalists	-12.0807
▁Mahe	-12.081
▁cr	-12.0811
▁sak	-12.0813
FF	-12.0814
akhali	-12.0815
amp	-12.0818
og	-12.0828
▁Mukh	-12.0832
top	-12.0837
lab	-12.084
▁Chik	-12.0845
▁Diploma	-12.0851
▁Dis	-12.0852
▁Naf	-12.0856
apara	-12.0857
▁Gum	-12.0859
▁vi	-12.0861
▁214	-12.0881
rominent	-12.0889
▁Kite	-12.0893
adhu	-12.0897
lai	-12.0898
▁Cas	-12.0899
▁MPs	-12.0904
▁183	-12.0905
▁communists	-12.0905
▁Jul	-12.0909
▁Wali	-12.0909
▁315	-12.091
▁lat	-12.0912
ping	-12.0914
▁Malwa	-12.0915
▁mathematicians	-12.0918
▁Gal	-12.0919
▁Rev	-12.0921
▁Wal	-12.0928
▁230	-12.0928
▁Bish	-12.0929
▁Gl	-12.0933
rush	-12.0933
▁lit	-12.0936
▁assists	-12.0945
bali	-12.0951
▁sins	-12.0953
▁sal	-12.096
zar	-12.0961
▁Shail	-12.0962
▁examinations	-12.0964
▁Sons	-12.0969
▁Zo	-12.0969
▁Nad	-12.0975
ayi	-12.0983
▁weddings	-12.0984
▁Bus	-12.0988
▁Miri	-12.0998
ota	-12.1002
gun	-12.1004
▁Jos	-12.1012
hani	-12.1017
▁Key	-12.1017
▁520	-12.1021
nal	-12.1022
▁distinguish	-12.1024
Muslim	-12.103
bhu	-12.103
▁serials	-12.1036
▁scripted	-12.1036
▁po	-12.1037
▁concepts	-12.1042
▁Jai	-12.1044
▁politicians	-12.105
ink	-12.1053
▁Lin	-12.1054
▁crow	-12.1054
[...]
